<pad>	0
<s>	0
</s>	0
<unk>	0
▁	-2.74349
,	-3.15477
s	-3.29832
▁.	-3.32119
▁the	-3.42977
;	-3.73976
▁&	-3.77664
▁to	-3.96401
apos	-4.0407
▁a	-4.07238
▁of	-4.10721
▁and	-4.17597
▁that	-4.36452
▁I	-4.38865
▁in	-4.51078
y	-4.54218
▁is	-4.68065
▁you	-4.70775
▁it	-4.72185
ed	-4.72896
ing	-4.7334
▁we	-4.84631
▁And	-5.0531
t	-5.06493
▁be	-5.11552
ly	-5.12946
this	-5.14302
d	-5.19158
quot	-5.26343
▁was	-5.39711
▁for	-5.45459
▁with	-5.51536
▁are	-5.54523
▁have	-5.54964
▁on	-5.60912
▁can	-5.65835
▁--	-5.67427
re	-5.6861
-	-5.70404
▁So	-5.72234
▁?	-5.73138
▁what	-5.73197
▁about	-5.79857
n	-5.80245
▁The	-5.81292
▁not	-5.94918
▁do	-5.96066
▁all	-5.96467
▁at	-5.98617
▁my	-6.03199
▁an	-6.04475
▁like	-6.04794
▁one	-6.05558
▁people	-6.05661
▁there	-6.09341
▁from	-6.10181
▁It	-6.10773
e	-6.11434
▁so	-6.1169
m	-6.18486
▁but	-6.20946
▁as	-6.22337
cause	-6.22764
:	-6.23388
▁our	-6.24692
▁just	-6.26968
▁We	-6.29008
▁us	-6.30201
▁me	-6.30361
▁But	-6.31946
▁or	-6.32598
▁these	-6.3383
▁if	-6.34563
very	-6.36384
▁out	-6.36691
▁know	-6.36827
▁get	-6.37053
ve	-6.40236
▁when	-6.42005
▁by	-6.42648
▁them	-6.42768
▁up	-6.43053
▁more	-6.43923
▁he	-6.44582
▁see	-6.45528
▁some	-6.49016
▁had	-6.49419
▁think	-6.50918
▁would	-6.51489
▁who	-6.51518
▁your	-6.5192
▁how	-6.52867
▁their	-6.53809
▁were	-6.55322
en	-6.55756
▁go	-6.56137
▁which	-6.56553
going	-6.56782
▁want	-6.5792
▁look	-6.58172
▁world	-6.6872
▁time	-6.69046
es	-6.69462
▁You	-6.72059
▁here	-6.72417
▁actual	-6.72755
▁has	-6.73179
▁Thi	-6.73201
▁way	-6.74407
▁other	-6.74868
▁into	-6.78104
▁could	-6.79526
▁don	-6.79841
▁then	-6.81774
▁did	-6.82919
▁will	-6.83923
▁years	-6.83953
▁Now	-6.84381
er	-6.84954
▁now	-6.85178
▁make	-6.87852
▁things	-6.88119
▁where	-6.88385
▁say	-6.90789
▁reall	-6.94319
▁no	-6.94417
▁work	-6.98366
▁every	-6.9863
.	-6.98942
▁start	-6.99948
hose	-7.0229
▁need	-7.03655
▁something	-7.04406
▁two	-7.04564
▁right	-7.0509
▁than	-7.05228
▁much	-7.06741
▁sai	-7.07931
▁first	-7.08114
▁take	-7.09019
r	-7.09144
▁call	-7.09476
lso	-7.09523
▁He	-7.09718
▁talk	-7.10194
▁thing	-7.12171
▁over	-7.1235
▁life	-7.14441
▁In	-7.14799
▁she	-7.15425
▁got	-7.15688
ll	-7.15823
▁back	-7.15932
▁kind	-7.17638
▁lot	-7.18053
▁little	-7.18554
▁his	-7.20211
▁That	-7.20703
▁most	-7.21187
▁real	-7.22115
▁What	-7.23885
▁even	-7.25907
▁show	-7.25958
▁A	-7.27017
▁only	-7.27021
▁new	-7.27043
▁many	-7.3019
▁different	-7.31202
▁good	-7.31418
al	-7.31436
▁any	-7.31549
▁change	-7.33108
▁her	-7.33396
ies	-7.33716
a	-7.339
▁t	-7.3429
▁use	-7.35688
▁through	-7.36011
around	-7.36214
▁does	-7.36867
▁There	-7.40905
in	-7.41767
▁mean	-7.42711
▁down	-7.44758
day	-7.45985
▁come	-7.48838
▁same	-7.49317
l	-7.50783
▁Well	-7.50813
▁being	-7.52279
▁try	-7.53202
▁human	-7.54325
▁If	-7.54521
▁tell	-7.54598
one	-7.54745
▁may	-7.54795
▁three	-7.5593
▁put	-7.56016
▁day	-7.56331
▁part	-7.57511
▁great	-7.57559
▁doing	-7.60739
▁well	-7.62615
▁give	-7.63937
▁why	-7.64647
h	-7.65076
▁fact	-7.65165
▁percent	-7.65363
▁year	-7.66378
▁own	-7.66592
▁made	-7.66933
▁child	-7.686
▁find	-7.68859
▁create	-7.69539
▁ask	-7.70312
on	-7.70557
▁happen	-7.71451
▁brain	-7.71919
able	-7.72592
▁should	-7.72601
▁idea	-7.7319
body	-7.7503
▁Be	-7.75921
other	-7.76013
▁important	-7.76079
▁Thank	-7.76148
▁thought	-7.77554
o	-7.77778
ion	-7.77902
ic	-7.78552
▁let	-7.79433
▁love	-7.79699
▁last	-7.7986
▁big	-7.804
went	-7.81025
▁after	-7.81127
▁end	-7.81458
▁problem	-7.82405
▁before	-7.84315
▁might	-7.84555
w	-7.85418
▁course	-7.85438
▁live	-7.85481
ren	-7.85519
▁help	-7.85553
ity	-7.86229
▁him	-7.87099
▁never	-7.87396
▁How	-7.87546
▁example	-7.88175
▁better	-7.88282
▁still	-7.89485
▁off	-7.89522
▁story	-7.89572
c	-7.90676
▁learn	-7.91196
▁point	-7.91391
▁system	-7.91676
▁few	-7.92006
▁When	-7.92656
▁place	-7.93662
▁bit	-7.94294
▁next	-7.94516
be	-7.94671
out	-7.94763
▁question	-7.95321
▁together	-7.95326
ally	-7.95439
ther	-7.95651
▁came	-7.96223
▁turn	-7.96224
▁each	-7.96228
▁able	-7.97653
▁million	-7.97848
▁between	-7.97884
▁ago	-7.99063
▁p	-7.9925
▁long	-8
▁design	-8.0017
▁found	-8.00437
▁sort	-8.00552
▁believe	-8.00811
ting	-8.00962
▁data	-8.01782
▁again	-8.02251
▁cell	-8.02878
▁play	-8.04004
▁become	-8.04213
▁understand	-8.04609
1	-8.05598
▁women	-8.05752
▁too	-8.06393
▁school	-8.06882
▁water	-8.07294
▁Wh	-8.07705
▁light	-8.09
th	-8.09444
▁done	-8.10203
ce	-8.10273
▁technology	-8.11746
▁four	-8.12936
▁always	-8.13638
▁person	-8.13796
▁second	-8.13898
le	-8.14124
▁money	-8.14858
▁U	-8.15078
▁feel	-8.15816
▁10	-8.16419
▁un	-8.16573
▁whole	-8.17203
ok	-8.17508
▁power	-8.18471
▁experience	-8.18869
▁guy	-8.19691
▁working	-8.19983
▁away	-8.20153
▁home	-8.20156
▁ever	-8.20306
▁S	-8.20314
▁information	-8.20489
ld	-8.20543
▁reason	-8.20704
▁My	-8.21348
ves	-8.21489
▁country	-8.21596
▁food	-8.22684
▁kids	-8.23089
▁five	-8.25803
▁project	-8.26035
ment	-8.26259
▁20	-8.26327
or	-8.26765
making	-8.27422
▁old	-8.27502
▁case	-8.27657
▁space	-8.27811
▁She	-8.28146
ever	-8.28265
▁picture	-8.28595
▁small	-8.28705
▁moment	-8.29347
▁building	-8.29424
coming	-8.29498
est	-8.29527
us	-8.2959
▁number	-8.30397
▁health	-8.30468
▁future	-8.30785
▁One	-8.30896
▁everything	-8.31354
ers	-8.31549
▁man	-8.31665
▁develop	-8.31675
▁high	-8.31841
▁C	-8.32209
▁For	-8.32281
▁form	-8.32758
quite	-8.32993
▁best	-8.33307
▁open	-8.3339
▁social	-8.33949
▁hard	-8.34493
ation	-8.34697
▁bring	-8.3554
▁enough	-8.35545
▁left	-8.36127
▁answer	-8.36244
▁thinking	-8.36252
▁less	-8.36901
▁No	-8.3704
▁T	-8.37074
▁basic	-8.37286
▁energy	-8.3755
▁group	-8.38086
▁sense	-8.38212
▁These	-8.38599
▁name	-8.38869
▁process	-8.39027
▁image	-8.39309
▁hand	-8.40147
▁E	-8.40643
cross	-8.41178
ness	-8.41378
S	-8.41866
▁probabl	-8.41894
▁under	-8.42242
▁countries	-8.42514
self	-8.42562
▁grow	-8.42803
▁lives	-8.42955
▁build	-8.43135
▁science	-8.43264
▁job	-8.4339
▁Let	-8.43775
▁simple	-8.44011
▁business	-8.4402
▁room	-8.44305
▁keep	-8.44399
▁face	-8.44534
▁move	-8.44547
g	-8.44681
▁dollars	-8.45066
▁interesting	-8.4548
▁comes	-8.4616
▁seem	-8.47085
retty	-8.47395
▁large	-8.47672
▁else	-8.48015
▁mind	-8.48472
▁billion	-8.48775
▁such	-8.48957
▁allow	-8.49383
▁car	-8.49935
▁piece	-8.5017
▁stuff	-8.5095
▁saw	-8.51018
p	-8.51421
▁language	-8.51493
▁half	-8.51571
▁body	-8.51693
ar	-8.52379
▁inside	-8.52419
▁am	-8.52448
▁living	-8.52454
▁side	-8.53091
▁family	-8.53418
▁care	-8.5346
▁model	-8.537
▁anything	-8.54268
▁far	-8.54503
▁bad	-8.54835
▁week	-8.54889
k	-8.54993
▁share	-8.55586
▁complete	-8.55744
▁men	-8.55753
▁&#9	-8.55805
▁student	-8.55805
▁&#93;	-8.55805
u	-8.56003
▁set	-8.56136
amp	-8.56181
▁later	-8.56277
▁wrong	-8.57093
▁while	-8.57116
▁All	-8.57124
▁book	-8.57211
▁particular	-8.57381
▁whe	-8.57848
▁single	-8.58114
▁walk	-8.58321
z	-8.58473
▁watch	-8.58699
▁government	-8.59163
yet	-8.59174
ry	-8.59306
▁music	-8.59704
▁hav	-8.59831
▁New	-8.59949
▁young	-8.59987
▁global	-8.60007
aid	-8.61107
▁close	-8.61429
▁control	-8.61473
▁B	-8.61474
i	-8.61876
▁thousand	-8.62112
▁b	-8.62262
▁hope	-8.62452
▁matter	-8.62667
▁area	-8.62744
▁myself	-8.62862
▁remember	-8.62873
▁makes	-8.62922
▁video	-8.62975
▁often	-8.63258
▁computer	-8.63443
▁certain	-8.63638
▁study	-8.63649
▁As	-8.63825
▁happens	-8.6386
▁imagine	-8.64044
▁American	-8.64134
▁difference	-8.6441
▁level	-8.64472
▁times	-8.64655
▁seen	-8.6495
▁age	-8.65075
▁TED	-8.65256
ready	-8.65402
▁run	-8.65601
▁top	-8.65692
▁al	-8.65721
▁sure	-8.66059
▁realize	-8.66081
▁possible	-8.66179
▁public	-8.66262
▁words	-8.66442
▁city	-8.66466
▁line	-8.66603
▁problems	-8.67104
▁community	-8.67238
▁read	-8.67436
▁nothing	-8.67906
▁six	-8.68028
▁once	-8.68224
▁true	-8.6828
▁saying	-8.68404
▁interest	-8.68508
▁disease	-8.68845
▁exact	-8.68845
▁both	-8.68974
ch	-8.69076
▁Africa	-8.69192
▁head	-8.69293
▁art	-8.69373
an	-8.6952
ten	-8.69776
▁figure	-8.70272
▁individual	-8.70312
▁research	-8.70411
where	-8.70596
▁almost	-8.70729
b	-8.7095
▁entire	-8.71138
▁spend	-8.71511
▁amazing	-8.71636
▁test	-8.71647
▁issue	-8.71891
▁heart	-8.71933
▁order	-8.72204
▁couple	-8.72304
▁beautiful	-8.72472
▁State	-8.72477
less	-8.72678
▁days	-8.73039
▁Earth	-8.73315
came	-8.73509
▁heard	-8.74073
▁final	-8.74702
▁decided	-8.74898
▁ga	-8.74928
▁ideas	-8.7509
▁environment	-8.75174
▁patient	-8.753
▁history	-8.75369
taking	-8.76006
▁past	-8.76415
▁universe	-8.76586
▁value	-8.76586
▁built	-8.76955
▁cost	-8.77037
▁200	-8.77073
▁ways	-8.77102
▁house	-8.77292
▁word	-8.77514
▁Unite	-8.77685
as	-8.77716
▁stories	-8.78003
▁night	-8.78112
▁hundred	-8.78173
um	-8.78278
▁societ	-8.78285
▁Oka	-8.78608
▁30	-8.79029
is	-8.79123
▁education	-8.79301
▁self	-8.79704
▁To	-8.79888
▁unti	-8.8029
▁cancer	-8.80333
▁Every	-8.80668
▁huge	-8.80703
▁months	-8.80869
▁follow	-8.81014
▁stop	-8.81313
▁ra	-8.81439
▁minutes	-8.82156
▁woman	-8.82864
▁game	-8.83161
▁per	-8.83263
▁quick	-8.83654
▁though	-8.83867
▁sound	-8.83938
msel	-8.83947
▁planet	-8.84038
▁hear	-8.84446
▁economic	-8.84537
▁Internet	-8.84787
▁war	-8.84908
▁50	-8.84927
▁friends	-8.85327
▁China	-8.85359
▁focus	-8.85523
▁D	-8.85676
▁Do	-8.85697
▁kne	-8.86133
▁...	-8.8634
▁team	-8.86547
—	-8.86705
▁state	-8.87152
▁clear	-8.87499
▁mov	-8.87615
▁leave	-8.87677
stead	-8.87765
▁Or	-8.87865
▁teacher	-8.87882
▁challenge	-8.88103
▁pay	-8.88656
▁experiment	-8.88774
▁force	-8.89002
▁population	-8.89173
▁nature	-8.89653
▁term	-8.89717
▁happening	-8.89733
▁M	-8.90079
▁hours	-8.90237
▁free	-8.90469
▁g	-8.90845
▁mother	-8.91056
▁oursel	-8.91266
▁since	-8.91463
against	-8.9194
ability	-8.9209
▁de	-8.92215
age	-8.92846
old	-8.93324
▁plant	-8.93623
▁natural	-8.94006
man	-8.94032
▁base	-8.94046
▁won	-8.94056
▁paper	-8.94138
▁At	-8.94323
▁Oh	-8.94402
▁view	-8.94489
▁front	-8.94603
not	-8.94899
▁machine	-8.95039
▁sometimes	-8.95157
▁must	-8.95177
▁explain	-8.95266
▁listen	-8.95373
▁hold	-8.95749
▁eat	-8.95998
▁company	-8.96033
▁difficult	-8.96246
▁pe	-8.9627
▁America	-8.96585
▁India	-8.96706
ur	-8.9691
▁w	-8.97134
▁structure	-8.97186
▁lead	-8.972
▁outside	-8.9741
▁color	-8.97605
▁third	-8.97686
▁father	-8.97965
▁kill	-8.98159
rhaps	-8.98182
▁powerful	-8.98217
▁God	-8.98368
▁questions	-8.9853
▁simpl	-8.9856
▁bigge	-8.98905
▁100	-8.98928
▁buy	-8.99071
▁works	-8.99623
▁oil	-8.99656
▁amount	-8.99856
▁happy	-8.99933
▁places	-9.00037
▁full	-9.00202
▁Some	-9.00292
▁dur	-9.00635
▁discover	-9.00802
▁market	-9.01217
gan	-9.01478
▁along	-9.01544
up	-9.01573
▁early	-9.01601
▁culture	-9.01742
to	-9.01937
▁air	-9.02009
▁behavior	-9.02211
▁On	-9.02343
▁film	-9.02385
ton	-9.02715
ta	-9.02776
D	-9.02786
▁learning	-9.03037
el	-9.03072
▁least	-9.03533
▁species	-9.03652
▁risk	-9.03794
2	-9.038
▁act	-9.03895
▁black	-9.03993
▁personal	-9.04348
ive	-9.04354
▁15	-9.04373
▁short	-9.04902
▁death	-9.05162
▁program	-9.05409
year	-9.05505
te	-9.05514
▁middle	-9.05617
▁produce	-9.05961
▁feeling	-9.0615
▁easy	-9.06557
▁P	-9.06711
▁choice	-9.06793
▁poor	-9.068
▁object	-9.07018
▁yourself	-9.07199
▁wait	-9.07268
▁save	-9.07776
land	-9.07787
▁deal	-9.07893
▁media	-9.07917
▁local	-9.08168
▁political	-9.08173
▁dream	-9.08464
▁land	-9.08499
ra	-9.08585
▁animals	-9.08825
behind	-9.08985
▁seven	-9.09158
▁add	-9.09468
▁speak	-9.10082
▁relationship	-9.10163
▁die	-9.10473
▁support	-9.11147
ia	-9.11158
▁present	-9.11346
▁rest	-9.11489
▁compani	-9.11597
▁major	-9.12141
▁device	-9.12142
▁stand	-9.1219
it	-9.12239
▁physical	-9.12391
▁size	-9.12405
▁stay	-9.12499
▁fel	-9.12529
▁friend	-9.12572
▁century	-9.12759
cy	-9.1317
▁40	-9.1318
▁systems	-9.13239
▁common	-9.13393
▁exist	-9.13589
▁normal	-9.13791
▁safe	-9.14169
▁wonderful	-9.14181
▁eyes	-9.14363
▁phone	-9.14378
▁doctor	-9.14414
▁pick	-9.14494
▁fear	-9.14563
▁obvious	-9.14749
ma	-9.14853
▁access	-9.14892
▁boy	-9.14956
5	-9.14996
▁People	-9.15441
▁fight	-9.15571
▁pattern	-9.1568
ism	-9.1569
▁beginning	-9.15701
▁spen	-9.15706
▁news	-9.16022
▁generation	-9.16321
▁deep	-9.16383
▁begin	-9.17
ter	-9.17093
▁drive	-9.17159
▁near	-9.17265
▁hit	-9.17284
▁longer	-9.17353
▁los	-9.17597
▁stage	-9.17656
▁resource	-9.17796
▁fall	-9.17848
ous	-9.17872
▁send	-9.18499
▁eight	-9.1854
▁wonder	-9.18571
▁organization	-9.18591
▁write	-9.18959
▁perfect	-9.1912
▁rate	-9.19324
▁lab	-9.19361
▁reach	-9.19407
▁condition	-9.1965
▁growth	-9.19724
▁An	-9.19895
f	-9.19942
▁service	-9.20197
▁tree	-9.20288
8	-9.20534
▁York	-9.20537
▁complex	-9.20701
▁notice	-9.20737
▁arm	-9.2077
,000	-9.20989
▁center	-9.21061
▁key	-9.21309
ri	-9.21426
▁ground	-9.21445
il	-9.21587
▁absolute	-9.21834
▁cool	-9.21841
C	-9.21883
▁step	-9.21939
▁hands	-9.22038
ither	-9.22219
ance	-9.22288
▁parents	-9.2257
▁Yes	-9.22725
ian	-9.23202
giving	-9.2322
▁green	-9.23345
▁impact	-9.23499
▁co	-9.23528
▁sun	-9.23681
▁travel	-9.23779
▁cities	-9.23783
▁solve	-9.23904
la	-9.24529
▁voice	-9.24592
▁morning	-9.24624
▁movement	-9.24681
▁tried	-9.25023
▁treat	-9.25112
▁F	-9.25146
▁Our	-9.25204
▁Can	-9.2553
A	-9.25638
4	-9.25671
▁knowledge	-9.25762
aught	-9.26037
▁average	-9.26048
▁material	-9.26048
▁girl	-9.26248
▁low	-9.26277
▁potential	-9.26336
▁Just	-9.26627
▁dead	-9.2663
▁scale	-9.26744
lt	-9.26773
▁L	-9.26844
▁audience	-9.27203
▁Yea	-9.27708
ist	-9.27922
▁O	-9.28312
▁attention	-9.28386
given	-9.28547
▁extreme	-9.28665
▁raise	-9.28686
▁message	-9.28996
▁network	-9.29102
▁animal	-9.29108
▁opportunity	-9.29111
▁English	-9.29256
▁reality	-9.29269
▁DNA	-9.29552
▁strong	-9.29564
▁slow	-9.29744
▁break	-9.29775
▁sleep	-9.29786
▁Al	-9.30051
▁train	-9.3012
▁innovation	-9.30149
op	-9.302
▁J	-9.30283
▁field	-9.30329
credible	-9.30448
▁pass	-9.30474
▁economy	-9.30748
▁situation	-9.31051
▁born	-9.31199
rote	-9.31199
▁thank	-9.31205
▁eye	-9.31271
et	-9.31462
▁record	-9.31488
3	-9.31599
▁runn	-9.31809
▁With	-9.32277
▁blue	-9.32291
▁protect	-9.32463
▁sudden	-9.32569
▁nice	-9.32581
▁action	-9.32626
9	-9.32634
▁toward	-9.32683
▁result	-9.32861
tic	-9.33019
▁red	-9.33044
▁modern	-9.33184
▁studie	-9.3321
at	-9.33363
▁Right	-9.33494
▁main	-9.335
gone	-9.33514
▁consider	-9.33641
▁blood	-9.33652
▁general	-9.33653
▁sex	-9.33702
▁shape	-9.33732
▁molecule	-9.33786
▁product	-9.33809
▁Go	-9.34148
special	-9.34181
▁pull	-9.34249
▁literal	-9.34261
▁fun	-9.34391
ard	-9.3484
/	-9.3505
▁moral	-9.35052
▁sitt	-9.35191
▁photograph	-9.35341
▁approach	-9.35521
▁tools	-9.35523
▁fee	-9.35566
▁chance	-9.35681
▁Not	-9.35684
▁climate	-9.35997
▁solution	-9.36102
▁increase	-9.36314
K	-9.36608
▁hospital	-9.36632
▁cut	-9.36805
▁surface	-9.36952
▁G	-9.3712
changing	-9.37138
▁fire	-9.37176
▁plan	-9.3728
▁Chinese	-9.37594
▁affect	-9.37715
ine	-9.37797
▁success	-9.37835
▁creating	-9.37917
▁writing	-9.38127
rought	-9.38212
▁sign	-9.38223
▁measure	-9.38224
▁bottom	-9.3824
▁scientists	-9.38456
▁continue	-9.385
▁12	-9.38754
▁sit	-9.389
▁smart	-9.3892
▁camera	-9.38941
▁understanding	-9.39342
▁met	-9.39469
▁By	-9.39679
▁specific	-9.39875
▁books	-9.40022
ach	-9.40187
▁teach	-9.40239
▁region	-9.40326
▁class	-9.40561
ate	-9.40691
ful	-9.40691
ond	-9.4096
▁alone	-9.41016
▁type	-9.41127
by	-9.41207
▁meet	-9.41207
▁pre	-9.41286
▁track	-9.41761
son	-9.41795
▁fail	-9.41868
▁late	-9.42081
▁baby	-9.42208
▁Where	-9.42226
▁source	-9.42361
▁online	-9.42493
▁guess	-9.42545
▁ice	-9.42582
▁forward	-9.42727
▁development	-9.42732
▁cover	-9.42797
▁office	-9.42815
▁truth	-9.42922
▁o	-9.42972
▁song	-9.43122
▁girls	-9.43527
▁box	-9.4353
▁R	-9.43539
▁white	-9.43541
▁3	-9.43563
▁manage	-9.43641
ne	-9.4371
▁wall	-9.43728
▁provide	-9.4379
▁needs	-9.43901
▁em	-9.44111
▁essential	-9.44253
▁kid	-9.44296
▁conversation	-9.44598
lo	-9.44611
▁movie	-9.44737
▁table	-9.4487
▁rich	-9.45231
▁soon	-9.45257
▁connect	-9.45362
▁ocean	-9.45401
▁fast	-9.45856
ro	-9.45882
▁Google	-9.45988
▁village	-9.45988
▁sea	-9.46281
▁fly	-9.46286
▁avail	-9.46339
OK	-9.46503
▁suggest	-9.46649
▁expect	-9.46651
▁theory	-9.46846
▁effective	-9.46943
▁World	-9.47044
▁non	-9.4711
▁18	-9.47164
▁numbers	-9.47239
▁current	-9.47399
▁push	-9.47399
▁fish	-9.47683
▁25	-9.47804
ck	-9.47867
▁somebod	-9.47915
ish	-9.47952
▁industry	-9.48112
▁telling	-9.48146
▁activit	-9.48318
incredibly	-9.4847
▁fundamental	-9.4847
▁easi	-9.48492
▁asking	-9.4876
▁similar	-9.4883
more	-9.48874
ci	-9.48934
ling	-9.48959
▁goal	-9.48995
ie	-9.49253
▁H	-9.49521
▁journey	-9.49553
▁N	-9.49699
▁dis	-9.49951
x	-9.50045
▁benefit	-9.50105
▁worth	-9.50252
▁K	-9.50298
▁page	-9.50417
low	-9.50621
way	-9.50688
▁street	-9.50737
▁collect	-9.50875
▁vision	-9.50928
▁event	-9.51046
kay	-9.51078
▁touch	-9.51222
▁South	-9.51658
▁equal	-9.51684
▁favorite	-9.51756
▁hole	-9.51783
ent	-9.51968
▁dark	-9.52121
▁digital	-9.52135
▁waste	-9.52258
ul	-9.5232
head	-9.52445
▁month	-9.5245
▁response	-9.525
ial	-9.52729
▁happiness	-9.53047
▁connection	-9.53296
▁c	-9.53305
▁spread	-9.53408
▁describe	-9.53517
▁sell	-9.53618
▁among	-9.53636
▁trust	-9.53655
▁robot	-9.53793
▁materials	-9.53979
▁map	-9.54108
▁direct	-9.54275
▁lose	-9.54341
▁technologi	-9.54359
▁Europe	-9.54381
tiny	-9.54536
▁Pa	-9.54644
▁draw	-9.54651
▁Re	-9.54736
taken	-9.54745
▁creative	-9.54769
▁code	-9.54786
▁wish	-9.55171
ich	-9.55334
▁scientific	-9.55548
▁mine	-9.556
▁democracy	-9.55696
tion	-9.55713
I	-9.55835
▁fair	-9.55924
hi	-9.56009
ant	-9.56041
▁store	-9.56359
▁screen	-9.56421
time	-9.56449
▁join	-9.56452
▁effect	-9.5648
▁recently	-9.56686
▁successful	-9.568
▁80	-9.56874
▁factor	-9.57363
▁games	-9.57385
▁miles	-9.57516
▁f	-9.57574
▁subject	-9.57864
ated	-9.57873
▁evidence	-9.57876
▁special	-9.57911
▁mental	-9.57918
▁law	-9.58015
▁recognize	-9.58021
▁secret	-9.58271
▁attack	-9.58272
▁offer	-9.58339
▁rules	-9.58523
▁content	-9.58683
▁position	-9.58748
ver	-9.58889
▁nation	-9.58901
▁function	-9.58944
▁drug	-9.58954
▁putting	-9.58962
▁memory	-9.59066
▁yes	-9.59179
▁pro	-9.59333
▁emotion	-9.59364
N	-9.59364
ually	-9.59554
▁transform	-9.59834
▁Don	-9.59905
▁tend	-9.59941
▁fund	-9.60065
▁road	-9.60169
▁practice	-9.60216
▁After	-9.60271
▁First	-9.60271
▁carbon	-9.60293
▁artist	-9.60324
▁sounds	-9.6052
▁cars	-9.60601
▁Maybe	-9.60679
▁Of	-9.60685
▁Even	-9.60734
▁W	-9.60769
▁mass	-9.60847
▁post	-9.6089
▁medical	-9.60999
▁invent	-9.61046
▁necessar	-9.61082
▁block	-9.61087
▁concept	-9.61234
ized	-9.61378
he	-9.61404
▁represent	-9.61465
▁search	-9.61901
▁nine	-9.61926
▁list	-9.61932
ought	-9.61967
bo	-9.6198
▁60	-9.62104
side	-9.6212
▁tru	-9.62193
▁period	-9.62351
▁Look	-9.62734
the	-9.62771
▁son	-9.63375
▁West	-9.63455
▁crazy	-9.63557
▁East	-9.63557
▁11	-9.63694
▁pain	-9.6384
▁hot	-9.63861
▁choose	-9.63975
▁software	-9.63976
▁degree	-9.64163
▁account	-9.64348
▁female	-9.64395
how	-9.64568
ary	-9.64619
▁onto	-9.64814
ily	-9.64821
ol	-9.64892
▁require	-9.64923
▁meaning	-9.65116
▁stick	-9.6513
▁surprise	-9.65241
▁throw	-9.65245
▁return	-9.65359
line	-9.65426
▁HIV	-9.65666
▁further	-9.65667
▁revolution	-9.65766
▁Are	-9.65814
▁shift	-9.65959
▁trial	-9.66107
▁stress	-9.66116
▁De	-9.66161
▁tool	-9.66221
▁national	-9.66432
▁Who	-9.66454
▁plastic	-9.66523
▁extraordinar	-9.66954
▁remain	-9.66954
▁role	-9.66956
▁TV	-9.66965
▁results	-9.66974
▁wind	-9.67038
▁fit	-9.67146
▁violence	-9.67237
turned	-9.67324
▁African	-9.67324
7	-9.67489
▁predict	-9.67635
▁door	-9.67708
▁Ba	-9.67807
▁appear	-9.67812
M	-9.67905
▁quality	-9.67926
▁faster	-9.67955
▁leaders	-9.67979
▁communities	-9.68258
▁led	-9.68312
eries	-9.68426
▁haven	-9.68541
▁context	-9.68697
▁treatment	-9.68737
▁wear	-9.68792
▁count	-9.68818
▁male	-9.68858
▁adult	-9.69007
▁expert	-9.69138
▁worse	-9.69138
▁indeed	-9.6914
▁fine	-9.6928
▁positive	-9.6938
▁gre	-9.6946
▁engineer	-9.69534
▁John	-9.69577
▁surprising	-9.6958
▁finish	-9.69827
▁several	-9.70025
▁solar	-9.70025
▁traditional	-9.70312
▁visual	-9.70376
▁chemical	-9.70474
▁skin	-9.70654
6	-9.70674
ge	-9.70927
▁fill	-9.70954
bodie	-9.71197
▁decision	-9.71277
▁finding	-9.71283
ti	-9.71356
▁price	-9.71371
▁virus	-9.71823
▁income	-9.7184
▁forest	-9.71852
ical	-9.71869
▁Most	-9.71957
▁schools	-9.7205
▁connected	-9.7207
▁deliver	-9.72571
▁includ	-9.72688
▁peace	-9.7295
▁immediate	-9.73192
▁carry	-9.7326
▁War	-9.73265
▁letter	-9.73281
▁decisions	-9.73287
and	-9.73824
▁famous	-9.74051
▁task	-9.74116
▁Act	-9.74124
▁clean	-9.74211
▁critical	-9.74229
▁publish	-9.74271
▁square	-9.74452
▁perspective	-9.74581
T	-9.74687
▁drugs	-9.74713
▁win	-9.74723
mo	-9.74758
▁lesson	-9.74771
ood	-9.74994
▁training	-9.75034
▁super	-9.75041
▁rise	-9.75155
▁aren	-9.75189
▁Dr	-9.75414
▁genetic	-9.75439
▁math	-9.75536
▁minute	-9.75596
▁version	-9.75609
O	-9.75661
co	-9.75938
▁college	-9.75991
▁standard	-9.76015
▁website	-9.76464
▁direction	-9.76516
▁eventual	-9.76554
id	-9.76602
▁depend	-9.76697
▁hour	-9.76809
▁bank	-9.76865
▁compassion	-9.76935
▁prevent	-9.7694
▁freedom	-9.76945
▁improve	-9.76997
▁agree	-9.77409
▁poverty	-9.77418
▁crisis	-9.77418
▁wife	-9.77419
▁warm	-9.77463
▁90	-9.77472
▁bacteria	-9.77775
▁conflict	-9.77815
▁North	-9.77942
▁computers	-9.77972
▁mom	-9.78075
ha	-9.78177
▁David	-9.78896
▁politic	-9.7896
▁supposed	-9.79006
▁excited	-9.79017
▁involve	-9.79084
kept	-9.79352
died	-9.79398
▁sent	-9.79721
light	-9.79818
▁blind	-9.79823
▁effort	-9.79845
▁respond	-9.79845
▁please	-9.7994
▁speed	-9.80115
▁alive	-9.8039
am	-9.80478
▁lower	-9.80556
▁accept	-9.80833
▁exciting	-9.80833
▁strange	-9.81246
▁interact	-9.81278
▁possibilit	-9.81331
▁protein	-9.81331
▁earlie	-9.81332
▁remarkabl	-9.81429
▁path	-9.81525
▁visit	-9.81745
▁board	-9.81754
▁religion	-9.81831
▁meant	-9.81859
▁societies	-9.82016
P	-9.82069
magine	-9.82331
▁enjoy	-9.82333
▁target	-9.82333
▁above	-9.82337
▁argument	-9.82342
▁reading	-9.82615
▁skills	-9.82672
▁70	-9.82807
▁higher	-9.82816
▁financial	-9.82839
B	-9.82865
der	-9.82961
▁link	-9.82974
▁flow	-9.83011
▁institution	-9.83105
▁progress	-9.83291
▁famili	-9.83326
▁expensive	-9.83346
▁daughter	-9.83346
▁impossibl	-9.83358
like	-9.83359
▁typical	-9.83396
▁afford	-9.83517
▁purpose	-9.83679
▁smell	-9.83857
▁bunch	-9.8386
ors	-9.8395
▁evolution	-9.84149
▁police	-9.843
▁16	-9.84304
▁weight	-9.84433
▁policy	-9.846
▁race	-9.84618
▁sand	-9.84634
0	-9.84646
▁involv	-9.84655
▁cross	-9.84829
▁medicine	-9.84884
▁concern	-9.84884
▁prison	-9.84885
▁perform	-9.85002
▁cap	-9.85015
▁anywhere	-9.85102
▁slight	-9.85135
▁products	-9.8539
▁Western	-9.85403
▁solutions	-9.8575
▁neurons	-9.85773
▁method	-9.85821
▁familiar	-9.85906
▁colleague	-9.85923
▁magic	-9.85932
▁foot	-9.8595
▁explore	-9.86063
▁17	-9.86101
▁X	-9.86156
▁massive	-9.86261
▁ready	-9.86342
▁straight	-9.86447
na	-9.86605
▁Arab	-9.86739
▁window	-9.86977
▁funny	-9.86979
▁bus	-9.8701
▁reduce	-9.87128
▁site	-9.87217
▁Universit	-9.87244
▁larger	-9.87311
▁teaching	-9.87325
▁Your	-9.87339
▁sexual	-9.87352
▁unique	-9.87506
▁decide	-9.87568
ier	-9.87888
▁cold	-9.87929
▁Bo	-9.87996
▁writ	-9.88043
▁constant	-9.88569
▁dangerous	-9.88574
▁interaction	-9.88614
▁gas	-9.88646
▁usual	-9.8868
refore	-9.8895
▁element	-9.891
▁temperature	-9.89107
▁launch	-9.89108
▁Like	-9.89109
▁address	-9.89312
▁breath	-9.89512
ize	-9.89622
▁saving	-9.89724
▁career	-9.89794
▁14	-9.89889
▁roll	-9.89928
▁robots	-9.90079
R	-9.90164
▁tissue	-9.90195
▁shark	-9.90207
▁brother	-9.90216
▁original	-9.90295
▁securit	-9.90302
▁signal	-9.90303
▁photo	-9.9046
▁beauty	-9.90737
▁complicated	-9.90737
▁paint	-9.90979
▁smaller	-9.91279
▁international	-9.91287
tally	-9.91311
▁luck	-9.9165
ber	-9.91694
▁fuel	-9.91842
▁extra	-9.91843
▁influence	-9.91844
▁Ne	-9.91958
▁increasing	-9.92011
▁rule	-9.92062
go	-9.92081
v	-9.92161
▁painting	-9.92227
though	-9.92249
▁total	-9.92313
▁serious	-9.92355
▁scar	-9.92449
▁environmental	-9.92637
bas	-9.92706
com	-9.92758
▁legs	-9.92872
▁bone	-9.92906
▁babies	-9.92953
▁types	-9.93072
▁communication	-9.93077
▁drop	-9.93204
▁shot	-9.93397
▁performance	-9.93408
▁199	-9.93466
ite	-9.93478
▁fantastic	-9.93515
▁check	-9.93552
▁release	-9.93568
pe	-9.93589
▁vote	-9.93675
▁spot	-9.93685
▁heat	-9.93906
ence	-9.93917
▁humanity	-9.9394
▁report	-9.93958
▁German	-9.9408
▁television	-9.9408
▁Afghanistan	-9.9408
▁terribl	-9.9408
▁shared	-9.94215
older	-9.94232
▁stopp	-9.94294
▁sub	-9.94413
▁machines	-9.94437
pa	-9.94453
▁con	-9.94518
ig	-9.94524
▁active	-9.94533
▁wild	-9.94552
▁trouble	-9.94648
▁dance	-9.94733
ley	-9.94774
▁random	-9.94789
▁engine	-9.94826
ni	-9.94944
▁genes	-9.9502
▁ultimate	-9.9522
▁speech	-9.95248
▁enter	-9.95258
ac	-9.95261
▁bar	-9.95277
▁architecture	-9.95286
▁trade	-9.95377
▁significant	-9.95512
▁card	-9.95643
▁press	-9.95661
▁birth	-9.95695
▁rock	-9.95764
ng	-9.95784
▁principle	-9.95794
▁Two	-9.95794
▁chair	-9.95798
▁radio	-9.95817
lin	-9.9593
▁cultural	-9.95989
▁achieve	-9.96098
cl	-9.96207
▁survive	-9.96227
▁decades	-9.96316
▁identit	-9.96372
▁mobile	-9.96372
▁creativity	-9.96373
▁instance	-9.96373
▁interview	-9.96373
▁electricity	-9.96391
▁mention	-9.96418
▁surgery	-9.96533
▁researcher	-9.96604
▁respect	-9.96914
▁separate	-9.96922
▁creature	-9.96954
▁private	-9.96954
▁biology	-9.96955
▁production	-9.97038
▁underst	-9.97078
▁Me	-9.97091
▁ran	-9.97236
▁park	-9.97265
▁belief	-9.97376
tro	-9.97393
▁Toda	-9.97454
▁invest	-9.97474
▁summer	-9.97539
▁brand	-9.97542
▁relative	-9.97611
▁Ra	-9.97684
E	-9.97746
ir	-9.97826
▁wide	-9.97933
▁detail	-9.9795
▁forth	-9.98003
▁engineering	-9.9802
▁13	-9.9818
▁cook	-9.9833
ca	-9.98548
ga	-9.98697
▁honest	-9.98718
▁failure	-9.98724
▁rain	-9.98927
▁poet	-9.98959
ities	-9.99035
ag	-9.9908
▁propert	-9.99136
▁star	-9.99144
▁From	-9.99151
▁dad	-9.99167
ad	-9.99195
▁floor	-9.99314
ak	-9.99369
ship	-9.99392
▁useful	-9.99455
▁citizens	-9.99515
vi	-9.99624
▁feed	-9.99782
▁sat	-9.99794
▁worker	-9.99818
▁La	-9.99891
▁convince	-9.99912
▁emotional	-10.0001
▁19	-10.0002
▁gain	-10.0014
▁unit	-10.0019
▁ball	-10.0029
▁Indian	-10.0042
▁twi	-10.0048
▁apply	-10.0048
▁coffee	-10.0051
▁demand	-10.0052
▁bread	-10.0052
▁21	-10.0052
▁military	-10.0056
▁Pe	-10.0095
▁compare	-10.0109
▁popular	-10.0112
▁crime	-10.0112
▁range	-10.0151
▁except	-10.0169
▁vehicle	-10.0173
▁intelligence	-10.0173
▁central	-10.0173
▁email	-10.0173
▁passion	-10.0181
▁City	-10.0195
▁fix	-10.0207
▁neighborhood	-10.0235
▁classroom	-10.0235
hand	-10.0237
▁recent	-10.0237
▁slide	-10.0247
▁brains	-10.0248
▁communicate	-10.0251
▁meeting	-10.0267
do	-10.0283
▁technique	-10.0296
▁walked	-10.0302
▁mo	-10.0307
▁text	-10.0321
▁Co	-10.0345
▁landscape	-10.0358
▁sample	-10.0358
▁corner	-10.0366
▁forget	-10.0368
▁yea	-10.0373
ible	-10.0379
▁Man	-10.0415
▁charge	-10.0421
▁physics	-10.0421
▁decade	-10.0427
upon	-10.0445
▁serve	-10.0477
▁generate	-10.0478
▁destroy	-10.0484
▁Facebook	-10.0484
▁wealth	-10.0484
▁complexity	-10.0493
▁Many	-10.0531
▁la	-10.0532
▁conference	-10.0547
▁station	-10.0549
▁speaking	-10.0564
▁drawing	-10.0567
ab	-10.057
▁fold	-10.0571
wise	-10.0607
$	-10.0611
▁nuclear	-10.0611
▁reward	-10.0612
▁collective	-10.0613
▁aware	-10.0615
▁document	-10.0623
▁cloud	-10.0626
▁etc	-10.0655
▁London	-10.0675
▁drink	-10.0675
▁campaign	-10.0675
▁Bill	-10.068
os	-10.0683
▁edge	-10.0684
▁San	-10.0702
tra	-10.0716
▁minds	-10.0724
▁profound	-10.0739
▁professional	-10.0745
▁zero	-10.0748
▁24	-10.075
▁Ro	-10.0778
▁introduce	-10.0792
ster	-10.0797
▁His	-10.0804
H	-10.0805
▁afr	-10.0807
eath	-10.0807
▁advance	-10.0817
▁scientist	-10.0826
▁driving	-10.0838
▁jump	-10.0845
▁rid	-10.0858
▁Middle	-10.087
▁virtual	-10.087
▁worst	-10.087
▁sentence	-10.087
▁dying	-10.0878
▁oh	-10.0882
▁highly	-10.0891
▁Have	-10.0905
▁mission	-10.091
ler	-10.0923
▁election	-10.0926
im	-10.0928
▁define	-10.0929
▁universit	-10.0935
▁option	-10.0935
▁various	-10.0936
▁sister	-10.094
▁cycle	-10.0944
▁birds	-10.0944
me	-10.0945
▁argue	-10.0945
▁inspired	-10.0954
▁Z	-10.0957
▁stars	-10.096
bi	-10.0963
▁web	-10.0964
▁catch	-10.0989
ide	-10.0991
▁bear	-10.0995
▁enormous	-10.1002
▁husband	-10.1002
▁instrument	-10.1002
▁insect	-10.1002
known	-10.1004
▁glass	-10.1009
▁Ma	-10.1019
▁realiz	-10.1043
▁micro	-10.1064
▁root	-10.1068
▁Take	-10.1072
▁expression	-10.1072
▁meter	-10.1078
▁dog	-10.109
▁Her	-10.1112
▁willing	-10.1113
▁remind	-10.113
▁disappear	-10.1135
▁river	-10.1135
▁vast	-10.1136
▁camp	-10.1137
▁Ver	-10.1147
▁Ho	-10.1157
▁Mr	-10.1168
▁Y	-10.1172
standing	-10.1189
▁laugh	-10.1189
▁ex	-10.1191
▁wood	-10.1194
▁genome	-10.1203
▁weapon	-10.1203
▁Think	-10.1203
▁radical	-10.1203
▁match	-10.1219
ke	-10.1235
▁town	-10.1239
▁basi	-10.1268
▁California	-10.1271
▁algorithm	-10.1271
po	-10.1287
▁shar	-10.1289
▁careful	-10.1293
tuck	-10.1302
▁capacity	-10.1306
▁accident	-10.1318
▁double	-10.1334
▁investment	-10.1342
▁print	-10.1357
▁avoid	-10.1373
▁networks	-10.1375
▁balance	-10.1376
▁graph	-10.1387
▁apart	-10.1394
▁threat	-10.1394
▁galax	-10.1408
▁leadership	-10.1409
ists	-10.1422
▁missing	-10.1424
ble	-10.143
▁possibl	-10.1456
▁breast	-10.1478
▁component	-10.1478
▁sector	-10.1478
▁gift	-10.1478
▁supply	-10.1478
▁dramatic	-10.1478
▁flying	-10.1515
▁distance	-10.1519
▁urban	-10.1531
▁damage	-10.1537
▁hate	-10.1542
▁sky	-10.1543
▁imagination	-10.1549
ifi	-10.1549
▁artists	-10.1561
▁fashion	-10.1562
gen	-10.1568
ture	-10.1577
▁plann	-10.158
▁opportunit	-10.1582
▁flu	-10.1599
▁dimension	-10.1612
ba	-10.1613
▁Chris	-10.1615
▁autism	-10.1618
▁desire	-10.1618
un	-10.1659
▁streets	-10.1672
ember	-10.1684
▁expand	-10.1689
▁responsibilit	-10.1689
▁lack	-10.169
ify	-10.1697
▁evolve	-10.173
▁Le	-10.1733
▁Second	-10.1761
▁airplane	-10.1761
▁corruption	-10.1762
▁layer	-10.1788
▁capital	-10.1796
▁Iraq	-10.1816
▁bridge	-10.182
▁multi	-10.1822
▁express	-10.1827
▁neighbor	-10.1832
▁Would	-10.1832
▁opposite	-10.1833
▁pressure	-10.1833
▁traffic	-10.1892
▁article	-10.1905
▁gun	-10.1918
▁bubble	-10.1919
▁gap	-10.1941
▁Am	-10.1961
▁circle	-10.1963
▁legal	-10.1967
▁encourage	-10.1978
▁universal	-10.1978
▁biological	-10.1983
▁anyway	-10.1992
▁St	-10.1994
▁none	-10.2001
▁chose	-10.2001
▁Did	-10.2036
▁Fe	-10.2037
que	-10.2046
▁rare	-10.2051
▁AIDS	-10.2051
▁application	-10.2051
▁consequence	-10.2051
▁equip	-10.2051
▁infrastructure	-10.2051
▁stem	-10.2052
▁National	-10.2054
fa	-10.2056
▁tough	-10.2072
▁European	-10.2079
▁hearing	-10.2102
▁reflect	-10.2123
▁Again	-10.2126
▁reveal	-10.2126
▁oxygen	-10.2126
▁consciousness	-10.2127
▁miss	-10.2128
▁party	-10.2132
▁divide	-10.2133
night	-10.2151
▁states	-10.2153
▁insight	-10.2156
▁net	-10.2159
▁engage	-10.2159
mi	-10.2168
G	-10.2168
▁trick	-10.2171
ub	-10.2176
▁capture	-10.219
▁Ri	-10.2196
▁bottle	-10.22
▁civilization	-10.2201
▁controll	-10.2209
▁receive	-10.2212
▁spin	-10.2213
L	-10.2219
▁definition	-10.2239
▁contain	-10.2241
ray	-10.2257
▁struggle	-10.2259
con	-10.227
term	-10.2271
▁Great	-10.2275
▁password	-10.2276
▁Over	-10.2277
▁loss	-10.2289
▁members	-10.2291
▁core	-10.23
▁hair	-10.2313
thing	-10.2315
ball	-10.2318
▁mouth	-10.2335
ka	-10.2338
▁civil	-10.2347
▁responsibl	-10.2351
▁tremendous	-10.2351
▁wisdom	-10.2351
▁marrie	-10.2351
▁advantage	-10.2351
▁500	-10.2352
▁Any	-10.2353
▁atmosphere	-10.2354
per	-10.2356
no	-10.2376
▁mountain	-10.2381
uc	-10.2395
▁sustainabl	-10.2397
▁Paul	-10.2407
▁evolv	-10.2423
▁scene	-10.2427
▁patent	-10.2428
▁broken	-10.2445
▁emerg	-10.2445
▁organism	-10.2446
ization	-10.2454
▁dynamic	-10.2472
▁invite	-10.249
▁surviv	-10.2502
▁French	-10.2504
▁ancient	-10.2504
▁magazine	-10.2504
▁museum	-10.2505
▁tube	-10.2507
▁joy	-10.2507
▁reaction	-10.2508
▁background	-10.2509
▁beat	-10.2523
▁Ka	-10.2541
▁worry	-10.257
▁produc	-10.2574
▁forever	-10.258
▁architect	-10.258
▁Audience	-10.2582
▁British	-10.2582
▁outcome	-10.2582
va	-10.2587
▁combine	-10.2589
▁consumer	-10.2589
▁promise	-10.2594
rit	-10.2611
▁sad	-10.2612
▁date	-10.2623
ade	-10.2632
▁cheap	-10.2649
▁president	-10.266
▁click	-10.266
▁Dan	-10.2661
▁Mi	-10.2664
▁commercial	-10.2665
ah	-10.2669
▁Big	-10.2675
▁ship	-10.2675
ot	-10.2678
ham	-10.2688
▁fac	-10.2694
ner	-10.2696
▁cry	-10.2702
▁crowd	-10.2706
om	-10.2716
▁statistics	-10.2721
har	-10.2738
▁ecosystem	-10.2739
▁newspaper	-10.2739
▁hurt	-10.2739
▁perception	-10.2739
▁rapid	-10.2739
▁operation	-10.2743
▁unlike	-10.2743
▁pair	-10.2748
▁quote	-10.275
▁grade	-10.275
▁farm	-10.2751
▁sick	-10.2751
men	-10.2753
ug	-10.2765
▁parent	-10.2767
diversity	-10.2771
ft	-10.2775
ise	-10.2777
▁location	-10.281
▁rough	-10.2813
▁Japan	-10.2818
▁horse	-10.2818
▁creation	-10.2818
▁giant	-10.2818
▁analys	-10.2819
▁recover	-10.2819
▁injur	-10.282
▁Sometime	-10.2821
of	-10.2823
▁suffering	-10.2823
▁Ca	-10.2829
▁deeply	-10.2841
▁correct	-10.2841
▁character	-10.2852
▁foreign	-10.2856
▁Muslim	-10.2865
▁See	-10.287
▁photos	-10.2877
▁pop	-10.2892
▁metaphor	-10.2898
▁lunch	-10.2898
▁noise	-10.291
▁claim	-10.2915
▁dai	-10.2917
▁prove	-10.2917
rry	-10.292
▁grown	-10.2933
ex	-10.2937
▁topic	-10.2943
di	-10.2943
pi	-10.2945
▁fascinating	-10.2956
▁strength	-10.2964
▁identify	-10.2979
▁contact	-10.2979
▁chain	-10.2979
▁flight	-10.298
▁smile	-10.2984
▁compar	-10.2986
▁br	-10.2989
▁notion	-10.3
▁dot	-10.3009
▁V	-10.3015
▁bomb	-10.3019
▁Mo	-10.3023
▁Sh	-10.304
▁professor	-10.306
▁error	-10.306
▁dinner	-10.306
▁Japanese	-10.306
▁despi	-10.3061
▁labor	-10.3068
▁mid	-10.3069
▁Once	-10.3071
eating	-10.3073
▁justice	-10.3076
▁fully	-10.3083
▁foundation	-10.3084
▁tradition	-10.3089
▁note	-10.3098
ious	-10.3105
▁stream	-10.3139
▁regular	-10.3142
▁strategy	-10.3142
▁negative	-10.3142
▁illness	-10.3143
▁anti	-10.3143
▁politician	-10.3144
▁shoes	-10.3144
▁diet	-10.3148
dimensional	-10.3149
U	-10.3163
▁Con	-10.3169
ee	-10.3174
▁Un	-10.3174
▁201	-10.3186
▁litera	-10.3187
▁suffer	-10.3219
▁happi	-10.3222
▁Brazil	-10.3224
▁George	-10.3225
▁proud	-10.3225
▁transformation	-10.323
▁10,000	-10.3234
▁plane	-10.3243
▁Li	-10.3257
▁enable	-10.326
ip	-10.3265
▁due	-10.3275
fi	-10.3277
▁300	-10.3283
▁Asia	-10.3283
▁puzzle	-10.3305
▁attempt	-10.3308
▁marriage	-10.3308
▁unfortunate	-10.3308
▁feature	-10.3308
▁childhood	-10.3311
▁collapse	-10.3313
▁cave	-10.3314
▁moon	-10.3315
▁Po	-10.3338
▁wave	-10.3348
▁laws	-10.3349
ut	-10.335
av	-10.3351
ium	-10.3352
▁operat	-10.3352
state	-10.3354
▁lay	-10.3355
▁trip	-10.3379
▁spirit	-10.3382
▁economist	-10.3392
▁sugar	-10.3392
▁yellow	-10.3392
▁GDP	-10.3392
▁grand	-10.3392
▁2	-10.3403
▁round	-10.3412
▁gay	-10.3421
▁volunteer	-10.3477
▁competition	-10.3477
▁faith	-10.3477
▁particle	-10.3477
▁technical	-10.3477
▁interface	-10.3477
versus	-10.3477
▁employee	-10.3477
▁Good	-10.3478
▁mis	-10.348
▁nurse	-10.3487
▁rat	-10.3504
▁di	-10.3505
▁Iran	-10.3507
io	-10.3508
▁metal	-10.3513
▁More	-10.3522
▁bio	-10.3524
ger	-10.3526
▁users	-10.3532
▁seat	-10.3541
▁graduate	-10.3549
▁talent	-10.3562
▁display	-10.3562
▁brilliant	-10.3569
end	-10.3577
▁sing	-10.359
▁include	-10.3604
▁narrative	-10.3607
▁shop	-10.3622
▁band	-10.3636
▁farmers	-10.364
▁Ta	-10.3643
▁mix	-10.3646
▁honor	-10.3648
▁novel	-10.365
▁cognitive	-10.365
▁agenc	-10.365
▁Vi	-10.3657
▁Green	-10.3662
▁colon	-10.3663
▁sequence	-10.3665
▁therap	-10.3682
ure	-10.3686
▁speaker	-10.3711
ack	-10.3714
F	-10.3718
▁sensor	-10.3719
ile	-10.3725
ja	-10.3737
▁mess	-10.3739
▁killing	-10.3742
▁aspect	-10.3745
▁leader	-10.3757
▁electrical	-10.3762
▁ideal	-10.3768
▁gold	-10.3781
mp	-10.3803
bu	-10.3807
▁invisible	-10.3812
▁writer	-10.3819
▁School	-10.3823
▁artificial	-10.3823
▁budget	-10.3823
▁mechanism	-10.3823
▁worri	-10.3823
▁hidden	-10.3823
▁motor	-10.3824
▁weird	-10.3824
wa	-10.3827
▁designer	-10.3827
▁react	-10.3831
▁limited	-10.386
nstead	-10.3872
▁related	-10.3879
▁Art	-10.388
▁Mars	-10.39
▁app	-10.3912
▁fresh	-10.3912
▁official	-10.3912
▁feedback	-10.3912
▁finger	-10.3913
▁passionate	-10.3913
▁efficient	-10.3915
▁Se	-10.3918
▁Cha	-10.3928
ru	-10.3929
▁effects	-10.3959
▁spaces	-10.3963
▁meat	-10.3966
▁truck	-10.3967
▁practical	-10.3972
▁Does	-10.3973
▁dollar	-10.3979
▁vaccine	-10.3987
▁Mexic	-10.3998
▁Israel	-10.3999
▁198	-10.4001
▁opinion	-10.4001
▁succeed	-10.4001
▁lung	-10.4001
▁construction	-10.4003
▁depression	-10.4004
▁score	-10.4008
ically	-10.4009
▁facilit	-10.401
▁collection	-10.4011
▁solv	-10.402
▁Sun	-10.4021
ap	-10.4028
▁profit	-10.4041
▁hopeful	-10.4065
▁infect	-10.408
▁island	-10.4084
▁epidemic	-10.4091
▁leaving	-10.4091
▁mouse	-10.4091
▁1,000	-10.4092
right	-10.4093
▁tumor	-10.4093
▁shock	-10.4093
▁hop	-10.4097
ow	-10.4101
▁operate	-10.4118
▁proper	-10.4123
▁pack	-10.4134
oc	-10.4138
fe	-10.4154
cal	-10.4162
▁discovery	-10.4163
rew	-10.4171
▁Twitter	-10.4182
▁drone	-10.4182
▁switch	-10.4183
▁disaster	-10.4185
▁sp	-10.4194
▁400	-10.4208
▁arrive	-10.421
▁estimate	-10.4234
▁Australia	-10.4243
▁remove	-10.4252
ran	-10.4253
▁bag	-10.4258
▁Mar	-10.4269
▁discuss	-10.427
▁Could	-10.4274
▁entertain	-10.4274
▁grandmother	-10.4274
▁platform	-10.4274
▁satellite	-10.4274
▁earth	-10.4276
▁pleasure	-10.4278
▁Te	-10.4278
▁precise	-10.4279
ina	-10.4286
▁chip	-10.429
▁battle	-10.429
▁authorit	-10.4301
▁Th	-10.4312
▁da	-10.4328
▁wire	-10.433
▁era	-10.4366
▁frame	-10.4366
▁Einstein	-10.4366
▁exercise	-10.4366
▁odd	-10.4368
▁theater	-10.4369
▁surround	-10.4371
▁industrial	-10.4378
▁9	-10.4379
▁highest	-10.4388
▁pai	-10.4392
ep	-10.4425
▁po	-10.4449
▁adapt	-10.4456
▁Washing	-10.446
▁boat	-10.446
▁chart	-10.446
▁accurate	-10.446
V	-10.4462
▁invention	-10.4469
board	-10.4475
og	-10.4477
▁symbol	-10.4496
▁copy	-10.4509
▁Hi	-10.4524
▁swim	-10.4533
▁4	-10.4536
▁independent	-10.4539
▁phenomen	-10.4542
▁Wom	-10.455
▁determine	-10.4552
▁rural	-10.4554
▁ordinar	-10.4554
▁string	-10.4554
▁Yet	-10.4556
▁musician	-10.456
▁Ph	-10.4564
▁voices	-10.4565
▁Che	-10.4575
▁blow	-10.4579
▁Pro	-10.4581
▁cat	-10.4584
▁detect	-10.4589
▁poll	-10.4597
ob	-10.4603
▁clinical	-10.4612
▁Kenya	-10.4619
▁Come	-10.4647
ping	-10.4647
▁translate	-10.4649
▁channel	-10.4649
▁sweet	-10.4649
▁distribution	-10.4651
▁worldwide	-10.4653
▁bike	-10.4657
▁partner	-10.4666
life	-10.4675
▁sold	-10.4681
wood	-10.4685
▁losing	-10.4686
qui	-10.469
▁fat	-10.4712
▁debate	-10.4716
ram	-10.4718
▁Gra	-10.4736
▁conscious	-10.4743
▁pocket	-10.4745
▁garden	-10.4745
▁alternative	-10.4746
▁bright	-10.4748
▁discussion	-10.475
▁wheel	-10.4754
▁dry	-10.477
ago	-10.4775
▁sustain	-10.4776
izing	-10.4779
▁matters	-10.478
▁replace	-10.4788
0,000	-10.4789
▁inter	-10.4808
off	-10.4809
▁mark	-10.4817
▁organic	-10.4818
▁soil	-10.4827
▁gra	-10.4829
▁Charles	-10.4843
▁England	-10.4843
▁coast	-10.4843
▁dozen	-10.4843
bility	-10.4853
work	-10.4881
▁spoke	-10.4883
▁belong	-10.4885
▁chemistr	-10.4897
▁leg	-10.4908
W	-10.493
pit	-10.4933
▁harder	-10.4934
▁multiple	-10.4941
▁suit	-10.4941
▁awful	-10.4941
▁peak	-10.4943
▁atom	-10.4944
▁fellow	-10.4944
▁chicken	-10.4944
▁carrie	-10.4953
ative	-10.4965
▁robotic	-10.4969
ating	-10.4988
ants	-10.499
▁characters	-10.5004
▁ride	-10.5017
▁150	-10.5029
▁valuable	-10.504
▁malaria	-10.504
▁obes	-10.5043
▁label	-10.5044
▁hang	-10.5068
led	-10.5073
▁Harv	-10.5075
▁categor	-10.508
ice	-10.5081
tor	-10.5084
▁fiction	-10.5098
▁Jan	-10.5104
▁comfortabl	-10.5107
▁gather	-10.5109
▁organize	-10.5123
▁feels	-10.513
▁dictionar	-10.514
▁illusion	-10.514
▁curious	-10.514
▁crack	-10.514
▁adopt	-10.514
▁desert	-10.514
▁weather	-10.514
▁reform	-10.5141
▁unexpected	-10.5141
▁bias	-10.5142
▁Adam	-10.5142
▁teenager	-10.5143
▁assume	-10.5146
source	-10.5148
▁according	-10.515
▁tens	-10.5156
▁awesome	-10.5163
▁Ha	-10.5164
▁receiv	-10.5178
▁vi	-10.5181
10	-10.5189
▁organs	-10.5196
▁row	-10.52
▁lock	-10.5202
▁soldiers	-10.5216
art	-10.5217
▁demonstrate	-10.5219
▁harm	-10.5238
▁MIT	-10.5241
▁Street	-10.5241
▁empty	-10.5241
▁mirror	-10.5241
▁muscle	-10.5241
▁incentive	-10.5241
▁survey	-10.5241
▁quiet	-10.5241
▁taste	-10.5241
▁Talk	-10.5242
▁skill	-10.5244
ang	-10.5249
▁user	-10.5255
▁applie	-10.5257
▁occurr	-10.5261
▁fell	-10.5267
▁gene	-10.5268
▁kilometer	-10.5272
▁remote	-10.5282
▁stoo	-10.5296
▁Di	-10.5319
▁consume	-10.5333
ev	-10.5342
▁religious	-10.5343
▁symptom	-10.5343
▁variet	-10.5343
▁musical	-10.5346
▁lifetime	-10.5364
▁burn	-10.5372
▁Canad	-10.5373
▁caus	-10.5395
▁King	-10.5403
▁7	-10.5406
▁Thom	-10.5428
▁grain	-10.5431
▁solid	-10.5446
▁animation	-10.5447
▁lawyer	-10.5447
▁intellectual	-10.5448
▁Mark	-10.5455
▁customer	-10.5464
▁curve	-10.5467
▁continent	-10.5469
▁lie	-10.5472
▁Joe	-10.5482
▁toilet	-10.5487
val	-10.5502
▁extract	-10.5546
▁judge	-10.5546
▁blog	-10.5547
▁danger	-10.5549
▁mortal	-10.555
▁mosquito	-10.555
▁stupid	-10.555
▁lift	-10.555
▁evil	-10.555
▁seriously	-10.5557
we	-10.556
▁cutting	-10.5563
▁Other	-10.5563
▁aging	-10.5565
▁organ	-10.5568
▁pig	-10.5569
▁measur	-10.5576
▁actor	-10.5591
▁45	-10.5597
▁fan	-10.5603
cious	-10.5617
▁historical	-10.5634
▁govern	-10.5642
▁democratic	-10.5655
▁equivalent	-10.5655
▁convert	-10.5655
▁flat	-10.5656
▁combination	-10.5656
▁transition	-10.5656
▁humor	-10.5656
uck	-10.5663
table	-10.5672
eeth	-10.5679
▁resistan	-10.568
▁setting	-10.5684
▁comment	-10.5701
▁Har	-10.5703
▁journalist	-10.5704
▁hell	-10.5705
▁Ru	-10.5705
ek	-10.5706
▁master	-10.5707
▁Their	-10.5709
▁broad	-10.5714
▁rational	-10.5717
istic	-10.5728
▁ring	-10.5733
▁driver	-10.5742
▁bees	-10.5754
▁Michael	-10.5762
▁regret	-10.5762
▁charit	-10.5762
▁doubt	-10.5762
▁crop	-10.5762
▁tomorrow	-10.5763
▁demo	-10.5789
▁details	-10.5794
▁pounds	-10.5797
▁author	-10.5803
▁sight	-10.5807
▁intelligent	-10.5808
ory	-10.5817
kin	-10.5824
▁continu	-10.5825
▁penguins	-10.583
▁tall	-10.585
llo	-10.5855
▁tape	-10.586
▁empathy	-10.5869
▁ingredient	-10.5869
▁liquid	-10.5869
▁gender	-10.5869
▁plate	-10.5872
▁apartment	-10.5873
▁criminal	-10.5881
▁Times	-10.5885
▁Mu	-10.5885
▁sorr	-10.5888
fer	-10.589
▁swimm	-10.5895
▁molecul	-10.5901
▁mothers	-10.5908
ped	-10.591
▁bi	-10.5929
fore	-10.5929
▁seek	-10.5929
▁Ju	-10.5929
▁tie	-10.5943
ator	-10.5947
uar	-10.5949
▁Bu	-10.5968
sha	-10.5969
▁nervous	-10.5978
▁maintain	-10.5978
▁telescope	-10.5978
▁Three	-10.5978
▁joke	-10.5978
▁review	-10.5979
▁motion	-10.5979
▁cup	-10.5983
▁appropriate	-10.5985
▁tail	-10.5987
▁Web	-10.5988
▁shapes	-10.5991
▁protection	-10.5993
▁climb	-10.5998
▁habit	-10.5999
▁pure	-10.6001
▁CO	-10.6004
▁sheet	-10.6009
▁fourth	-10.6014
▁closed	-10.6019
▁sh	-10.6019
▁inner	-10.6038
▁planets	-10.6056
▁Day	-10.6066
▁Jam	-10.6079
▁opening	-10.608
▁GPS	-10.6088
▁equation	-10.6088
▁vessel	-10.6088
▁Pleas	-10.6088
▁enem	-10.6088
▁silence	-10.6088
▁shame	-10.6088
▁grid	-10.6089
▁Free	-10.6093
▁35	-10.61
ung	-10.6104
▁clip	-10.6104
▁grandfather	-10.6107
▁li	-10.6108
tech	-10.6112
▁extend	-10.6126
▁knowing	-10.6152
▁prototype	-10.6155
car	-10.6157
▁nose	-10.6158
▁soul	-10.6158
▁Si	-10.6161
▁amp	-10.6166
▁bill	-10.6174
gs	-10.6184
▁battery	-10.6199
▁psychology	-10.6199
▁contract	-10.6199
▁Richard	-10.6199
▁brief	-10.6199
▁fake	-10.62
▁memori	-10.6206
▁severe	-10.6208
▁whom	-10.6218
J	-10.6224
▁ignore	-10.6229
dom	-10.6229
ua	-10.6241
▁gentlem	-10.6241
▁participate	-10.6241
▁undern	-10.6249
▁relate	-10.6255
▁tour	-10.6256
▁se	-10.626
ula	-10.6268
▁shut	-10.6279
ko	-10.6295
▁tea	-10.631
▁circumstance	-10.6311
▁department	-10.6311
▁false	-10.6311
▁staff	-10.6311
▁Life	-10.6312
▁librar	-10.6312
▁197	-10.6312
▁definite	-10.6312
ain	-10.6318
▁birthday	-10.6323
▁refugee	-10.6326
▁cow	-10.6327
▁Mc	-10.6331
▁reverse	-10.6336
▁printing	-10.6345
▁emissions	-10.6353
▁destructi	-10.6378
ong	-10.6379
ai	-10.6386
▁restaurant	-10.6393
▁Brita	-10.6404
▁scan	-10.641
▁phrase	-10.6425
▁vulnerabl	-10.6425
▁laptop	-10.6425
▁Center	-10.6425
▁2,000	-10.6427
▁Mon	-10.6431
▁meaningful	-10.6433
▁Tom	-10.6434
▁section	-10.6438
▁Ben	-10.6452
▁Stan	-10.6471
▁soft	-10.6474
▁credit	-10.6479
▁consumption	-10.6492
▁Los	-10.6493
▁exchange	-10.6494
▁addition	-10.65
▁provid	-10.6506
▁member	-10.6518
▁Jo	-10.6534
rtex	-10.6537
▁YouTube	-10.654
▁rescue	-10.654
▁loud	-10.654
▁court	-10.654
▁poem	-10.654
▁sculpture	-10.654
▁Angel	-10.654
▁Robert	-10.654
▁attract	-10.654
▁status	-10.654
▁studio	-10.6541
▁PM	-10.6543
▁cheat	-10.6546
▁calculate	-10.6549
▁inspiration	-10.655
▁prefer	-10.6564
▁Fa	-10.6564
▁players	-10.6572
▁analog	-10.6572
▁meal	-10.6594
▁folks	-10.6618
j	-10.6631
▁victims	-10.6641
▁embrace	-10.6644
▁button	-10.6646
▁contribute	-10.6655
▁roof	-10.6656
▁lecture	-10.6656
▁relevant	-10.6656
▁Since	-10.6656
▁conclusion	-10.6656
▁heavy	-10.6656
▁elder	-10.6656
▁wake	-10.6658
▁shadow	-10.6659
▁zone	-10.6659
▁flower	-10.6659
▁loop	-10.6666
gram	-10.6681
▁shoot	-10.6685
▁hide	-10.6692
▁clinic	-10.6701
bur	-10.6719
▁knee	-10.6724
ey	-10.6727
▁melt	-10.6739
▁wine	-10.6749
▁manager	-10.675
▁conduct	-10.6761
▁Congress	-10.6774
▁encounter	-10.6774
▁dolphin	-10.6774
▁Haiti	-10.6774
▁flash	-10.6774
▁lady	-10.6775
▁advertis	-10.6775
▁Sea	-10.6778
▁drill	-10.6778
▁dense	-10.6778
▁Give	-10.6781
▁expectation	-10.6782
▁cure	-10.6793
▁fle	-10.6803
▁engaged	-10.6807
▁associate	-10.6808
▁Whil	-10.6808
over	-10.6814
ware	-10.6816
so	-10.6833
▁bird	-10.6843
scale	-10.6848
▁electric	-10.6852
▁philosoph	-10.6854
hu	-10.6854
▁dogs	-10.6878
▁grateful	-10.6893
▁iPhone	-10.6893
▁repair	-10.6893
▁jail	-10.6893
▁monkey	-10.6893
▁implication	-10.6893
▁float	-10.6893
▁desk	-10.6893
▁spectrum	-10.6894
▁Last	-10.6898
▁height	-10.6903
▁manufactur	-10.6913
▁percentage	-10.692
▁Su	-10.6922
▁apple	-10.6937
▁steps	-10.6963
▁celebrate	-10.6984
▁mistakes	-10.6985
▁occur	-10.6989
▁marketing	-10.7008
▁transplant	-10.7013
▁sophisticat	-10.7013
▁phase	-10.7013
▁initial	-10.7013
▁title	-10.7013
▁medium	-10.7014
▁Bank	-10.7015
▁2000	-10.7019
▁academic	-10.702
gi	-10.7025
▁prediction	-10.7025
▁volume	-10.7043
▁Ga	-10.7049
ari	-10.7056
▁Car	-10.706
▁importan	-10.707
▁designers	-10.7082
▁ear	-10.7106
▁challeng	-10.7114
ose	-10.7117
▁threaten	-10.7119
let	-10.7121
▁empower	-10.7133
▁former	-10.7134
▁assumption	-10.7135
▁elephant	-10.7135
▁implant	-10.7135
▁unusual	-10.7135
▁instruction	-10.7135
▁forgot	-10.7136
▁lifestyle	-10.7138
▁season	-10.7139
▁6	-10.7144
iv	-10.7148
▁du	-10.7157
▁wi	-10.7163
▁fascinat	-10.717
▁handle	-10.7186
▁May	-10.7199
berg	-10.7202
being	-10.7207
▁graphic	-10.7208
▁moves	-10.7248
▁transport	-10.7256
▁grab	-10.7258
▁establish	-10.7259
▁physicist	-10.7259
▁hydrogen	-10.7259
▁mushroom	-10.7259
▁regard	-10.7259
▁steal	-10.7259
▁framework	-10.7259
▁advice	-10.7259
▁director	-10.7296
▁angle	-10.73
▁sum	-10.7302
stone	-10.7306
▁load	-10.7333
rising	-10.7345
▁confus	-10.738
▁admit	-10.7383
▁illegal	-10.7384
▁mathematics	-10.7384
▁polio	-10.7384
▁reference	-10.7385
▁winter	-10.7387
▁Lu	-10.7389
▁100,000	-10.7393
▁item	-10.7405
▁Hu	-10.7407
▁coal	-10.7415
▁player	-10.7419
▁75	-10.7426
▁limit	-10.743
▁mechanical	-10.7437
▁cultures	-10.7455
▁dealing	-10.7473
▁tax	-10.7479
▁Sa	-10.748
foot	-10.7503
▁host	-10.7505
▁innovative	-10.751
▁intervention	-10.751
▁milk	-10.751
▁gravity	-10.751
▁dirt	-10.751
▁south	-10.751
▁collaboration	-10.7511
▁Wow	-10.7513
▁pour	-10.7514
▁awareness	-10.7515
▁hall	-10.7519
gar	-10.7521
▁orbit	-10.7522
visible	-10.7528
▁north	-10.753
▁Bang	-10.7531
▁1,	-10.7538
▁heads	-10.759
▁Ven	-10.7616
▁Da	-10.7617
▁emergenc	-10.762
king	-10.7624
▁illustrate	-10.7631
▁concrete	-10.7638
▁economies	-10.7638
▁filter	-10.7638
▁harvest	-10.7638
▁hormone	-10.7638
▁length	-10.7638
▁witness	-10.7638
▁earthquake	-10.7638
▁license	-10.7638
▁primary	-10.7639
▁ritual	-10.7639
▁clever	-10.7639
▁judgment	-10.7639
▁rush	-10.7639
▁23	-10.764
▁II	-10.7653
▁En	-10.7653
▁productive	-10.7653
▁Sam	-10.7663
▁pen	-10.767
▁intense	-10.7672
▁perceive	-10.7685
▁Ten	-10.7697
▁peer	-10.7708
stream	-10.7714
if	-10.7722
▁Swede	-10.7745
▁Will	-10.7753
▁Bar	-10.7765
▁Science	-10.7768
▁client	-10.7768
▁privilege	-10.7768
▁vegetable	-10.7768
▁characteristic	-10.7769
▁panel	-10.7769
▁hip	-10.7769
▁Human	-10.777
▁Child	-10.777
▁pump	-10.777
▁yester	-10.7772
▁agent	-10.7777
what	-10.778
▁Ke	-10.7812
▁tap	-10.7814
▁origin	-10.7822
▁ha	-10.7825
surance	-10.783
▁programm	-10.7833
▁select	-10.7836
▁sports	-10.7867
▁broke	-10.7871
▁behavioral	-10.7875
▁Dere	-10.7888
▁emerge	-10.7888
ze	-10.789
▁attach	-10.7898
▁Obama	-10.79
▁centuries	-10.79
▁fruit	-10.79
▁mathematical	-10.79
▁barrier	-10.79
▁inevitabl	-10.79
▁coral	-10.79
▁Paris	-10.7901
▁rocket	-10.7902
▁3,000	-10.7904
▁abuse	-10.7905
▁Gu	-10.7905
▁improvement	-10.7907
▁pile	-10.7909
▁activist	-10.7911
▁fortunate	-10.7912
▁needle	-10.7913
▁statement	-10.7918
▁confidence	-10.7918
point	-10.7928
▁ho	-10.7939
tter	-10.7941
down	-10.7944
▁danc	-10.7963
▁El	-10.7973
bb	-10.7978
▁internal	-10.7979
rus	-10.7981
▁bor	-10.7983
▁pilot	-10.7987
▁improv	-10.801
ntil	-10.8016
▁hat	-10.802
▁22	-10.8023
▁finance	-10.8026
▁Smith	-10.8033
▁Institute	-10.8033
▁candidate	-10.8033
▁contrast	-10.8033
▁dinosaur	-10.8033
▁Girl	-10.8033
▁steel	-10.8033
▁chocolate	-10.8033
▁split	-10.8033
▁mistake	-10.8034
▁Christian	-10.8034
▁transportation	-10.8036
▁behave	-10.8055
ho	-10.8057
water	-10.8062
power	-10.8062
▁circuit	-10.8064
ward	-10.8069
ox	-10.8073
back	-10.8074
▁Cam	-10.8079
▁entrepreneur	-10.8082
▁Star	-10.8098
▁previous	-10.8108
50	-10.8113
▁Bur	-10.8126
▁lies	-10.8134
pp	-10.8135
▁Russia	-10.8138
▁mal	-10.814
▁agricultur	-10.8162
▁NASA	-10.8168
▁President	-10.8168
▁clue	-10.8168
▁computing	-10.8168
▁physician	-10.8168
▁observation	-10.817
▁hunger	-10.817
▁nerve	-10.8174
▁infection	-10.8175
▁tank	-10.8175
▁mad	-10.8175
lic	-10.8178
▁painful	-10.8178
top	-10.8182
▁attitude	-10.8183
iness	-10.8185
▁clock	-10.8189
▁Du	-10.8189
▁clos	-10.8189
ility	-10.8191
▁imp	-10.8195
▁bug	-10.8222
▁bold	-10.8224
▁Na	-10.8225
▁Wi	-10.8231
▁mountains	-10.8252
ches	-10.8256
▁prepared	-10.8262
▁thick	-10.8265
▁hunt	-10.8265
cific	-10.8277
▁iron	-10.8279
▁Ja	-10.8286
▁TEDTalk	-10.8305
▁church	-10.8305
▁explanation	-10.8305
▁identical	-10.8305
▁kitchen	-10.8305
▁procedure	-10.8305
▁plent	-10.8305
▁Gulf	-10.8305
▁Martin	-10.8305
▁frank	-10.8306
▁kick	-10.8306
oxide	-10.8306
▁laser	-10.8308
▁interactive	-10.8309
▁2007	-10.831
▁stock	-10.8317
▁suck	-10.8337
well	-10.8341
▁input	-10.835
rous	-10.8353
▁homes	-10.8356
hour	-10.8362
pho	-10.8365
▁node	-10.8366
▁sites	-10.8368
▁protest	-10.837
▁Nor	-10.8371
af	-10.8376
▁rap	-10.8377
her	-10.8385
jo	-10.8389
▁Real	-10.8398
▁eggs	-10.841
▁entrepreneurs	-10.8411
▁Steve	-10.8419
▁Pakistan	-10.8428
▁trans	-10.8437
▁obsess	-10.844
▁comfort	-10.844
▁depress	-10.8441
Sahara	-10.8444
▁Wikipedia	-10.8444
▁implement	-10.8444
▁motivation	-10.8444
▁trait	-10.8444
▁Latin	-10.8444
▁biologist	-10.8444
▁Francisco	-10.8444
▁romantic	-10.8445
▁revenue	-10.8445
▁radiation	-10.8446
▁sustainability	-10.8447
▁Islamic	-10.8448
▁acid	-10.8448
▁hotel	-10.8448
▁afterward	-10.8448
ford	-10.8451
▁golf	-10.8458
▁border	-10.846
▁thin	-10.8478
▁philosopher	-10.8483
ground	-10.8494
▁trend	-10.8494
unk	-10.8502
▁cent	-10.8502
truck	-10.8503
bar	-10.8505
half	-10.8505
▁bare	-10.8509
▁aim	-10.8518
ida	-10.8519
bra	-10.8532
▁earn	-10.8532
▁poster	-10.8533
00	-10.8533
▁Jer	-10.8544
nna	-10.8566
ov	-10.8571
long	-10.8577
▁trillion	-10.8585
▁deserve	-10.8585
▁plot	-10.8585
▁crash	-10.8585
▁ladies	-10.8585
▁footprint	-10.8585
▁globe	-10.8585
▁flag	-10.8585
▁greenhouse	-10.8586
▁quarter	-10.8586
▁commitment	-10.8586
▁Arm	-10.8587
▁Peter	-10.8588
▁existence	-10.8588
▁asset	-10.859
ib	-10.8593
▁apparent	-10.8601
▁Pole	-10.8604
▁shoulder	-10.8605
▁vaccines	-10.8607
▁stone	-10.8618
▁laboratory	-10.862
▁breathe	-10.8621
▁van	-10.8622
▁counter	-10.8623
Q	-10.8628
▁plus	-10.863
▁videos	-10.8631
▁cartoon	-10.8635
▁automatic	-10.8644
▁parking	-10.8659
raising	-10.867
ana	-10.8686
ngry	-10.8724
▁frog	-10.8728
▁immune	-10.8728
▁stroke	-10.8728
▁thumb	-10.8728
▁Christmas	-10.8728
▁arrest	-10.8728
▁dedicat	-10.8728
▁snow	-10.8728
▁minister	-10.8728
▁196	-10.8729
▁1990	-10.8729
useum	-10.8729
stage	-10.8729
▁horrible	-10.8729
▁restore	-10.8732
▁uncle	-10.8733
▁appreciate	-10.8734
▁unknown	-10.8734
▁icon	-10.8735
▁activate	-10.8737
▁authentic	-10.8742
fully	-10.8746
etic	-10.877
▁repeat	-10.8783
▁Nigeria	-10.8842
▁violent	-10.8845
▁burning	-10.8853
mar	-10.8864
▁abstract	-10.8869
▁confront	-10.887
▁narrow	-10.8873
▁wheelchair	-10.8873
▁silent	-10.8874
▁1970	-10.8874
▁technological	-10.8874
▁frighten	-10.8875
ied	-10.8876
▁pitch	-10.8877
▁engagement	-10.8878
▁headline	-10.8879
▁route	-10.888
▁overall	-10.888
▁lion	-10.8887
ocin	-10.8888
▁psychologist	-10.8908
ney	-10.8923
▁pregnan	-10.8923
▁Bos	-10.8956
▁Basic	-10.8967
▁spring	-10.897
▁borders	-10.8973
▁arriv	-10.8974
▁whale	-10.8986
ttle	-10.8993
▁conventional	-10.9002
▁construct	-10.9014
▁computation	-10.902
heimer	-10.902
▁fossil	-10.902
▁knock	-10.902
▁liberal	-10.902
▁mammal	-10.902
▁miracle	-10.902
▁stretch	-10.902
▁Nobel	-10.902
▁Health	-10.902
▁boom	-10.9021
▁pool	-10.9021
▁healthcare	-10.9021
▁underwater	-10.9022
▁Six	-10.9023
▁Abou	-10.9023
attan	-10.9024
▁sensitive	-10.9031
oven	-10.9033
▁propose	-10.9033
▁presentation	-10.9034
▁Del	-10.9036
act	-10.9039
▁capabilit	-10.9044
▁liver	-10.905
▁decline	-10.9058
▁recycl	-10.9059
▁guide	-10.906
▁shell	-10.9063
ivity	-10.9074
ou	-10.9074
lf	-10.9076
use	-10.9077
▁Get	-10.9079
▁participat	-10.9088
▁fields	-10.9093
▁Manh	-10.9095
▁tribe	-10.9097
▁fabric	-10.91
▁Sch	-10.9113
▁myth	-10.9116
▁motivate	-10.9119
▁defin	-10.913
tries	-10.913
▁favor	-10.9135
▁argu	-10.9145
▁beach	-10.9153
▁hack	-10.9157
▁dropp	-10.9161
▁courage	-10.9168
▁Egypt	-10.9168
▁France	-10.9169
▁cluster	-10.9169
▁frequenc	-10.9169
▁balloon	-10.9169
▁session	-10.9169
▁presence	-10.9169
▁Revolution	-10.9169
▁divers	-10.917
▁Phil	-10.917
▁Anyway	-10.9171
▁pollution	-10.9171
▁classic	-10.9172
▁file	-10.9174
▁inequalit	-10.918
hood	-10.9181
▁astonishing	-10.9185
▁firm	-10.9185
▁upper	-10.9201
rate	-10.9202
▁shake	-10.9205
▁flowers	-10.9205
▁spreading	-10.9223
▁seal	-10.9231
▁Sp	-10.9232
▁Ah	-10.9261
ick	-10.9266
van	-10.927
▁Sep	-10.9272
▁wise	-10.9281
call	-10.9286
class	-10.9286
forward	-10.9286
▁Ko	-10.9289
ual	-10.9293
▁assembl	-10.9293
▁trace	-10.9304
▁hous	-10.9306
spect	-10.931
▁Four	-10.9319
é	-10.932
▁froze	-10.9321
▁participant	-10.9321
▁permanent	-10.9321
▁request	-10.9321
▁sphere	-10.9321
▁bicycle	-10.9321
▁escape	-10.9321
▁calculation	-10.9321
▁condom	-10.9321
▁announc	-10.9323
▁attend	-10.9324
▁sweat	-10.9325
▁zoom	-10.9328
▁heroes	-10.9334
▁storm	-10.934
ff	-10.9351
▁Eric	-10.9354
▁raw	-10.9355
▁explor	-10.9361
▁donor	-10.9367
▁monitor	-10.9385
▁dress	-10.9385
▁exception	-10.9388
▁Lo	-10.9389
SW	-10.9402
▁Israeli	-10.9403
▁Frank	-10.9412
▁oceans	-10.9425
ik	-10.9426
▁educational	-10.9429
▁younger	-10.9433
▁edit	-10.9434
ign	-10.9436
▁clouds	-10.9436
ept	-10.9439
▁arts	-10.9445
col	-10.9459
▁pet	-10.9469
▁Islam	-10.9469
▁frustrat	-10.947
▁install	-10.9472
▁Project	-10.9474
▁afternoon	-10.9474
▁efficienc	-10.9474
▁cousin	-10.9474
▁cord	-10.9475
▁mystery	-10.9475
▁fluid	-10.9476
▁spill	-10.9477
▁regime	-10.9477
▁download	-10.9478
▁systematic	-10.9479
▁bat	-10.9479
▁oxy	-10.9482
▁bond	-10.9484
▁sheep	-10.9488
▁organiz	-10.949
ans	-10.9491
▁gray	-10.9493
▁grass	-10.95
▁relations	-10.9508
tive	-10.9517
▁mapp	-10.952
gie	-10.9522
▁smoke	-10.9528
▁lo	-10.9528
▁inform	-10.953
▁antibiotics	-10.9532
▁spiritual	-10.954
▁hero	-10.9541
chi	-10.9544
▁ski	-10.9546
▁Chic	-10.9571
▁citizen	-10.9578
▁Final	-10.9582
ification	-10.9586
▁rely	-10.9594
▁habitat	-10.96
▁Lad	-10.9619
▁weak	-10.9621
▁Boy	-10.9629
▁Turk	-10.963
▁Amazon	-10.9631
▁external	-10.9631
▁furniture	-10.9631
▁passenger	-10.9631
▁beetle	-10.9631
▁pretend	-10.9631
▁Eastern	-10.9631
▁99	-10.9633
▁wireless	-10.9634
▁Part	-10.9634
▁Five	-10.9638
▁cri	-10.9641
▁clothes	-10.9642
▁Love	-10.9648
▁rebuild	-10.965
tz	-10.9652
▁microscope	-10.9657
▁invit	-10.9662
▁struggl	-10.9664
▁rating	-10.9673
▁king	-10.9673
▁spoken	-10.968
than	-10.9682
▁strangers	-10.9684
▁tune	-10.9699
▁reduc	-10.9701
▁committ	-10.9705
flies	-10.9709
au	-10.9714
▁guard	-10.9728
▁disorder	-10.9734
ax	-10.9781
▁nor	-10.9787
▁CEO	-10.9789
▁Rwanda	-10.9789
▁diploma	-10.9789
▁paradigm	-10.9789
▁Foundation	-10.979
▁Congo	-10.979
▁optimistic	-10.9791
▁agenda	-10.9791
▁Iranian	-10.9791
▁hill	-10.9791
▁breed	-10.9793
▁prize	-10.9795
row	-10.9798
▁backward	-10.9799
verse	-10.9799
▁vulnerability	-10.9804
▁Mad	-10.981
▁sacrifice	-10.9824
▁cast	-10.9829
▁tip	-10.9838
▁defense	-10.984
ire	-10.9845
▁intuitive	-10.9862
▁hire	-10.9875
▁adventure	-10.9879
▁owner	-10.988
▁Ed	-10.9884
▁weigh	-10.9887
▁electron	-10.9888
umber	-10.9892
▁flip	-10.9895
ris	-10.9899
▁exten	-10.99
▁Pi	-10.9904
▁analyze	-10.9905
▁maps	-10.9917
▁portrait	-10.9918
▁elect	-10.9935
cut	-10.9936
▁MRI	-10.994
▁Hig	-10.9943
CD	-10.9944
uel	-10.9947
▁ancestor	-10.9951
▁ridiculous	-10.9951
▁Voice	-10.9951
▁Next	-10.9951
▁heaven	-10.9951
▁fiber	-10.9951
▁ticket	-10.9951
▁Apple	-10.9952
▁ignorance	-10.9952
▁27	-10.9952
▁evolutionary	-10.9953
▁scratch	-10.9958
▁telephone	-10.996
▁densit	-10.9961
▁High	-10.9965
▁Jun	-10.9965
▁Kar	-10.9973
▁dish	-10.9979
▁mail	-10.998
▁Red	-10.999
▁wars	-11.001
▁bath	-11.0013
▁discipline	-11.0013
▁faci	-11.0015
▁Mother	-11.0017
▁194	-11.0027
▁beside	-11.0036
▁min	-11.0041
▁Gi	-11.0057
▁processe	-11.0069
▁surgeon	-11.007
ki	-11.009
▁refer	-11.0096
▁stands	-11.0102
uff	-11.0109
gun	-11.0113
▁pill	-11.0113
▁prisoner	-11.0115
▁Antarctic	-11.0115
▁William	-11.0115
▁athlete	-11.0115
▁district	-11.0115
▁guarantee	-11.0115
▁depth	-11.0115
▁promote	-11.0115
▁yield	-11.0115
▁appeal	-11.0115
▁trigger	-11.0115
▁bribe	-11.0115
▁club	-11.0115
▁embedded	-11.0115
▁limb	-11.0115
▁database	-11.0115
▁Gates	-11.0115
▁flood	-11.0115
▁Prize	-11.0115
▁boxe	-11.0115
▁airport	-11.0116
▁wound	-11.0116
▁variation	-11.0116
▁ears	-11.0117
▁exploration	-11.0117
▁Bible	-11.012
pper	-11.0126
▁cheaper	-11.0137
ark	-11.014
▁Bi	-11.014
lit	-11.0143
house	-11.0143
box	-11.0147
▁gut	-11.0148
cent	-11.0162
▁stor	-11.0167
▁diagnose	-11.017
▁5	-11.0176
aving	-11.0192
▁Gab	-11.0196
▁imag	-11.0218
form	-11.0222
ica	-11.0228
lves	-11.0232
▁conflicts	-11.0246
▁functional	-11.025
▁interpret	-11.0279
▁Darwin	-11.028
nfortunate	-11.0281
▁column	-11.0281
▁crucial	-11.0281
▁senior	-11.0281
▁piano	-11.0281
▁compound	-11.0281
▁demographic	-11.0281
▁ensure	-11.0281
▁leap	-11.0282
▁hungry	-11.0282
▁stack	-11.0282
nda	-11.0287
▁chest	-11.0288
▁imagin	-11.029
▁worm	-11.0294
▁orange	-11.0295
▁Valle	-11.03
American	-11.0313
▁Russian	-11.0319
▁engag	-11.0322
▁figur	-11.0322
▁Hans	-11.0323
▁Far	-11.0323
bridge	-11.0328
▁Ki	-11.033
▁metabol	-11.0345
▁sides	-11.0357
▁fixed	-11.0357
▁feeding	-11.0365
▁sil	-11.0383
▁Pat	-11.0391
▁Tu	-11.0394
election	-11.0398
▁Yorker	-11.0408
▁command	-11.0413
can	-11.0415
▁Thanks	-11.042
▁observ	-11.0422
▁educate	-11.0432
▁limits	-11.0436
▁strategi	-11.0447
▁exam	-11.0449
▁style	-11.0449
▁optimis	-11.045
▁chromosome	-11.0451
▁corporate	-11.0451
▁obstacle	-11.0451
▁combat	-11.0451
▁gesture	-11.0451
▁suspect	-11.0451
▁abandon	-11.0451
▁predator	-11.0451
▁gear	-11.0451
▁1960	-11.0451
▁household	-11.0451
▁conservation	-11.0452
▁spell	-11.0452
▁pace	-11.0453
▁plain	-11.0453
▁compell	-11.0453
▁leak	-11.0454
ese	-11.0459
cus	-11.048
assembl	-11.0482
cro	-11.0483
▁thanks	-11.0494
▁roads	-11.0494
▁Wall	-11.0498
Y	-11.0511
▁Tony	-11.0519
▁tribes	-11.0536
ether	-11.0537
▁Dad	-11.055
▁viewer	-11.0573
▁Jim	-11.0575
rid	-11.0581
▁wash	-11.0582
▁Van	-11.0591
bru	-11.0593
PA	-11.0599
ight	-11.0602
▁partners	-11.0604
▁seeds	-11.0605
all	-11.0613
▁ought	-11.0619
▁quest	-11.0619
oid	-11.0623
▁Vietnam	-11.0623
▁strike	-11.0623
▁psychological	-11.0623
▁debt	-11.0623
▁retina	-11.0623
▁cake	-11.0624
▁utter	-11.0624
▁1980	-11.0624
▁demonstration	-11.0625
▁march	-11.0626
▁translation	-11.0626
▁suicide	-11.0629
BM	-11.0639
▁mate	-11.0641
▁classical	-11.0649
▁para	-11.0652
lock	-11.0658
▁anger	-11.0672
▁pin	-11.0693
▁projection	-11.0693
vin	-11.0704
▁isolat	-11.0705
▁stepp	-11.0707
▁Ge	-11.071
▁electronic	-11.0718
ably	-11.0732
▁associat	-11.0744
▁craft	-11.0749
▁lit	-11.0767
▁65	-11.0782
▁magical	-11.0792
▁extinct	-11.0794
▁8	-11.0795
▁NGO	-11.0799
▁Research	-11.0799
▁fifth	-11.0799
▁neuroscience	-11.0799
▁origami	-11.0799
▁prosthetic	-11.0799
▁recipe	-11.0799
▁tunnel	-11.0799
▁diabet	-11.0799
▁genius	-11.0799
▁distant	-11.0799
▁subtle	-11.0799
▁shall	-11.08
▁kiss	-11.08
▁Long	-11.0801
rctic	-11.0801
▁desperate	-11.0803
expected	-11.0804
▁objective	-11.0808
rac	-11.0811
▁alter	-11.0814
▁conservative	-11.083
▁tag	-11.083
▁fl	-11.0832
▁norm	-11.084
▁Time	-11.0847
▁Pr	-11.0864
▁manag	-11.0866
▁photography	-11.0869
▁proof	-11.0875
▁quant	-11.0884
port	-11.0887
▁whales	-11.0894
▁mile	-11.0914
Ex	-11.0924
ria	-11.0927
▁intention	-11.0941
lan	-11.0943
ju	-11.0945
▁formula	-11.0946
▁murder	-11.0949
q	-11.0949
▁secure	-11.0953
▁pr	-11.0958
▁Dur	-11.0961
▁bow	-11.0964
min	-11.0969
▁surrounding	-11.0969
▁reject	-11.0973
▁strip	-11.0977
▁description	-11.0977
▁intrigu	-11.0977
▁privacy	-11.0977
▁sandwich	-11.0977
▁scenario	-11.0977
▁Peace	-11.0977
▁vertical	-11.0977
▁rainforest	-11.0977
▁essence	-11.0977
▁shelter	-11.0977
▁orchestra	-11.0977
▁concert	-11.0977
▁elite	-11.0978
▁spark	-11.0978
▁resolve	-11.0978
▁kidney	-11.0978
▁representative	-11.0978
▁oppos	-11.0979
▁95	-11.098
▁drum	-11.098
▁contribution	-11.098
▁blame	-11.0983
▁dive	-11.0983
▁Nothing	-11.0983
▁vital	-11.0984
▁dung	-11.0984
▁scanner	-11.0995
▁resist	-11.1009
▁winner	-11.1012
iff	-11.1017
▁award	-11.102
▁logic	-11.1022
▁dose	-11.1022
ugh	-11.1028
oft	-11.1029
▁instantly	-11.1029
ane	-11.1035
dge	-11.1035
▁anonymous	-11.1039
▁prime	-11.1051
▁shopp	-11.1051
▁Wal	-11.1051
▁boundar	-11.1052
dependent	-11.1057
▁specialize	-11.1071
cha	-11.1072
▁ratio	-11.109
▁bull	-11.1093
ui	-11.1095
▁sail	-11.1099
▁ugl	-11.1103
▁excite	-11.1103
ux	-11.1111
▁photographer	-11.1118
▁Rememb	-11.1136
▁Ya	-11.1137
ix	-11.1138
▁pray	-11.114
▁cloth	-11.1146
▁anxiety	-11.1159
▁complain	-11.1159
▁curiosity	-11.1159
▁substance	-11.1159
▁robust	-11.1159
▁suspend	-11.1159
▁Brown	-11.1159
▁freak	-11.1159
▁northern	-11.1159
cellular	-11.1159
▁expectanc	-11.1159
▁incident	-11.1159
▁ultra	-11.1159
▁toxic	-11.1159
▁nonprofit	-11.116
▁cooperation	-11.116
▁till	-11.1161
▁pause	-11.1161
▁lens	-11.1162
fusion	-11.1163
▁600	-11.1165
▁coach	-11.1165
▁mall	-11.1168
▁welcome	-11.1172
▁inspiring	-11.1183
▁sw	-11.1183
▁cart	-11.1184
▁granted	-11.1201
org	-11.1202
rick	-11.1206
Something	-11.1209
▁fears	-11.1236
▁Henr	-11.1242
▁verb	-11.1243
atic	-11.1244
teen	-11.1247
century	-11.1257
ala	-11.1259
ound	-11.126
▁Mac	-11.1271
▁pie	-11.1279
▁Win	-11.1286
fus	-11.1302
stan	-11.1321
ash	-11.1322
fur	-11.1327
▁recording	-11.1331
▁recogni	-11.1342
▁Through	-11.1344
▁Fellow	-11.1344
▁Should	-11.1344
▁absorb	-11.1344
▁cheese	-11.1344
▁pioneer	-11.1344
▁sauce	-11.1344
▁terrifi	-11.1344
▁chaos	-11.1344
▁smartphone	-11.1344
▁26	-11.1345
▁copyright	-11.1345
▁1950	-11.1345
▁accelerat	-11.1346
▁MT	-11.135
ology	-11.1352
▁tale	-11.1352
▁50,000	-11.1355
meter	-11.1358
▁tower	-11.1359
▁US	-11.1363
kind	-11.1364
20	-11.1366
lov	-11.1369
▁ethical	-11.1373
▁quad	-11.1377
cher	-11.1378
acre	-11.1379
▁Island	-11.1381
▁personalit	-11.1382
▁axis	-11.1386
▁None	-11.1387
▁sensory	-11.1388
▁Per	-11.139
▁Scott	-11.139
▁officer	-11.1391
▁infinite	-11.1397
▁approv	-11.1399
▁identifie	-11.1402
▁Nov	-11.1426
round	-11.1433
digit	-11.144
▁10-	-11.1444
level	-11.1456
▁cartoons	-11.146
hoo	-11.1466
▁priorit	-11.147
▁defend	-11.1472
plan	-11.149
▁hid	-11.1495
uch	-11.1495
▁Make	-11.1497
▁pot	-11.1498
path	-11.15
▁Chi	-11.1501
made	-11.1508
▁observe	-11.1512
press	-11.1518
▁Wil	-11.1525
▁shocking	-11.1529
▁Air	-11.153
▁accomplish	-11.153
▁adjust	-11.1533
▁alcohol	-11.1533
▁correspond	-11.1533
▁medication	-11.1533
▁tattoo	-11.1533
▁conclude	-11.1533
▁General	-11.1533
▁overcome	-11.1533
▁uncomfortabl	-11.1533
▁Listen	-11.1533
▁Depart	-11.1534
▁Nature	-11.1534
▁refuse	-11.1535
▁reduction	-11.1535
▁Lego	-11.1536
▁boss	-11.1537
ndeed	-11.1538
▁killer	-11.1539
▁lamp	-11.1539
▁pan	-11.1541
▁dominant	-11.1549
▁wo	-11.1551
▁meetings	-11.1559
▁dial	-11.157
▁coin	-11.1577
pur	-11.1587
bble	-11.159
▁Matt	-11.1593
▁inventor	-11.1617
▁shipp	-11.1636
▁magnet	-11.1642
hai	-11.1642
▁Lin	-11.1652
▁dig	-11.1662
force	-11.1664
▁Ken	-11.1671
▁lu	-11.1677
word	-11.1677
▁mere	-11.1688
▁transfer	-11.1698
▁concentration	-11.1725
▁intuition	-11.1725
▁parallel	-11.1725
▁ceiling	-11.1725
▁reconstruct	-11.1725
▁International	-11.1725
▁drove	-11.1725
▁regulation	-11.1725
▁trash	-11.1725
▁textbook	-11.1726
▁Grand	-11.1726
▁football	-11.1727
▁Park	-11.1727
▁transparency	-11.1727
▁Flor	-11.1728
▁dump	-11.1729
▁hook	-11.173
▁2006	-11.1732
▁salt	-11.1732
▁Nation	-11.1733
▁TEDx	-11.1734
▁agricultural	-11.1735
▁mentor	-11.1736
▁representation	-11.1737
▁slice	-11.1742
▁River	-11.1745
▁Marc	-11.1754
▁prepare	-11.1769
▁sales	-11.1777
aday	-11.1781
▁th	-11.1782
wan	-11.1784
▁printer	-11.1792
generat	-11.1793
▁dominat	-11.1801
case	-11.1802
▁integrate	-11.1803
▁ethic	-11.181
▁preserve	-11.1833
▁nei	-11.1837
▁reported	-11.1838
room	-11.1853
part	-11.1861
two	-11.1861
▁suppose	-11.1865
lash	-11.1868
12	-11.1872
▁shooting	-11.1874
▁employ	-11.1875
tric	-11.1877
▁locate	-11.1882
uction	-11.1883
▁Gar	-11.1883
book	-11.1885
born	-11.1894
▁vot	-11.1897
▁attribute	-11.1898
▁mimic	-11.1903
▁capita	-11.1916
▁Was	-11.1918
▁soup	-11.1919
ji	-11.192
▁Blue	-11.1921
▁disappoint	-11.1921
▁jazz	-11.1921
▁mutation	-11.1921
▁neural	-11.1921
▁protocell	-11.1921
▁paralyz	-11.1921
▁blend	-11.1921
▁chapter	-11.1922
▁alien	-11.1922
▁ruin	-11.1922
▁partnership	-11.1922
▁bullet	-11.1922
▁keyboard	-11.1923
▁Jack	-11.1924
▁Space	-11.1924
▁195	-11.1924
▁exhibition	-11.1925
pr	-11.1926
▁House	-11.193
▁mice	-11.1937
▁uncertaint	-11.194
▁20,000	-11.1941
▁peaceful	-11.1943
phy	-11.1944
▁comic	-11.1944
▁White	-11.1945
▁victim	-11.1947
▁Gold	-11.1949
▁compromise	-11.1949
▁homeless	-11.1954
▁introduc	-11.1958
▁Op	-11.1959
bert	-11.1961
▁Col	-11.1964
▁Pop	-11.1974
▁expos	-11.1974
▁farmer	-11.1975
▁nutrient	-11.1983
▁quit	-11.1986
▁shine	-11.2007
▁Cal	-11.2009
▁Fl	-11.2021
ership	-11.2036
▁bend	-11.2039
▁tears	-11.205
▁trends	-11.2052
lli	-11.2058
▁inspire	-11.2065
uk	-11.2072
free	-11.2083
▁wings	-11.2083
▁Korea	-11.2091
▁profession	-11.2103
▁cats	-11.2105
▁exhibit	-11.2117
▁east	-11.2121
▁aesthetic	-11.2121
▁concentrate	-11.2121
▁explosion	-11.2121
▁unbelievabl	-11.2121
▁exploit	-11.2121
▁dialogue	-11.2121
▁probabilit	-11.2121
▁brown	-11.2122
▁resident	-11.2122
▁tired	-11.2122
▁burst	-11.2122
▁consistent	-11.2122
▁primate	-11.2122
▁Centr	-11.2122
▁Greek	-11.2123
▁array	-11.2123
▁lake	-11.2123
▁5,000	-11.2123
▁attractive	-11.2123
▁Third	-11.2125
▁variable	-11.2126
▁mixed	-11.2128
▁woke	-11.2128
▁Minister	-11.2129
▁output	-11.2132
▁resilienc	-11.2134
▁measurement	-11.2138
▁Never	-11.2139
▁fortune	-11.214
▁laid	-11.2141
▁Micros	-11.2142
▁fir	-11.2145
▁Men	-11.2152
▁package	-11.2152
▁Moon	-11.2153
▁Hill	-11.2155
▁nest	-11.2161
▁corn	-11.217
net	-11.2179
iest	-11.2187
ologist	-11.2195
▁cop	-11.2197
▁pulse	-11.2201
vity	-11.221
▁brave	-11.2211
bit	-11.2218
▁distribut	-11.2222
▁repeated	-11.2247
▁theme	-11.2252
▁ill	-11.2255
itude	-11.2261
▁32	-11.2264
▁stair	-11.2277
ump	-11.2278
▁hackers	-11.2279
related	-11.2298
▁tech	-11.2298
minute	-11.2298
while	-11.2299
clock	-11.23
▁250	-11.2301
▁instinct	-11.2324
▁diagram	-11.2325
▁guilt	-11.2325
▁helicopter	-11.2325
▁hemisphere	-11.2325
▁phosphorus	-11.2325
▁pizza	-11.2325
▁burden	-11.2325
▁traged	-11.2325
▁Brian	-11.2325
▁schizophreni	-11.2325
▁borrow	-11.2326
▁comparison	-11.2326
▁Bush	-11.2326
▁collaborative	-11.2326
▁torture	-11.2326
▁tendenc	-11.2326
▁Olympic	-11.2326
▁Lester	-11.2327
▁pathway	-11.2329
▁installation	-11.2329
▁mindset	-11.2329
▁limitation	-11.2329
ories	-11.233
▁33	-11.2331
▁hyper	-11.2333
▁achievement	-11.2335
▁highlight	-11.2336
▁intend	-11.2336
▁darkness	-11.2338
▁Mom	-11.235
▁Tell	-11.2356
▁ink	-11.2361
▁Sir	-11.2369
▁marker	-11.2379
▁degrad	-11.2384
▁additional	-11.2397
▁magnetic	-11.2416
▁reli	-11.2424
▁dancer	-11.2431
▁28	-11.2451
▁grave	-11.2468
▁instant	-11.2476
ection	-11.2479
▁Design	-11.2496
▁Kan	-11.2498
place	-11.2508
200	-11.2515
▁industri	-11.2522
▁Cu	-11.2524
war	-11.2528
▁Ap	-11.2528
▁Ghana	-11.2534
▁Uganda	-11.2534
▁awkward	-11.2534
▁frequent	-11.2534
▁routine	-11.2534
▁tragic	-11.2534
▁fulfill	-11.2534
▁Syria	-11.2534
▁psychopath	-11.2534
▁entrop	-11.2534
▁neat	-11.2534
▁Koran	-11.2534
▁calorie	-11.2534
▁electrode	-11.2534
▁Philip	-11.2534
▁devil	-11.2535
▁dignit	-11.2535
▁gradual	-11.2539
▁loan	-11.254
▁microbe	-11.2545
▁Sunday	-11.2547
▁slides	-11.2548
▁detector	-11.2551
▁palm	-11.2553
▁geo	-11.2554
▁Port	-11.2554
grow	-11.2555
▁suggestion	-11.2559
▁pad	-11.256
▁bless	-11.2561
▁electronics	-11.2563
urg	-11.2565
▁Wat	-11.2584
▁egg	-11.2585
▁soldier	-11.2587
▁investor	-11.2589
▁describ	-11.2596
▁36	-11.26
▁senses	-11.2603
▁experienc	-11.2604
▁helpful	-11.2613
▁conc	-11.2615
read	-11.2619
▁achiev	-11.2624
▁nutrition	-11.2627
▁rape	-11.263
glasses	-11.2633
▁typ	-11.2637
▁qualit	-11.264
▁bother	-11.2644
▁Fin	-11.2649
▁acknowledge	-11.2654
▁urge	-11.2659
▁personaliz	-11.2663
▁sport	-11.2663
▁par	-11.2665
▁2.	-11.2667
for	-11.2671
run	-11.2674
▁mat	-11.2683
erial	-11.2688
▁Up	-11.2696
▁Pol	-11.2701
▁vo	-11.2704
away	-11.2706
▁Ham	-11.2707
▁mode	-11.2711
▁educat	-11.2716
▁gathering	-11.2723
heart	-11.2729
▁deploy	-11.2744
▁Oxford	-11.2746
▁ceremon	-11.2746
▁curriculum	-11.2746
▁jihad	-11.2746
▁leather	-11.2746
▁profile	-11.2746
▁pyramid	-11.2746
▁recruit	-11.2746
▁tweet	-11.2746
▁chief	-11.2747
▁skull	-11.2747
dollar	-11.2747
▁delay	-11.2747
▁garage	-11.2747
▁extension	-11.2747
▁boot	-11.2747
▁thrill	-11.2747
▁relax	-11.2747
▁stole	-11.2747
▁kingdom	-11.2747
ku	-11.2747
▁Wait	-11.2748
▁generous	-11.2748
atrix	-11.2748
orient	-11.2748
▁dust	-11.2751
▁strongly	-11.2752
▁synthetic	-11.2752
▁Back	-11.2755
▁glow	-11.2755
▁Sal	-11.2756
han	-11.2757
▁agreement	-11.2758
▁twist	-11.276
▁im	-11.2765
▁wrapp	-11.2782
▁parasite	-11.2783
clear	-11.2783
▁scann	-11.2784
▁Count	-11.279
▁div	-11.2797
▁smok	-11.2801
▁proportion	-11.2803
▁ban	-11.2803
▁experimental	-11.2811
▁wipe	-11.282
▁kit	-11.2831
▁programmer	-11.2834
▁sharp	-11.2834
▁neuron	-11.2837
▁Hol	-11.2838
▁Shar	-11.284
▁confident	-11.2842
▁tricks	-11.2846
▁port	-11.2848
fire	-11.286
ker	-11.2892
ota	-11.2898
▁bound	-11.2899
olds	-11.2899
▁coat	-11.2903
ini	-11.291
▁tri	-11.291
bul	-11.2927
▁underly	-11.2931
▁Ron	-11.2938
lick	-11.2938
udi	-11.2939
▁Eve	-11.2942
▁releas	-11.2943
bro	-11.2948
ef	-11.2949
▁Qu	-11.2952
▁distinct	-11.2958
▁determined	-11.296
▁Friday	-11.2964
▁Taliban	-11.2964
▁virtue	-11.2964
▁Soviet	-11.2964
▁Obvious	-11.2964
▁inherent	-11.2964
▁simplicity	-11.2964
▁federal	-11.2964
▁excellen	-11.2964
▁alarm	-11.2964
▁mask	-11.2964
▁broadcast	-11.2964
▁supermarket	-11.2964
▁breakthrough	-11.2964
▁poison	-11.2964
▁amaze	-11.2964
▁Jesu	-11.2965
▁hallucination	-11.2965
▁hypothesis	-11.2965
▁LED	-11.2965
▁infant	-11.2966
▁Super	-11.2966
▁reef	-11.2966
▁retirement	-11.2966
▁native	-11.2968
▁Stage	-11.2969
▁miserable	-11.2969
▁pole	-11.2972
▁pink	-11.2974
▁Jona	-11.2976
▁Show	-11.298
worth	-11.298
▁format	-11.2981
▁0.	-11.2982
▁autonomous	-11.2983
face	-11.2991
▁wider	-11.2997
rays	-11.2997
fold	-11.3
▁insist	-11.301
▁Wa	-11.3013
▁remov	-11.3017
rail	-11.3038
▁Kid	-11.3041
sky	-11.3042
aging	-11.3046
▁tar	-11.3049
▁Carolin	-11.3053
pro	-11.3064
▁fate	-11.3068
▁Edi	-11.3068
▁drivers	-11.3077
▁Ti	-11.3087
▁walks	-11.3087
▁occasional	-11.3101
▁polle	-11.3104
boo	-11.3107
lly	-11.3109
fin	-11.3118
▁youth	-11.3181
▁Beijing	-11.3186
▁December	-11.3186
▁Spanish	-11.3186
▁Square	-11.3186
▁chimpanzee	-11.3186
▁choosing	-11.3186
▁cigarette	-11.3186
▁fabulous	-11.3186
▁philanthrop	-11.3186
▁smooth	-11.3186
▁defeat	-11.3186
▁Aristot	-11.3186
▁currenc	-11.3186
▁domestic	-11.3186
▁reserve	-11.3186
▁glad	-11.3186
▁primari	-11.3186
▁Josh	-11.3187
▁silver	-11.3187
▁circulat	-11.3187
fish	-11.3188
▁boil	-11.3188
▁Watch	-11.3188
▁wedding	-11.3188
▁jam	-11.319
▁producer	-11.3191
▁mood	-11.3193
▁duck	-11.3195
▁innocent	-11.3197
▁Out	-11.3199
▁opera	-11.3201
▁fastest	-11.3203
▁genetically	-11.3203
▁prepar	-11.3205
▁Rea	-11.3206
mega	-11.3212
▁comedy	-11.3214
▁Age	-11.3214
▁pal	-11.3216
▁Steph	-11.3221
▁cable	-11.3221
▁constraint	-11.3224
▁barb	-11.3227
▁Han	-11.3228
drive	-11.3231
look	-11.3234
▁seed	-11.324
our	-11.3241
▁enhance	-11.3248
ani	-11.3259
▁Ji	-11.3261
▁penguin	-11.3268
▁interrupt	-11.3272
▁tongue	-11.3276
▁Bob	-11.3283
▁tear	-11.3292
▁twin	-11.33
▁serving	-11.3305
▁transmit	-11.3306
liv	-11.331
▁journal	-11.3311
▁statistical	-11.3313
ED	-11.3378
▁neuro	-11.3383
▁compete	-11.3388
▁cr	-11.3406
cou	-11.3412
▁script	-11.3413
▁bizarre	-11.3413
▁breakfast	-11.3413
▁censor	-11.3413
▁division	-11.3413
▁flavor	-11.3413
▁glacier	-11.3413
▁simulation	-11.3413
▁suppress	-11.3413
▁transparent	-11.3413
▁pigeon	-11.3413
▁luxur	-11.3413
▁submit	-11.3414
▁domain	-11.3414
▁spider	-11.3414
▁bedroom	-11.3414
▁harness	-11.3414
▁pursuit	-11.3414
▁brutal	-11.3415
▁cash	-11.3415
▁damn	-11.3415
▁4,000	-11.3416
▁FG	-11.3416
▁warning	-11.3417
vill	-11.3418
ease	-11.3418
▁ecological	-11.3419
▁weekend	-11.342
▁globalization	-11.342
Fi	-11.3425
▁editor	-11.3426
▁upload	-11.3429
▁southern	-11.343
▁sink	-11.3436
ali	-11.3439
▁disable	-11.3442
▁diagnosi	-11.3444
▁paradox	-11.3448
▁2001	-11.3456
▁jet	-11.3457
rap	-11.3461
▁bite	-11.3461
sleep	-11.3464
four	-11.3467
▁Holly	-11.347
▁Sad	-11.3475
▁wing	-11.3475
ulation	-11.3486
▁j	-11.3502
some	-11.351
▁determin	-11.3511
▁texting	-11.3516
▁Bab	-11.3522
▁cute	-11.3529
▁diver	-11.3541
▁hearts	-11.3552
▁whistle	-11.3568
ulate	-11.3571
▁120	-11.3576
gging	-11.3578
▁believ	-11.3592
▁pose	-11.3596
fel	-11.3598
▁winn	-11.3605
ank	-11.3607
▁wrap	-11.3609
▁compet	-11.3612
ridge	-11.3634
▁evening	-11.3639
aba	-11.3642
▁blank	-11.3645
▁Abraham	-11.3646
▁August	-11.3646
▁despair	-11.3646
▁expedition	-11.3646
▁fragment	-11.3646
▁hierarch	-11.3646
▁marathon	-11.3646
▁pandemic	-11.3646
▁pharmaceutical	-11.3646
▁rethink	-11.3646
▁spectacular	-11.3646
▁unemploy	-11.3646
▁unprecedented	-11.3646
▁veteran	-11.3646
▁smiling	-11.3646
▁Texa	-11.3646
▁Octo	-11.3646
▁ubiquitous	-11.3646
▁geek	-11.3646
▁naked	-11.3646
▁Daniel	-11.3646
▁grandchild	-11.3646
▁reinvent	-11.3646
▁magn	-11.3647
▁Egyptian	-11.3648
▁prosperity	-11.3648
▁crew	-11.3649
▁refrigerator	-11.3649
▁grandparents	-11.3649
▁Lab	-11.3649
▁navigate	-11.365
▁Ford	-11.365
▁artwork	-11.365
▁upset	-11.3651
active	-11.3652
horn	-11.3654
▁filmmaker	-11.3655
▁tension	-11.3656
▁awake	-11.3659
▁requirement	-11.366
▁factories	-11.3691
▁chat	-11.3692
▁Sand	-11.3706
pan	-11.3707
AM	-11.3708
third	-11.3713
percent	-11.3714
▁clay	-11.3715
▁bell	-11.3724
▁disorders	-11.3728
▁delivery	-11.373
▁arise	-11.374
▁Mos	-11.3745
▁fed	-11.3749
illi	-11.375
▁heal	-11.3761
▁cube	-11.3762
▁lega	-11.3764
aware	-11.3764
▁nuts	-11.378
▁Mov	-11.3787
▁via	-11.3797
▁joint	-11.3797
▁coordinat	-11.3806
coli	-11.3815
▁rob	-11.3815
▁circuits	-11.383
▁gate	-11.3848
▁shak	-11.3854
▁singer	-11.3855
▁hanging	-11.3858
▁85	-11.386
frontal	-11.3874
▁prior	-11.388
▁inject	-11.3881
▁Seven	-11.3883
▁fool	-11.3884
vascular	-11.3884
▁Academ	-11.3884
▁Charli	-11.3884
▁Neanderthal	-11.3884
▁Palestinian	-11.3884
▁Sudden	-11.3884
▁favela	-11.3884
▁strand	-11.3884
▁structural	-11.3884
Arthur	-11.3884
▁recess	-11.3884
▁rope	-11.3884
▁Wolf	-11.3884
▁lifespan	-11.3884
▁leaf	-11.3884
▁Stewar	-11.3885
▁aircraft	-11.3885
▁basket	-11.3885
▁assignment	-11.3886
▁Alex	-11.3886
▁recall	-11.3888
shed	-11.3888
▁skeptic	-11.3889
▁Oo	-11.3889
▁homework	-11.3891
▁impression	-11.3891
▁lonel	-11.3892
▁embodi	-11.3897
▁strain	-11.3901
▁tick	-11.391
▁polic	-11.3917
▁manipulate	-11.392
▁gang	-11.3923
▁sta	-11.3923
▁indoor	-11.3924
▁Swed	-11.3928
▁terrorist	-11.3944
aged	-11.3947
▁clon	-11.3949
▁restaurants	-11.3952
▁Tim	-11.3953
titude	-11.3956
▁Dea	-11.3959
spring	-11.397
▁healing	-11.3984
▁previously	-11.3992
▁lotter	-11.3997
gli	-11.4001
hop	-11.4017
rich	-11.402
gh	-11.4022
▁dressed	-11.4025
▁brush	-11.4026
▁shin	-11.4037
▁Tit	-11.4043
▁replicate	-11.4044
▁copie	-11.4047
▁tackle	-11.4049
ril	-11.4072
▁outer	-11.4078
▁integrat	-11.408
▁tent	-11.408
▁Cyr	-11.4081
▁Mor	-11.4082
▁stabilit	-11.4082
▁archive	-11.4086
▁Kat	-11.4101
▁Mil	-11.411
▁hum	-11.4122
▁Global	-11.4123
▁Afghan	-11.4128
▁Islands	-11.4128
▁register	-11.4128
▁Mandela	-11.4128
▁automobile	-11.4128
▁glimpse	-11.4128
▁pancrea	-11.4128
▁terrifying	-11.4128
▁unconscious	-11.4128
▁amateur	-11.4128
▁creator	-11.4128
▁expansi	-11.4128
▁valley	-11.4128
▁compress	-11.4128
▁bulb	-11.4128
▁Northern	-11.4128
▁bathroom	-11.4128
▁troop	-11.4128
▁flourish	-11.4128
▁arrow	-11.4128
▁Gandhi	-11.4128
▁signature	-11.4128
▁Social	-11.4129
▁backyard	-11.4129
▁flaw	-11.4129
ollege	-11.4129
▁grasp	-11.4129
▁bump	-11.413
▁leverage	-11.4132
▁collaborator	-11.4132
▁radi	-11.4132
▁fragile	-11.4133
▁insane	-11.4134
▁refine	-11.4135
rum	-11.4136
▁punch	-11.4136
▁Woo	-11.4139
▁nerd	-11.414
ange	-11.4145
▁Home	-11.4147
▁dear	-11.4152
▁shit	-11.4168
BC	-11.417
▁Atlant	-11.4183
air	-11.4188
▁flexibl	-11.4188
▁expose	-11.4197
▁temporar	-11.4204
▁overwhelming	-11.4209
load	-11.421
bye	-11.4215
aking	-11.4216
▁fo	-11.4216
friend	-11.4219
▁bin	-11.4221
▁starv	-11.4226
lam	-11.423
three	-11.4236
▁plug	-11.4238
▁Dut	-11.4247
▁mayor	-11.4251
▁makers	-11.4257
▁marine	-11.4258
MA	-11.4259
▁Map	-11.4286
▁bind	-11.4301
atory	-11.4313
▁tight	-11.4332
▁combin	-11.4354
▁compos	-11.4354
▁55	-11.4358
star	-11.4359
▁slums	-11.4366
▁Ever	-11.4371
▁retire	-11.4375
ndustrial	-11.4376
▁crystal	-11.4378
▁kilo	-11.4378
▁acquire	-11.4378
▁Church	-11.4378
▁Indonesia	-11.4378
▁Ocean	-11.4378
▁charming	-11.4378
▁civic	-11.4378
▁confirm	-11.4378
▁uniform	-11.4378
▁simultaneous	-11.4378
▁storytelling	-11.4378
▁initiative	-11.4378
▁stereotype	-11.4378
▁tropic	-11.4378
▁contemporar	-11.4378
▁snake	-11.4378
▁Norden	-11.4378
▁junk	-11.4378
▁shore	-11.4378
▁audio	-11.4378
▁neck	-11.4378
▁pipeline	-11.4379
▁Jewish	-11.4379
▁convey	-11.4379
▁Half	-11.4379
▁Coke	-11.438
▁rice	-11.4381
▁geometr	-11.4383
▁crush	-11.4383
▁proposal	-11.4383
▁portion	-11.4383
▁appearance	-11.4384
▁burie	-11.4384
▁denial	-11.4385
▁Mexican	-11.4386
▁Christ	-11.4389
▁workplace	-11.4389
law	-11.439
▁manual	-11.4394
▁highway	-11.4395
▁interconnected	-11.44
▁doors	-11.4401
▁falls	-11.4406
▁myceli	-11.4407
▁pond	-11.4409
▁Shi	-11.4414
▁devastating	-11.4416
▁Spa	-11.4416
▁satisfy	-11.4421
▁specialist	-11.4421
▁Same	-11.4423
▁panic	-11.4427
▁endless	-11.444
▁Put	-11.4448
arch	-11.4448
chan	-11.445
▁chas	-11.4454
▁Bell	-11.4457
▁rhythm	-11.4462
▁bang	-11.4481
aker	-11.4482
▁examine	-11.4482
▁Sure	-11.4504
▁sir	-11.4505
▁commit	-11.4509
▁mechanic	-11.4525
▁democrac	-11.4527
waves	-11.4542
racing	-11.4543
▁Lea	-11.4548
▁log	-11.4551
▁automat	-11.4557
▁communicat	-11.456
▁polar	-11.4569
ink	-11.4572
▁logical	-11.4579
step	-11.4586
▁beating	-11.4588
alo	-11.4599
▁horizon	-11.4609
cost	-11.4613
▁fanc	-11.4618
▁drag	-11.4626
▁ideolog	-11.4631
▁contribut	-11.4632
▁recommend	-11.4632
▁pursue	-11.4633
▁Jew	-11.4634
▁Detroit	-11.4634
▁Profess	-11.4634
▁commodit	-11.4634
▁fraction	-11.4634
▁garbage	-11.4634
▁guerrilla	-11.4634
▁membrane	-11.4634
▁endanger	-11.4634
▁Work	-11.4634
▁insulin	-11.4634
▁Queen	-11.4634
▁transmission	-11.4634
▁juice	-11.4634
▁Rosling	-11.4634
▁tiger	-11.4635
▁Iceland	-11.4635
▁casual	-11.4635
▁jaw	-11.4635
▁pride	-11.4636
▁Mike	-11.4636
▁sue	-11.4636
▁Rome	-11.4636
▁29	-11.4638
▁hub	-11.4638
▁Chile	-11.4638
▁strategic	-11.4641
▁ego	-11.4641
▁TEDster	-11.4642
morph	-11.4644
▁annual	-11.4647
▁Yo	-11.4648
▁vari	-11.4649
▁Music	-11.465
▁Law	-11.4651
▁prop	-11.4655
▁dough	-11.4672
▁cod	-11.4676
▁Pri	-11.4682
▁appreciat	-11.4685
ola	-11.4687
lace	-11.4688
ken	-11.4704
▁offering	-11.4708
▁impress	-11.4715
▁Lee	-11.4717
mount	-11.4725
▁freez	-11.4736
▁decrease	-11.4737
▁Sta	-11.4738
audi	-11.4745
▁container	-11.4753
▁distribute	-11.4761
maker	-11.4764
▁shower	-11.4764
▁Rob	-11.4767
profit	-11.4778
X	-11.4779
social	-11.4782
▁den	-11.479
▁washing	-11.4793
▁Roy	-11.4794
controll	-11.4795
▁Wo	-11.4796
Qa	-11.4805
▁bored	-11.4819
▁thrive	-11.4821
▁Andrew	-11.4833
▁Scot	-11.4834
▁Bra	-11.485
▁burned	-11.4863
▁crows	-11.4865
▁architectur	-11.4872
▁translat	-11.4889
town	-11.4893
inch	-11.4893
venue	-11.4895
▁Virgin	-11.4897
▁Cambodia	-11.4898
▁Singapore	-11.4898
▁Swiss	-11.4898
▁Technolog	-11.4898
▁Zealand	-11.4898
▁contagio	-11.4898
▁cylinder	-11.4898
▁disconnect	-11.4898
▁elevator	-11.4898
▁grocer	-11.4898
▁harbor	-11.4898
▁mathematician	-11.4898
▁shrimp	-11.4898
▁sponsor	-11.4898
▁excuse	-11.4898
▁asteroid	-11.4898
▁oyster	-11.4898
▁enterprise	-11.4898
▁Shang	-11.4898
▁towel	-11.4899
▁spray	-11.4899
▁preference	-11.4899
▁sensation	-11.49
▁syndrome	-11.49
▁silk	-11.4901
▁fence	-11.4901
▁lean	-11.4901
▁static	-11.4901
▁calm	-11.4902
▁replacement	-11.4905
eye	-11.4907
▁passive	-11.4908
▁yoursel	-11.4909
▁Ann	-11.491
wandering	-11.4917
shape	-11.4924
▁31	-11.4925
▁abilit	-11.4931
▁ethnic	-11.494
▁historic	-11.4951
▁developer	-11.4961
▁Bru	-11.4966
▁Jane	-11.4985
tial	-11.4995
mart	-11.5001
vice	-11.5006
▁millimeter	-11.5019
▁Asian	-11.5019
view	-11.5045
▁popp	-11.5059
interest	-11.5067
▁prim	-11.507
▁corporations	-11.507
▁overwhelm	-11.5078
▁indicate	-11.5081
angle	-11.5098
quo	-11.5104
▁independen	-11.5104
▁flowing	-11.5105
corn	-11.5107
space	-11.5113
▁documentar	-11.5116
▁climbing	-11.5117
▁trap	-11.5124
met	-11.5136
▁30-	-11.5136
▁i	-11.5138
▁mono	-11.5139
▁Play	-11.5152
▁Yemen	-11.5157
tub	-11.5158
▁supplie	-11.5159
▁sanit	-11.5161
▁Acc	-11.5162
▁distract	-11.5164
▁assum	-11.5167
hydro	-11.5168
▁Bronx	-11.5168
▁DVD	-11.5168
▁Shakespeare	-11.5168
▁adolescent	-11.5168
▁aggressive	-11.5168
▁genuine	-11.5168
▁immense	-11.5168
▁neuroscientist	-11.5168
▁potato	-11.5168
▁receptor	-11.5168
▁thylacine	-11.5168
▁trajector	-11.5168
▁drown	-11.5168
▁spontaneous	-11.5168
▁mutual	-11.5168
▁encode	-11.5168
▁microphone	-11.5168
▁1930	-11.5168
▁steer	-11.5168
▁mysterious	-11.5168
▁reproduce	-11.5168
▁export	-11.5168
▁texture	-11.5169
▁renewable	-11.5169
▁gods	-11.517
▁subway	-11.5171
▁Thai	-11.5172
▁recogniz	-11.5175
▁valve	-11.5175
▁salar	-11.5175
▁sew	-11.518
▁intent	-11.5181
▁merg	-11.5189
▁sake	-11.5192
▁autist	-11.5204
▁eliminate	-11.5236
▁inmate	-11.524
.5	-11.524
nois	-11.5243
▁analyz	-11.5245
▁eradicat	-11.526
▁cosm	-11.5262
▁cooperate	-11.5263
▁din	-11.5264
▁rip	-11.5267
▁Cor	-11.5271
▁occasion	-11.5273
▁Less	-11.5275
▁span	-11.5284
▁association	-11.5298
ison	-11.5308
▁sens	-11.5311
cap	-11.5323
ora	-11.5325
ending	-11.5329
AT	-11.5334
ook	-11.534
rhythm	-11.5353
▁Has	-11.5354
plus	-11.5357
▁poly	-11.5358
weight	-11.5361
second	-11.5361
▁Ray	-11.5376
▁antibod	-11.5377
▁candy	-11.538
found	-11.5385
fall	-11.5387
▁unhapp	-11.5395
wear	-11.5399
▁stranger	-11.5399
▁shirt	-11.5402
own	-11.5406
▁goat	-11.5413
hane	-11.5421
roid	-11.5433
▁teenage	-11.5437
▁nano	-11.5444
adequate	-11.5446
urveillance	-11.5446
▁divorce	-11.5446
▁primitive	-11.5446
▁scaffold	-11.5446
▁sweep	-11.5446
▁threshold	-11.5446
▁intimate	-11.5446
▁terrain	-11.5446
▁impulse	-11.5446
▁dawn	-11.5446
▁inherit	-11.5446
▁augment	-11.5446
▁viral	-11.5446
▁sacred	-11.5446
▁cyber	-11.5446
▁anatom	-11.5446
▁delight	-11.5446
▁persist	-11.5446
▁Simon	-11.5447
▁strict	-11.5447
▁boost	-11.5447
▁courageous	-11.5448
▁Rock	-11.5448
Donald	-11.5448
▁pipe	-11.5448
▁hometown	-11.5449
▁Republican	-11.5449
▁stamp	-11.5449
▁Hunt	-11.5449
▁elementary	-11.5449
consum	-11.545
▁friendship	-11.5451
▁invad	-11.5452
▁detection	-11.5458
▁blindness	-11.5458
▁reflection	-11.5462
▁Ali	-11.5466
▁embrac	-11.5474
▁drought	-11.5478
rio	-11.548
▁explode	-11.5481
▁terror	-11.5483
▁payment	-11.5483
▁server	-11.5484
▁survived	-11.5484
ette	-11.549
satisfact	-11.5491
▁destiny	-11.5491
▁Try	-11.5493
▁update	-11.5494
▁intens	-11.5496
▁Emma	-11.5501
▁ironic	-11.5502
▁embarrassing	-11.5503
▁wage	-11.5507
▁Mur	-11.5511
▁purchase	-11.5515
▁soap	-11.5517
▁beam	-11.5519
▁logo	-11.5524
eaten	-11.5524
lips	-11.5525
▁founder	-11.5525
unch	-11.553
BI	-11.5535
produc	-11.554
bular	-11.5541
▁investigat	-11.5549
▁dumb	-11.5551
eff	-11.5557
▁cur	-11.5558
▁quar	-11.5568
illa	-11.5569
▁capitalis	-11.5579
▁diagnos	-11.5596
ulu	-11.5607
▁ending	-11.5609
lap	-11.5611
▁neutral	-11.5614
▁institutional	-11.5626
perm	-11.5626
▁rever	-11.5628
osity	-11.5641
▁800	-11.5648
ith	-11.5663
▁bla	-11.5669
seas	-11.5679
▁liberat	-11.5683
▁37	-11.5707
dam	-11.5708
▁psycho	-11.5722
makers	-11.5727
▁donation	-11.5728
▁consist	-11.573
inhabit	-11.5731
▁Catholic	-11.5731
▁Joseph	-11.5731
▁Montana	-11.5731
▁disturbing	-11.5731
▁explicit	-11.5731
▁genocide	-11.5731
▁gorgeous	-11.5731
▁magnificent	-11.5731
▁marvel	-11.5731
▁sibling	-11.5731
▁swallow	-11.5731
▁jewel	-11.5731
▁fetus	-11.5731
▁contrar	-11.5731
▁cliff	-11.5731
▁Court	-11.5731
▁mustache	-11.5731
▁banana	-11.5732
▁odor	-11.5732
▁permission	-11.5732
▁criteri	-11.5732
▁regenerate	-11.5732
▁marry	-11.5732
centimeter	-11.5732
▁honey	-11.5732
thermal	-11.5732
▁cruel	-11.5732
▁intensive	-11.5732
▁1900	-11.5733
▁Compan	-11.5733
▁Albert	-11.5733
▁cue	-11.5733
▁altitude	-11.5734
▁interpretation	-11.5735
▁align	-11.5736
▁canvas	-11.5736
▁investigation	-11.5737
▁advocate	-11.5738
▁lever	-11.574
▁broc	-11.574
▁reliabl	-11.574
▁manner	-11.5742
▁Tasmanian	-11.5743
▁campus	-11.5745
▁elegant	-11.5747
▁Water	-11.575
▁na	-11.5751
grad	-11.5752
▁terroris	-11.5752
▁Open	-11.5753
RS	-11.5755
▁bowl	-11.576
▁linear	-11.5769
▁survivor	-11.5772
▁bush	-11.5778
▁tide	-11.5778
▁chess	-11.5782
itting	-11.5792
version	-11.5797
▁SS	-11.58
▁controversial	-11.5803
▁pound	-11.5805
▁deni	-11.5806
gentleman	-11.5811
▁proven	-11.5843
▁flipp	-11.5844
▁upside	-11.5851
bian	-11.5853
▁competitive	-11.5864
▁bombs	-11.5874
▁rose	-11.5888
▁replac	-11.5889
▁productiv	-11.5902
page	-11.5904
▁Bern	-11.5912
▁included	-11.5912
▁reporter	-11.5921
rane	-11.5925
▁dare	-11.5931
▁Laur	-11.5934
▁bucks	-11.5939
▁Prince	-11.5946
▁sale	-11.5953
▁tone	-11.5958
▁rank	-11.596
pac	-11.5961
▁Fo	-11.5963
play	-11.5964
blowing	-11.5964
hind	-11.597
world	-11.5977
mail	-11.5981
▁customiz	-11.5988
▁Carl	-11.5989
oto	-11.599
▁ambitio	-11.5995
ogen	-11.5998
tail	-11.6
▁gener	-11.6005
therland	-11.6006
▁custom	-11.6009
rcul	-11.6012
▁corrupt	-11.6021
petition	-11.6025
▁violin	-11.6025
▁creep	-11.6025
▁immortal	-11.6025
▁obtain	-11.6025
▁temple	-11.6025
▁vacation	-11.6025
▁vacuum	-11.6025
▁heritage	-11.6025
▁Geograph	-11.6025
▁shy	-11.6026
▁tomato	-11.6026
▁puppet	-11.6026
▁venture	-11.6026
▁drift	-11.6026
▁proposition	-11.6026
▁monster	-11.6026
▁bombsight	-11.6026
▁confine	-11.6026
▁Keep	-11.6026
eopard	-11.6026
▁Alexand	-11.6026
▁redesign	-11.6026
▁displace	-11.6026
▁girlfriend	-11.6027
▁improvisation	-11.6027
sight	-11.6027
▁Organiz	-11.6028
▁negotiation	-11.6028
▁Brother	-11.6029
▁dragg	-11.603
▁magician	-11.6031
kar	-11.6032
▁frontier	-11.6033
▁loving	-11.6035
▁shout	-11.6036
take	-11.6037
▁Histor	-11.6041
▁700	-11.6046
▁stake	-11.605
▁Newton	-11.6051
▁bleed	-11.6051
▁horizontal	-11.6055
▁deepest	-11.6055
tact	-11.6059
▁astronomer	-11.6062
▁Ky	-11.6066
eastern	-11.6066
▁momentum	-11.6068
▁spare	-11.6069
▁Cla	-11.607
▁Korean	-11.6071
▁rear	-11.6074
ake	-11.6079
▁Mary	-11.6082
▁20-	-11.6095
gged	-11.6097
▁mon	-11.6133
▁critic	-11.6138
▁stimul	-11.6147
nel	-11.6159
▁explorer	-11.6163
direct	-11.6182
▁Mas	-11.6213
▁Stor	-11.6213
ause	-11.6215
▁passe	-11.6237
▁Moo	-11.6253
▁relation	-11.6254
ament	-11.6255
▁dri	-11.6258
▁Nel	-11.6262
▁lane	-11.6271
ittle	-11.6274
▁wir	-11.6278
▁Gree	-11.6279
▁Kev	-11.6283
▁resolution	-11.6289
▁Dar	-11.629
▁cope	-11.6293
field	-11.6298
stock	-11.6307
▁anticipate	-11.6311
activat	-11.6318
eith	-11.6319
▁tele	-11.632
▁impos	-11.6321
▁thermo	-11.6325
▁controvers	-11.6328
▁dictator	-11.6328
▁Black	-11.6328
▁Tanzania	-11.6328
▁astronaut	-11.6328
▁caregiver	-11.6328
▁chronic	-11.6328
▁deliberate	-11.6328
▁expense	-11.6328
▁humanitarian	-11.6328
▁minimum	-11.6328
▁scheme	-11.6328
▁syringe	-11.6328
▁warrior	-11.6328
▁batteries	-11.6328
▁democratiz	-11.6328
▁helmet	-11.6328
▁ultrasound	-11.6328
▁congest	-11.6328
▁Saturn	-11.6329
▁triangle	-11.6329
▁advis	-11.6329
▁Lewi	-11.6329
▁exposure	-11.6329
▁Italian	-11.6329
▁reclaim	-11.633
▁46	-11.6331
nburg	-11.6331
▁vibration	-11.6332
▁fireflies	-11.6333
▁galler	-11.6333
▁compassionate	-11.6334
▁minus	-11.6334
▁downtown	-11.6335
▁progressive	-11.6336
▁adaptation	-11.6336
▁grabb	-11.6337
traumatic	-11.6337
▁dispos	-11.6337
▁lobe	-11.6337
fill	-11.6338
▁cartoonist	-11.6339
discriminati	-11.6339
▁assure	-11.634
▁veil	-11.6341
▁irre	-11.6343
▁educator	-11.6346
▁loose	-11.6346
▁Ber	-11.6347
▁Rather	-11.6347
▁30,000	-11.6349
lapse	-11.6349
▁Para	-11.635
▁administrati	-11.6353
▁Laden	-11.6357
▁stunning	-11.636
▁graduat	-11.6378
itch	-11.6382
GG	-11.6382
uthern	-11.6389
▁Hall	-11.6395
brew	-11.6395
▁hardest	-11.6399
invasive	-11.6399
wire	-11.6399
▁helpless	-11.6401
▁hom	-11.6401
▁readers	-11.6401
▁bust	-11.6411
gro	-11.6412
▁surgeons	-11.6415
▁socially	-11.6419
oli	-11.6424
▁collaborate	-11.6434
▁hybrid	-11.6435
tooth	-11.644
▁jumped	-11.6444
▁criticiz	-11.6447
▁regulate	-11.6454
ipping	-11.6456
▁chemist	-11.6469
▁shap	-11.6482
▁swing	-11.6485
▁quantit	-11.6489
ila	-11.6494
▁Reg	-11.6495
▁authors	-11.6499
▁polici	-11.65
▁Lot	-11.6507
core	-11.6509
▁OE	-11.651
amma	-11.6514
▁deaf	-11.6516
▁realm	-11.652
▁eu	-11.6523
▁provider	-11.6525
▁chop	-11.6536
utter	-11.6541
▁realistic	-11.6557
▁Pan	-11.6562
▁practic	-11.6567
logical	-11.6568
▁integr	-11.6569
▁Jay	-11.657
▁lawn	-11.6572
▁abundan	-11.6576
▁continuous	-11.6583
sburg	-11.6594
▁preserv	-11.6597
iza	-11.6604
efficient	-11.663
income	-11.6632
oma	-11.6632
▁heavi	-11.6632
▁convict	-11.6637
lihood	-11.6637
▁propos	-11.6639
▁assign	-11.664
▁scholar	-11.664
convenient	-11.6641
▁Absolute	-11.6641
▁Hawaii	-11.6641
▁Jordan	-11.6641
▁Medicine	-11.6641
▁Silicon	-11.6641
▁addiction	-11.6641
▁authoritarian	-11.6641
▁blob	-11.6641
▁correlation	-11.6641
▁dopamine	-11.6641
▁elevate	-11.6641
▁encouraging	-11.6641
▁episode	-11.6641
▁striking	-11.6641
▁drunk	-11.6641
▁Disney	-11.6641
▁deforest	-11.6641
▁envelope	-11.6641
▁album	-11.6641
▁mineral	-11.6641
▁Brooklyn	-11.6641
▁tolerance	-11.6641
▁Jean	-11.6641
▁occupy	-11.6641
▁meditation	-11.6641
▁Lord	-11.6641
▁leopard	-11.6641
▁hint	-11.6641
▁Somali	-11.6642
▁destination	-11.6642
▁imitat	-11.6642
mund	-11.6643
▁inflation	-11.6644
▁shepherd	-11.6644
▁Clint	-11.6644
▁modest	-11.6645
▁USA	-11.6645
▁brick	-11.6645
▁civilian	-11.6645
▁eco	-11.6646
hole	-11.6647
▁penis	-11.6647
▁toast	-11.6648
▁hut	-11.6653
▁philosophical	-11.6655
▁fatal	-11.6663
▁scare	-11.6664
▁Nick	-11.6667
▁metric	-11.6671
▁summarize	-11.6682
▁tile	-11.6685
▁interior	-11.6692
verbal	-11.6693
▁Bro	-11.6694
▁gase	-11.6696
▁Rose	-11.67
▁accus	-11.6705
cock	-11.6708
▁axe	-11.6709
▁trappe	-11.673
▁beef	-11.6732
▁dependenc	-11.6733
▁crap	-11.6734
▁fundrais	-11.6773
▁transmitt	-11.6791
▁Mah	-11.6791
tched	-11.6803
▁staring	-11.6806
▁Ku	-11.681
▁formal	-11.6812
change	-11.6812
person	-11.6818
▁monitoring	-11.6827
vil	-11.6839
▁awe	-11.6842
amas	-11.6843
▁Carol	-11.6851
▁Mak	-11.6851
lmost	-11.6861
▁qua	-11.6868
western	-11.6881
alem	-11.6894
▁eliminat	-11.6895
style	-11.6896
▁cleaner	-11.6897
ode	-11.6901
▁summar	-11.6922
mine	-11.6941
▁mini	-11.6952
▁minorit	-11.696
▁autonom	-11.6962
▁Parkinson	-11.6964
▁Saturday	-11.6964
▁chamber	-11.6964
▁commission	-11.6964
▁enzyme	-11.6964
▁irrational	-11.6964
▁scrap	-11.6964
▁secular	-11.6964
▁spaghetti	-11.6964
▁stomach	-11.6964
▁storyteller	-11.6964
▁territor	-11.6964
▁visceral	-11.6964
▁Similar	-11.6964
▁empire	-11.6964
▁famine	-11.6964
▁vivid	-11.6964
▁Coast	-11.6964
▁distort	-11.6964
▁chimp	-11.6964
▁neocort	-11.6964
▁Sierra	-11.6964
▁Nathan	-11.6964
▁Bosnia	-11.6964
▁spike	-11.6964
▁negotiate	-11.6964
▁feminist	-11.6964
▁champion	-11.6965
▁enforce	-11.6965
▁Treat	-11.6966
nformation	-11.6966
▁Sarah	-11.6967
▁44	-11.6968
▁Eight	-11.6968
▁pleasant	-11.6968
Global	-11.697
▁aunt	-11.697
witzer	-11.6972
▁Hung	-11.6972
▁bask	-11.6972
zler	-11.6973
▁obsession	-11.6973
▁Ram	-11.6974
▁Jones	-11.6975
▁phenomena	-11.6976
▁coverage	-11.6976
▁Hope	-11.6978
▁harmon	-11.6978
▁selfish	-11.6979
▁Pretty	-11.6994
▁intrinsic	-11.6995
▁referr	-11.7007
▁realization	-11.7007
▁worrying	-11.7013
▁nonviolen	-11.7013
leg	-11.7017
▁dar	-11.7025
▁disability	-11.7028
▁Kenne	-11.7033
▁clari	-11.7036
ima	-11.7037
▁Nin	-11.7044
▁meme	-11.7045
▁Line	-11.7051
▁branch	-11.7058
▁Year	-11.7059
▁discoveries	-11.7062
▁accelerate	-11.7063
▁deposit	-11.7073
▁stimulate	-11.7081
ference	-11.7094
Bay	-11.7094
▁accumulate	-11.7098
▁forbid	-11.71
▁Medica	-11.7103
▁manufacturer	-11.7103
ada	-11.7107
erson	-11.711
put	-11.7112
imp	-11.7139
▁jar	-11.7143
▁38	-11.7167
▁Jud	-11.7181
tangible	-11.7184
▁valid	-11.7202
nix	-11.7205
sea	-11.7219
▁visualize	-11.7221
▁nucle	-11.7227
▁significan	-11.7233
▁Turns	-11.7239
oral	-11.7253
▁entit	-11.7266
eb	-11.7268
▁blogg	-11.727
▁Minist	-11.7285
▁compute	-11.7289
▁voca	-11.7291
▁switched	-11.7292
,500	-11.7297
▁2030	-11.7297
▁ambulance	-11.7297
▁descend	-11.7297
▁executive	-11.7297
▁fantasy	-11.7297
▁historian	-11.7297
▁iPod	-11.7297
▁introvert	-11.7297
▁janitor	-11.7297
▁knife	-11.7297
▁simulate	-11.7297
▁stabilize	-11.7297
▁tribal	-11.7297
▁Accord	-11.7297
▁Argentin	-11.7297
▁inhibit	-11.7297
▁substantial	-11.7297
▁theoretical	-11.7297
openha	-11.7297
▁Still	-11.7297
▁premise	-11.7297
upreme	-11.7297
▁Columb	-11.7297
▁contaminat	-11.7297
▁jellyfish	-11.7297
▁optical	-11.7297
▁shatter	-11.7297
▁multiply	-11.7297
▁equit	-11.7297
▁nightmare	-11.7297
▁Swee	-11.7297
▁rabbi	-11.7297
▁carrot	-11.7297
▁cafe	-11.7297
▁Spring	-11.7297
▁cotton	-11.7297
▁libert	-11.7297
▁Palm	-11.7297
▁captain	-11.7297
▁Twenty	-11.7298
▁nail	-11.7299
▁naive	-11.7299
▁Johnny	-11.7299
▁selective	-11.73
▁Canadian	-11.73
▁Lake	-11.73
▁preparation	-11.73
▁unfold	-11.7301
▁invitation	-11.7302
▁vend	-11.7302
▁Fire	-11.7302
▁distinction	-11.7303
▁vary	-11.7304
▁translator	-11.7305
rill	-11.7306
▁frustration	-11.7306
▁fade	-11.7308
▁Stop	-11.7309
▁deck	-11.7309
▁thus	-11.731
▁yeast	-11.731
print	-11.731
▁therapist	-11.731
▁12-	-11.7314
▁bam	-11.7317
▁bli	-11.7322
induce	-11.7326
▁Muh	-11.7326
▁Old	-11.7331
▁guid	-11.7332
▁Comp	-11.7333
▁illuminat	-11.7336
▁entry	-11.7337
child	-11.7341
▁tactic	-11.7349
kel	-11.7352
▁Turn	-11.7355
logy	-11.7358
organiz	-11.736
▁AK	-11.7373
pox	-11.7401
▁Julian	-11.7417
▁mesh	-11.7425
imi	-11.7426
▁useless	-11.7429
▁extinction	-11.7436
onia	-11.7445
▁processor	-11.7449
▁15-	-11.7456
fu	-11.7457
▁kn	-11.7469
▁legislat	-11.747
▁voter	-11.7473
▁conceptual	-11.7477
▁spinn	-11.7481
mba	-11.7484
train	-11.7485
▁masse	-11.7497
▁Cro	-11.753
▁slip	-11.7538
▁camel	-11.7548
▁recycle	-11.7551
▁redefine	-11.756
care	-11.7571
▁mud	-11.7572
▁Inter	-11.7578
scope	-11.7598
▁settl	-11.7598
void	-11.7601
erra	-11.7601
▁forgive	-11.762
▁Democrat	-11.7637
▁disagree	-11.7639
▁Leban	-11.7639
▁accura	-11.764
▁Buddhis	-11.7642
▁Elizabeth	-11.7642
▁Ethiopia	-11.7642
▁Norwegian	-11.7642
▁Office	-11.7642
▁Sylvi	-11.7642
▁dilemma	-11.7642
▁hamburger	-11.7642
▁immigrant	-11.7642
▁obsolet	-11.7642
▁octopus	-11.7642
▁pheromone	-11.7642
▁reinforce	-11.7642
▁revelation	-11.7642
▁schedule	-11.7642
▁skeleton	-11.7642
▁unfair	-11.7642
▁victor	-11.7642
▁vitamin	-11.7642
▁screw	-11.7642
▁pirate	-11.7642
▁Qatar	-11.7642
▁accent	-11.7642
▁multinational	-11.7642
▁slave	-11.7642
▁Publi	-11.7642
▁Fift	-11.7642
▁mild	-11.7643
▁toxin	-11.7643
▁diagnostic	-11.7643
▁lump	-11.7643
▁intersection	-11.7643
▁Com	-11.7643
▁Roger	-11.7643
▁arrangement	-11.7644
▁retail	-11.7644
▁delete	-11.7645
▁Plan	-11.7645
▁pant	-11.7645
▁visualization	-11.7646
▁import	-11.7646
urgenc	-11.7646
▁48	-11.7646
▁cardio	-11.7647
▁symphon	-11.7649
▁vent	-11.765
▁integration	-11.765
▁del	-11.7651
▁insert	-11.7656
lept	-11.7656
▁Earl	-11.7657
▁passage	-11.7657
▁cage	-11.7667
▁fertilizer	-11.7668
▁Stone	-11.7669
▁regenerati	-11.767
▁circu	-11.7671
▁200,000	-11.7672
▁baker	-11.7674
▁probe	-11.7675
▁cosmolog	-11.7677
▁aspiration	-11.7689
▁rubb	-11.7689
shirt	-11.7696
fund	-11.7702
▁rent	-11.7707
▁dropping	-11.7711
▁Nik	-11.7715
▁Ross	-11.7716
▁Bud	-11.7717
▁playful	-11.7717
▁Cel	-11.7728
shot	-11.7729
▁Pur	-11.7734
▁curl	-11.7735
month	-11.7739
▁lover	-11.7745
▁yards	-11.775
▁Lar	-11.7753
engineering	-11.7763
▁reader	-11.7766
estate	-11.7771
▁42	-11.7773
▁fuse	-11.7779
BA	-11.7789
ER	-11.7792
▁triple	-11.7803
▁Ital	-11.7804
five	-11.7805
▁Lang	-11.7811
EDI	-11.7811
▁approache	-11.782
▁vocal	-11.7826
▁rang	-11.7834
▁hir	-11.7834
▁dome	-11.7836
▁boundary	-11.7854
▁banne	-11.787
▁Julia	-11.7871
drew	-11.7874
▁impressi	-11.7877
eau	-11.7883
ogether	-11.789
▁branche	-11.7895
▁grip	-11.7896
▁stare	-11.7899
istan	-11.7899
▁rev	-11.7907
▁cookie	-11.7913
aph	-11.7917
ilia	-11.792
▁epi	-11.7945
▁publisher	-11.7946
▁patholog	-11.7948
▁Yu	-11.7958
ura	-11.7981
▁Under	-11.7983
▁shoe	-11.7991
▁anesthesi	-11.7992
▁socio	-11.7993
Cola	-11.7993
▁Republic	-11.7995
▁punish	-11.7997
▁stigma	-11.7997
▁transit	-11.7998
▁Know	-11.7998
▁Goliath	-11.7999
▁Julie	-11.7999
▁Leonardo	-11.7999
▁Parliament	-11.7999
▁Student	-11.7999
▁Ushahidi	-11.7999
▁Zimbabwe	-11.7999
▁arbitrar	-11.7999
▁artifact	-11.7999
▁calendar	-11.7999
▁crawl	-11.7999
▁cybercriminal	-11.7999
▁depict	-11.7999
▁encrypt	-11.7999
▁endeavor	-11.7999
▁envision	-11.7999
▁innovator	-11.7999
▁occupation	-11.7999
▁remittance	-11.7999
▁stadium	-11.7999
▁welfare	-11.7999
▁Secur	-11.7999
▁absence	-11.7999
▁anxious	-11.7999
▁erotic	-11.7999
▁orgasm	-11.7999
▁regain	-11.7999
▁chord	-11.7999
▁decorat	-11.7999
▁ladder	-11.7999
▁Power	-11.7999
▁antenna	-11.7999
▁delicious	-11.7999
▁retain	-11.7999
▁intervene	-11.7999
▁Phoe	-11.7999
▁funeral	-11.7999
▁Thirty	-11.7999
▁Hawk	-11.7999
▁contest	-11.7999
▁calculator	-11.7999
▁loyal	-11.7999
▁relief	-11.7999
▁impair	-11.7999
▁glove	-11.7999
▁minimal	-11.7999
▁Edward	-11.7999
▁Broad	-11.7999
▁trac	-11.8
▁angel	-11.8
▁infectious	-11.8
▁biodiversity	-11.8
▁blink	-11.8
▁Tempe	-11.8
▁trivial	-11.8001
▁Light	-11.8001
▁workshop	-11.8001
▁conquer	-11.8001
▁96	-11.8002
▁uncover	-11.8002
▁Milk	-11.8002
▁Homo	-11.8002
▁crank	-11.8002
▁fungi	-11.8002
▁Berke	-11.8003
▁sympath	-11.8003
▁impose	-11.8003
▁tempo	-11.8003
▁butterfl	-11.8003
▁queen	-11.8003
▁generic	-11.8004
apped	-11.8004
▁stimulation	-11.8005
▁192	-11.8006
▁exot	-11.8006
▁candle	-11.8007
▁Food	-11.8007
▁packag	-11.8007
▁Dian	-11.8009
▁sync	-11.801
▁unsee	-11.8012
▁Marco	-11.8012
▁steam	-11.8013
▁animat	-11.8019
▁Doug	-11.8021
kyo	-11.8024
stick	-11.8026
▁Gil	-11.8026
▁disrupt	-11.8026
▁dating	-11.8028
▁scarce	-11.8028
▁celebrity	-11.8029
▁Sur	-11.8032
▁semi	-11.8032
▁130	-11.8033
▁lowest	-11.8034
▁Mean	-11.8034
▁Ban	-11.8035
▁apologiz	-11.8037
▁Building	-11.8037
▁maker	-11.8046
▁seventh	-11.8046
▁transcend	-11.8048
▁neurological	-11.8055
▁lip	-11.8061
▁spit	-11.8065
break	-11.807
▁beaten	-11.8075
MG	-11.8075
▁Steven	-11.8079
▁glue	-11.8082
spread	-11.8083
▁celebrat	-11.8083
Z	-11.8085
▁binar	-11.8091
wide	-11.8091
food	-11.8098
▁jur	-11.8099
centr	-11.8101
bound	-11.8109
▁improvise	-11.8111
▁Fra	-11.8118
▁longest	-11.812
stair	-11.8125
quality	-11.8139
▁Ask	-11.8141
cover	-11.8147
ado	-11.8165
alai	-11.817
▁Va	-11.8185
▁Swa	-11.8191
▁longe	-11.8217
▁kite	-11.8235
▁Fer	-11.824
100	-11.8242
▁sketch	-11.8243
▁Bag	-11.8263
▁admire	-11.8265
▁trad	-11.8292
▁Countr	-11.8293
▁vibrat	-11.8303
▁constrain	-11.8305
▁manipulat	-11.8308
▁promis	-11.8309
▁Say	-11.8312
zo	-11.8326
▁usage	-11.8331
lah	-11.8331
▁geograph	-11.8342
▁nitr	-11.8343
▁350	-11.8344
tti	-11.835
▁chase	-11.8351
▁ecolog	-11.8353
▁restrict	-11.8365
▁drama	-11.8366
▁tempt	-11.8367
xcept	-11.8368
▁maxim	-11.8369
▁1.2	-11.8369
▁Benjam	-11.8369
▁Education	-11.8369
▁Tunisia	-11.8369
▁adolescence	-11.8369
▁bucket	-11.8369
▁choir	-11.8369
▁conscience	-11.8369
▁default	-11.8369
▁deficit	-11.8369
▁distinguish	-11.8369
▁exaggerat	-11.8369
▁exquisite	-11.8369
▁fault	-11.8369
▁iPad	-11.8369
▁monument	-11.8369
▁parachute	-11.8369
▁pencil	-11.8369
▁pesticide	-11.8369
▁pubert	-11.8369
▁purple	-11.8369
▁reputation	-11.8369
▁sovereign	-11.8369
▁tsunami	-11.8369
▁Alpha	-11.8369
▁beneficia	-11.8369
▁disgust	-11.8369
▁orphan	-11.8369
▁enlighten	-11.8369
▁Business	-11.8369
▁ooh	-11.8369
▁marrow	-11.8369
▁opposition	-11.8369
▁Societ	-11.8369
▁Tibet	-11.8369
▁innovate	-11.8369
▁bonus	-11.8369
▁Computer	-11.8369
▁slope	-11.8369
▁unveil	-11.8369
▁Learn	-11.8369
▁SMS	-11.8369
▁oppress	-11.8369
▁Mountain	-11.8369
▁Tower	-11.8369
▁watt	-11.8369
▁silicon	-11.8369
▁sneak	-11.8369
▁proceed	-11.8369
▁constitution	-11.8369
▁smash	-11.837
▁kilogram	-11.837
▁shove	-11.837
▁thread	-11.837
▁lethal	-11.837
potent	-11.837
▁gross	-11.837
▁Nazi	-11.837
compensat	-11.837
▁sidewalk	-11.8371
▁introduction	-11.8371
▁conserv	-11.8371
▁superpower	-11.8371
▁assessment	-11.8371
▁mature	-11.8371
▁settlement	-11.8372
▁Walk	-11.8372
▁index	-11.8372
▁plea	-11.8372
▁decent	-11.8372
▁6,000	-11.8373
▁roman	-11.8374
▁weakness	-11.8375
▁approximate	-11.8375
▁Susan	-11.8376
▁stain	-11.8379
▁browser	-11.8381
▁Nu	-11.8386
▁Monday	-11.8388
▁petal	-11.8389
▁patch	-11.839
lium	-11.8392
▁Leone	-11.8397
▁emotionally	-11.8406
▁hopeless	-11.841
▁overlap	-11.8413
▁Emil	-11.8415
▁mold	-11.8417
▁surf	-11.8422
▁Head	-11.8424
▁Lama	-11.8425
▁settle	-11.8425
▁72	-11.8426
▁kidd	-11.8431
▁dece	-11.8432
▁informal	-11.8434
▁Start	-11.8435
RA	-11.8444
▁owe	-11.8446
▁Young	-11.8456
mile	-11.8465
▁unite	-11.8466
craft	-11.8473
▁cla	-11.8476
▁hunter	-11.848
bucks	-11.848
▁accidental	-11.8485
effective	-11.8489
shift	-11.8489
economic	-11.8489
culture	-11.8491
sense	-11.8496
▁intangible	-11.8497
▁Mall	-11.8508
track	-11.851
▁investigate	-11.8512
▁Dub	-11.8515
izz	-11.8521
▁replicat	-11.8527
▁seize	-11.8533
▁Dai	-11.8537
maid	-11.854
▁Pen	-11.854
▁undermin	-11.8551
mino	-11.8559
olation	-11.8566
ssociation	-11.8579
rv	-11.8583
▁remotely	-11.8596
▁Cap	-11.8602
minded	-11.8603
omin	-11.8612
▁solo	-11.8614
▁assist	-11.8636
▁declin	-11.8655
▁surger	-11.8658
SA	-11.8662
▁grant	-11.8665
▁render	-11.8666
▁Gen	-11.8671
▁exhaust	-11.8674
▁sequenc	-11.8681
▁migrate	-11.8708
▁Len	-11.872
▁convention	-11.8722
ime	-11.8729
▁rig	-11.873
awa	-11.8732
▁swam	-11.8733
▁slum	-11.8738
▁185	-11.8738
▁chick	-11.874
▁yell	-11.8743
▁rotat	-11.8744
▁chem	-11.8746
ounce	-11.8751
▁je	-11.8751
▁differ	-11.8752
ouncil	-11.8753
▁Francis	-11.8753
qualifie	-11.8754
▁Apollo	-11.8754
▁Bangladesh	-11.8754
▁Buddha	-11.8754
▁Copernic	-11.8754
▁Hospital	-11.8754
▁acoustic	-11.8754
▁cathedral	-11.8754
▁contemplat	-11.8754
▁exclusive	-11.8754
▁jungle	-11.8754
▁mammogram	-11.8754
▁pedestrian	-11.8754
▁shrink	-11.8754
▁undergraduate	-11.8754
▁virgin	-11.8754
▁whisper	-11.8754
▁Cameron	-11.8754
▁Cloud	-11.8754
▁Natural	-11.8754
▁buzz	-11.8754
▁dismiss	-11.8754
▁exponential	-11.8754
▁remix	-11.8754
▁Wonder	-11.8754
plankton	-11.8754
▁Small	-11.8754
▁dentist	-11.8754
▁mosque	-11.8754
▁bypass	-11.8754
▁haunt	-11.8754
▁chunk	-11.8754
▁encyclopedia	-11.8754
▁Media	-11.8754
▁suspicious	-11.8755
▁derive	-11.8755
▁melod	-11.8755
▁Simpl	-11.8755
▁Development	-11.8755
▁sufficient	-11.8755
▁diamond	-11.8756
▁86	-11.8756
▁Probab	-11.8756
▁strap	-11.8756
▁iceberg	-11.8756
▁posture	-11.8757
▁anthropologist	-11.8757
▁dune	-11.8758
▁hypothes	-11.8759
▁adaptive	-11.8759
▁Carne	-11.8759
▁whip	-11.876
lphi	-11.876
▁outdoor	-11.8764
▁alert	-11.8765
▁Bolt	-11.8765
▁subjective	-11.8766
▁mastery	-11.8768
▁fisc	-11.8768
▁overlook	-11.8768
▁rubber	-11.8769
▁slaughter	-11.8773
▁anticipat	-11.8776
▁Anas	-11.8782
▁phenomenal	-11.8788
▁Mau	-11.879
AD	-11.8791
▁farming	-11.8812
▁bench	-11.8818
▁traffick	-11.8825
▁companion	-11.8827
hou	-11.8832
HC	-11.8832
▁demonstrat	-11.8833
▁abundant	-11.8834
oil	-11.8835
▁Nigerian	-11.8837
▁Add	-11.8839
uni	-11.8844
▁cru	-11.8845
▁gel	-11.8848
▁Too	-11.8848
▁admir	-11.8863
▁Shir	-11.8876
SE	-11.8878
▁lucki	-11.8891
conflict	-11.8905
massive	-11.8905
course	-11.8906
group	-11.8908
DP	-11.8915
brush	-11.8918
rank	-11.8927
▁intentional	-11.8928
▁Pass	-11.8931
count	-11.8949
▁bacteri	-11.8952
▁Miss	-11.8954
ister	-11.8962
omen	-11.8965
▁Had	-11.8974
▁warp	-11.8987
▁accumulat	-11.8988
▁decid	-11.8994
▁perceiv	-11.9006
▁earning	-11.9007
rah	-11.9012
pack	-11.9017
▁freeze	-11.9039
elling	-11.9039
itz	-11.9043
▁Tro	-11.9052
beat	-11.9053
▁consen	-11.9062
▁flap	-11.9065
▁advanc	-11.9076
▁patien	-11.9091
▁appl	-11.9096
▁wander	-11.9124
upp	-11.9128
▁Mag	-11.9132
▁detected	-11.9135
▁brows	-11.9141
▁trauma	-11.9142
iro	-11.9148
▁psychiatr	-11.9149
▁Dol	-11.9149
▁consult	-11.9149
▁possess	-11.915
▁sculpt	-11.9153
CAPTCHA	-11.9154
▁Civil	-11.9154
▁Government	-11.9154
▁Machine	-11.9154
▁Scientist	-11.9154
▁Sputnik	-11.9154
▁athletic	-11.9154
▁beekeeper	-11.9154
▁catastrophic	-11.9154
▁configuration	-11.9154
▁existential	-11.9154
▁horrifi	-11.9154
▁horror	-11.9154
▁intimacy	-11.9154
▁irrelevan	-11.9154
▁mammograph	-11.9154
▁migrant	-11.9154
▁neglect	-11.9154
▁prosecut	-11.9154
▁underestimate	-11.9154
azeera	-11.9154
▁Palestine	-11.9154
▁glorious	-11.9154
▁lawsuit	-11.9154
▁optimal	-11.9154
▁Archi	-11.9154
▁Glass	-11.9154
▁Siberia	-11.9154
▁alphabet	-11.9154
▁lobby	-11.9154
▁composition	-11.9154
▁Christoph	-11.9154
▁Clear	-11.9154
▁polite	-11.9154
▁shredd	-11.9154
▁spear	-11.9154
▁extensive	-11.9154
▁Plato	-11.9154
▁negotiat	-11.9154
▁decode	-11.9154
▁Type	-11.9154
▁Help	-11.9154
▁calculating	-11.9154
▁Colombia	-11.9154
▁cooperative	-11.9154
▁rode	-11.9154
▁timing	-11.9154
▁legitimate	-11.9155
▁1.5	-11.9155
▁nurture	-11.9155
▁2.0	-11.9155
▁monk	-11.9156
▁grape	-11.9156
▁Oliv	-11.9156
▁couch	-11.9158
▁Democratic	-11.9159
▁Kong	-11.9159
▁DJ	-11.9159
▁193	-11.916
▁germ	-11.9162
gger	-11.9165
▁indicator	-11.9165
▁Beau	-11.9167
▁mustard	-11.9171
linger	-11.9173
▁rotate	-11.9174
pago	-11.9176
▁SO	-11.9179
flo	-11.9188
▁ambition	-11.9196
▁banker	-11.9204
blew	-11.9204
▁taxi	-11.9209
▁Kim	-11.921
▁gramma	-11.921
▁captur	-11.9212
▁Rive	-11.9213
▁bitter	-11.9215
▁skip	-11.9216
ira	-11.922
under	-11.9225
grade	-11.9225
lvani	-11.923
▁digg	-11.9232
▁continuously	-11.9232
▁forge	-11.9234
▁Brit	-11.9239
oul	-11.924
CA	-11.9253
▁Val	-11.9253
▁arous	-11.9254
▁Ze	-11.926
▁taxe	-11.9263
▁dishe	-11.9265
▁reminder	-11.9267
▁Sant	-11.9271
var	-11.9272
ature	-11.9275
nova	-11.9277
▁hacker	-11.9283
▁Kenyan	-11.9286
▁Mama	-11.9299
▁revolutionar	-11.9307
▁Penn	-11.9317
▁Luc	-11.9321
polar	-11.9331
story	-11.9332
broad	-11.9339
positive	-11.934
school	-11.9341
▁pest	-11.9341
million	-11.9341
▁deny	-11.9341
finite	-11.9342
▁thoughtful	-11.9344
ius	-11.9349
▁Way	-11.9353
▁sur	-11.9373
marin	-11.9376
cker	-11.9379
▁medi	-11.9389
PR	-11.9392
80	-11.9393
speed	-11.9396
hold	-11.9412
▁regional	-11.9415
▁pregnanc	-11.9425
iful	-11.9446
▁performer	-11.9469
▁140	-11.9476
tlantic	-11.9478
DD	-11.9495
▁microscop	-11.9501
bone	-11.9505
touch	-11.951
pound	-11.9511
▁Step	-11.9512
uga	-11.9533
divid	-11.9538
solv	-11.9539
▁resilien	-11.9544
▁precis	-11.9547
animate	-11.9551
▁endur	-11.9556
▁advoca	-11.956
roll	-11.9563
▁BR	-11.9563
▁arrange	-11.9568
rizon	-11.957
▁cockroach	-11.957
▁1.3	-11.957
▁Nanopatch	-11.957
▁Rachel	-11.957
▁Telescope	-11.957
▁accompani	-11.957
▁cardiac	-11.957
▁collision	-11.957
▁declare	-11.957
▁electromagnet	-11.957
▁execute	-11.957
▁extremist	-11.957
▁holiday	-11.957
▁imperative	-11.957
▁maneuver	-11.957
▁parliament	-11.957
▁peanut	-11.957
▁powder	-11.957
▁principal	-11.957
▁retrofit	-11.957
▁thorough	-11.957
▁transistor	-11.957
▁stumbl	-11.957
▁alumin	-11.957
▁postcard	-11.957
▁cream	-11.957
▁tutor	-11.957
▁Fund	-11.957
▁Interesting	-11.957
▁cerebr	-11.957
▁cheer	-11.9571
▁numer	-11.9571
▁Fried	-11.9571
▁prophet	-11.9571
▁carpet	-11.9571
▁dispute	-11.9571
▁supercomputer	-11.9571
▁entrance	-11.9571
▁headache	-11.9571
▁rigid	-11.9571
▁subsidi	-11.9571
▁dissolv	-11.9571
▁notebook	-11.9571
▁Kelly	-11.9571
▁debri	-11.9571
skirt	-11.9572
▁Wiki	-11.9572
▁hostile	-11.9572
▁outrage	-11.9572
xter	-11.9572
▁billboard	-11.9572
▁propell	-11.9572
▁Khan	-11.9572
▁prospect	-11.9572
▁instinctive	-11.9573
▁illustration	-11.9573
▁Low	-11.9573
▁spacecraft	-11.9573
▁punishment	-11.9574
▁novelty	-11.9574
▁64	-11.9574
▁43	-11.9576
▁pillar	-11.9576
▁memorize	-11.9576
▁psychiatrist	-11.9576
▁employment	-11.9576
stein	-11.9576
▁Evan	-11.9577
▁Rick	-11.9577
▁PH	-11.9578
▁Color	-11.9579
▁biotechnolog	-11.958
▁resonan	-11.958
▁Robin	-11.9581
▁problematic	-11.9581
▁preach	-11.9582
▁Case	-11.9583
▁minor	-11.9585
▁flute	-11.9585
rose	-11.9586
▁Spi	-11.9587
▁trailer	-11.9589
▁41	-11.9589
▁crow	-11.959
▁outbreak	-11.9591
▁Senat	-11.9613
▁hive	-11.9616
synthesize	-11.9623
saw	-11.9636
band	-11.9643
▁annoying	-11.9646
▁screaming	-11.9654
pop	-11.9657
▁arena	-11.9657
bati	-11.9658
onsider	-11.9663
▁Louis	-11.9669
600	-11.967
▁Mari	-11.967
▁consent	-11.9671
▁formation	-11.9674
▁shelve	-11.9686
▁Hand	-11.9687
eval	-11.9691
▁visitor	-11.9691
limate	-11.9697
▁loser	-11.9697
orta	-11.9702
alti	-11.9707
▁env	-11.9711
▁Rem	-11.9713
▁Australian	-11.9714
adore	-11.9735
▁heroic	-11.9747
▁Kam	-11.9754
▁unpredictabl	-11.9758
▁swo	-11.976
▁Arabia	-11.9761
wall	-11.9762
▁union	-11.9762
▁receiver	-11.977
pend	-11.9779
develop	-11.9795
▁Berli	-11.9798
master	-11.98
▁sometime	-11.9801
▁gentle	-11.9804
bling	-11.9812
viv	-11.9818
▁Lib	-11.9824
▁zoo	-11.9831
▁Gall	-11.9837
▁hug	-11.9837
Man	-11.9842
▁Chad	-11.9843
▁digitize	-11.9875
▁heel	-11.9878
▁enabl	-11.9883
ID	-11.9884
▁resonate	-11.9895
▁laborator	-11.9899
▁embarrass	-11.9913
▁evaluate	-11.9917
lcome	-11.9926
bla	-11.993
together	-11.995
mination	-11.9953
▁disrupti	-11.9962
▁periodic	-11.9964
▁Mul	-11.9964
▁Tal	-11.9967
▁Lev	-11.9967
▁Ste	-11.9976
▁Maha	-11.9983
ugg	-11.9992
▁numb	-11.9992
sustainabl	-11.9997
▁Journal	-12.0003
▁sulf	-12.0004
ique	-12.0004
▁incarcerat	-12.0005
▁Lakota	-12.0005
▁Michigan	-12.0005
▁System	-12.0005
▁anniversar	-12.0005
▁clitoris	-12.0005
▁convincing	-12.0005
▁flexibilit	-12.0005
▁injustice	-12.0005
▁laundr	-12.0005
▁orangutan	-12.0005
▁peculiar	-12.0005
▁propagand	-12.0005
▁unleash	-12.0005
ectar	-12.0005
▁Bhutan	-12.0005
▁Modern	-12.0005
▁guest	-12.0005
▁praise	-12.0005
▁modifi	-12.0005
▁nuance	-12.0005
▁surgical	-12.0005
▁algae	-12.0005
▁facult	-12.0005
▁veloci	-12.0005
▁hollow	-12.0005
▁nasty	-12.0005
▁shuttle	-12.0005
▁cattle	-12.0005
▁Tesla	-12.0005
▁Austria	-12.0005
▁Defen	-12.0005
▁1,500	-12.0006
▁asthma	-12.0006
▁devise	-12.0006
▁banjo	-12.0006
▁checklist	-12.0006
▁millennia	-12.0006
▁pension	-12.0006
▁coincidence	-12.0006
▁cabinet	-12.0006
▁squid	-12.0006
▁scholarship	-12.0006
▁suitcase	-12.0006
▁flesh	-12.0006
▁shallow	-12.0006
▁emphasize	-12.0006
▁foster	-12.0006
▁pathogen	-12.0006
▁fame	-12.0006
▁headquarter	-12.0006
▁generator	-12.0007
▁volcano	-12.0007
▁Recent	-12.0007
▁Jackson	-12.0007
▁calci	-12.0008
▁separation	-12.0008
▁temptation	-12.0008
▁reproduction	-12.0008
▁migration	-12.0009
▁97	-12.0009
▁hump	-12.001
▁Master	-12.001
▁Trad	-12.0011
▁Gala	-12.0011
▁98	-12.0011
alactic	-12.0011
▁Jess	-12.0013
▁exit	-12.0013
▁Sound	-12.0013
▁piss	-12.0014
▁empowerment	-12.0015
▁playground	-12.0016
▁riot	-12.0017
▁compil	-12.0018
▁greet	-12.0018
▁sadness	-12.0018
▁Death	-12.0021
▁troll	-12.0021
sanitary	-12.0022
▁humble	-12.0022
▁scarc	-12.0025
▁Sex	-12.0026
▁worldview	-12.0026
▁Desp	-12.0027
▁ambiguit	-12.003
▁Book	-12.0032
▁memorial	-12.0032
▁CN	-12.0034
gill	-12.0035
▁coma	-12.0035
▁tuna	-12.0036
▁assistant	-12.0038
▁operator	-12.004
▁Heart	-12.0044
▁armor	-12.0048
posed	-12.0049
▁logg	-12.0054
▁Sara	-12.0054
▁Dave	-12.0062
otto	-12.0065
▁Rand	-12.0068
almon	-12.0079
▁prayer	-12.0081
▁wilder	-12.0091
▁sixth	-12.0092
▁rendering	-12.0109
frie	-12.0115
nick	-12.0116
gur	-12.0117
nmark	-12.0127
▁indicat	-12.0133
lanes	-12.0136
ori	-12.0145
▁Ash	-12.0167
mate	-12.017
uter	-12.0171
▁indirect	-12.0172
▁atomic	-12.0175
ripped	-12.0177
witz	-12.0182
▁Stay	-12.0191
▁Fair	-12.0223
▁Dam	-12.0233
▁woo	-12.0234
mediate	-12.0237
vian	-12.0241
▁53	-12.026
nutrition	-12.0265
proof	-12.0267
credit	-12.0268
great	-12.0272
resistan	-12.0273
structure	-12.0278
▁mic	-12.0278
cycle	-12.0283
carbon	-12.0284
▁symbolic	-12.0284
▁poke	-12.0287
natural	-12.029
▁dispers	-12.0294
▁eradicate	-12.0306
▁MR	-12.0309
tress	-12.0321
plat	-12.0322
human	-12.0326
idi	-12.0332
▁stat	-12.0346
▁miser	-12.035
tification	-12.036
▁Stu	-12.0367
▁scream	-12.0369
AC	-12.0371
osphere	-12.0389
▁gyr	-12.0393
300	-12.0395
▁bounce	-12.0395
▁loo	-12.0398
▁rehabilitat	-12.0401
▁analytic	-12.0409
ibo	-12.042
apes	-12.0435
omic	-12.0438
uous	-12.0442
generation	-12.0444
▁Radio	-12.045
▁dye	-12.0452
▁Jenni	-12.0454
▁inflat	-12.0456
▁kindergart	-12.046
▁symmetr	-12.046
constitute	-12.046
violet	-12.046
▁Doctor	-12.046
▁FOX	-12.046
▁Himalaya	-12.046
▁Picture	-12.046
▁PowerPoint	-12.046
▁avatar	-12.046
▁charcoal	-12.046
▁corridor	-12.046
▁diameter	-12.046
▁elaborate	-12.046
▁genital	-12.046
▁mobiliz	-12.046
▁soccer	-12.046
▁superior	-12.046
▁testosterone	-12.046
▁vagina	-12.046
▁vegetarian	-12.046
▁worship	-12.046
▁hobby	-12.046
▁steep	-12.046
▁hammer	-12.046
▁intricate	-12.046
▁violate	-12.046
▁Sudan	-12.046
▁slogan	-12.046
▁scroll	-12.046
▁Nepal	-12.046
▁faint	-12.046
▁Jefferson	-12.046
▁energetic	-12.046
▁barrel	-12.046
▁macro	-12.046
▁biomaterial	-12.046
▁Speak	-12.046
▁prevalen	-12.046
▁Text	-12.046
balone	-12.046
▁multiverse	-12.0461
▁acute	-12.0461
▁deception	-12.0461
▁portray	-12.0461
▁chole	-12.0461
▁Jeff	-12.0461
▁Margar	-12.0461
▁Self	-12.0461
▁Report	-12.0462
▁Motor	-12.0462
▁Robot	-12.0462
▁flock	-12.0462
▁mixture	-12.0462
▁Trans	-12.0462
▁cease	-12.0462
▁marketplace	-12.0463
▁Kiri	-12.0463
▁Truth	-12.0463
▁rebel	-12.0463
▁tilt	-12.0463
▁McK	-12.0463
▁Cuba	-12.0463
▁8,000	-12.0464
▁Romo	-12.0464
▁shade	-12.0464
▁Fox	-12.0464
▁Justice	-12.0465
▁merc	-12.0465
▁possession	-12.0465
▁52	-12.0465
▁74	-12.0465
▁93	-12.0465
▁conviction	-12.0466
▁Meli	-12.0466
▁unlock	-12.0467
▁Oak	-12.0468
▁injection	-12.0468
▁comprehensive	-12.0469
ggle	-12.0472
▁globaliz	-12.0472
plex	-12.0473
▁medal	-12.0473
▁Grace	-12.0475
▁presum	-12.0476
▁confusion	-12.0477
▁penn	-12.0478
offend	-12.0478
▁lyric	-12.0479
▁Tru	-12.048
otherap	-12.0483
▁Luck	-12.0485
▁Teacher	-12.0487
▁mytholog	-12.0489
▁mum	-12.0496
▁cultivate	-12.0496
▁governor	-12.0506
▁bay	-12.0507
▁upward	-12.0516
▁basement	-12.0519
meditat	-12.0521
ingenu	-12.0522
illenni	-12.0528
▁noble	-12.053
liberation	-12.0538
▁strengthen	-12.0544
▁eighth	-12.0545
▁Merc	-12.0546
▁methodolog	-12.0551
▁187	-12.0553
▁commander	-12.0555
▁prostitut	-12.0558
▁prioritize	-12.0564
▁Bali	-12.0565
▁behold	-12.0571
▁tightly	-12.0573
▁cycl	-12.0578
▁Die	-12.0581
▁Find	-12.0586
▁Tel	-12.059
▁Canc	-12.0591
▁mill	-12.0593
bule	-12.0614
19	-12.0617
▁Happ	-12.0618
rtie	-12.0623
▁Clay	-12.0629
hol	-12.063
▁Nan	-12.0645
▁pore	-12.0662
▁acknowledg	-12.0662
▁auto	-12.0671
▁provoke	-12.0674
TB	-12.0675
▁ignor	-12.0688
AL	-12.0693
▁fighter	-12.0694
▁planner	-12.0697
escent	-12.0698
lude	-12.0707
▁Alan	-12.0739
winn	-12.0767
correct	-12.077
complete	-12.0772
cultural	-12.0773
▁statistic	-12.0774
etal	-12.0781
color	-12.0786
▁Coc	-12.0787
flow	-12.0788
SD	-12.0788
▁190	-12.0791
wash	-12.08
▁Kur	-12.0806
▁Terr	-12.0809
cca	-12.0816
▁matche	-12.0838
ngue	-12.084
tune	-12.0871
Vo	-12.0872
list	-12.088
▁squeeze	-12.0883
CT	-12.0886
sourc	-12.0888
umor	-12.0893
▁Cart	-12.0907
▁enthusias	-12.0909
ambigu	-12.0909
peech	-12.0912
18	-12.0915
▁synthesi	-12.0919
▁pollut	-12.0927
▁counsel	-12.093
▁influen	-12.0931
ibera	-12.0933
▁suburb	-12.0933
▁repli	-12.0933
ssential	-12.0936
▁stereo	-12.0936
▁peripher	-12.0936
ranscript	-12.0936
▁Craig	-12.0936
▁Empire	-12.0936
▁Mitchell	-12.0936
▁Mumbai	-12.0936
▁Nairobi	-12.0936
▁Sleep	-12.0936
▁Taylor	-12.0936
▁Virtual	-12.0936
▁Yellow	-12.0936
▁chaotic	-12.0936
▁cinema	-12.0936
▁communal	-12.0936
▁devote	-12.0936
▁diarrhea	-12.0936
▁ghost	-12.0936
▁graffiti	-12.0936
▁guitar	-12.0936
▁hypothetical	-12.0936
▁juvenile	-12.0936
▁phthalate	-12.0936
▁protocol	-12.0936
▁resurrect	-12.0936
▁rhetoric	-12.0936
▁timber	-12.0936
▁Alaska	-12.0936
▁Suppose	-12.0936
▁cocktail	-12.0936
▁humiliat	-12.0936
▁incremental	-12.0936
▁anecdote	-12.0936
▁steak	-12.0936
▁Film	-12.0936
▁drain	-12.0936
▁straw	-12.0936
▁warehouse	-12.0936
▁indigen	-12.0936
▁stagger	-12.0936
▁taboo	-12.0936
▁feather	-12.0936
▁Garden	-12.0936
▁Cultur	-12.0936
▁Ryan	-12.0936
▁correlate	-12.0936
▁pursu	-12.0936
▁salad	-12.0936
▁urgent	-12.0937
▁offshor	-12.0937
▁internet	-12.0937
▁preced	-12.0937
▁Grant	-12.0937
▁regulator	-12.0937
▁retreat	-12.0937
▁blanket	-12.0938
▁cellphone	-12.0938
▁vaccinate	-12.0939
▁duty	-12.0939
Bird	-12.0939
▁ballot	-12.0939
▁lime	-12.094
viation	-12.0941
▁fleet	-12.0942
▁Brazilian	-12.0942
▁accomplishment	-12.0943
▁Down	-12.0943
▁digest	-12.0944
▁cement	-12.0945
▁Jenn	-12.0946
▁articulate	-12.0947
acci	-12.0949
▁wallet	-12.0951
▁fertil	-12.0951
▁wow	-12.0954
▁Station	-12.0954
▁Lyn	-12.0955
▁rust	-12.0956
▁Monte	-12.0959
▁SR	-12.0962
▁eternal	-12.0962
▁cubic	-12.0967
▁sprint	-12.0971
▁industrialize	-12.0971
▁arc	-12.0972
▁Fall	-12.0972
▁progression	-12.0977
▁Jon	-12.0977
oline	-12.0978
▁fisherm	-12.0978
▁province	-12.0982
▁conception	-12.0988
▁duration	-12.0989
zu	-12.0996
▁experimentation	-12.0996
▁composer	-12.1
▁transferr	-12.1005
▁Gw	-12.1007
▁publication	-12.1011
utu	-12.1012
▁pla	-12.1015
▁Hav	-12.1016
tract	-12.1017
laughter	-12.1017
lumber	-12.1025
▁epic	-12.1035
▁Speci	-12.1037
uke	-12.105
▁incorporate	-12.105
▁Aur	-12.1052
▁stimulat	-12.1052
▁collector	-12.1053
▁Skyp	-12.1077
spot	-12.1091
▁Kal	-12.1097
▁Gene	-12.1135
▁persuade	-12.1141
▁Eat	-12.1146
iller	-12.1159
wrestl	-12.1164
▁Fast	-12.1165
▁legislati	-12.118
▁Aar	-12.1189
▁neo	-12.1193
ribbe	-12.1201
▁unst	-12.1201
▁erect	-12.1213
▁resemble	-12.1214
lb	-12.1216
▁Sub	-12.1217
graphic	-12.1221
▁Main	-12.1252
nonymous	-12.1264
quat	-12.1269
tunate	-12.1278
opoly	-12.128
▁debu	-12.128
▁doodl	-12.1286
▁spi	-12.1288
screen	-12.1291
▁Mill	-12.1293
organic	-12.1296
tention	-12.1299
organism	-12.1316
▁Live	-12.1318
author	-12.1318
▁Maria	-12.1328
▁obscure	-12.1328
▁180	-12.1341
▁polariz	-12.1345
▁annoy	-12.1347
uba	-12.1353
▁comp	-12.1366
▁explod	-12.1373
fford	-12.1375
▁Send	-12.1378
link	-12.1396
nergy	-12.142
▁Aye	-12.1432
▁nurtur	-12.1435
etween	-12.1435
▁emphasi	-12.1435
▁mutilat	-12.1436
▁interrogat	-12.1436
prejudice	-12.1436
▁Hundred	-12.1436
▁Lawrence	-12.1436
▁Ukrain	-12.1436
▁competitor	-12.1436
▁conspirac	-12.1436
▁diffusion	-12.1436
▁draft	-12.1436
▁frugal	-12.1436
▁identification	-12.1436
▁imperfect	-12.1436
▁millisecond	-12.1436
▁paragraph	-12.1436
▁prescription	-12.1436
▁reservation	-12.1436
▁spatial	-12.1436
▁unimaginabl	-12.1436
▁Service	-12.1436
▁adjacen	-12.1436
▁brainstorm	-12.1436
▁immerse	-12.1436
▁prince	-12.1436
▁virtuo	-12.1436
▁discard	-12.1436
▁echo	-12.1436
▁minimize	-12.1436
▁idiot	-12.1436
esteem	-12.1436
▁converg	-12.1436
▁lemon	-12.1436
▁acquir	-12.1436
arithm	-12.1436
▁grim	-12.1436
▁polymer	-12.1436
▁trunk	-12.1436
▁Forget	-12.1436
▁provocative	-12.1436
▁chef	-12.1436
▁biosphere	-12.1436
▁motorcycle	-12.1436
▁spoil	-12.1436
▁Secretary	-12.1436
▁distill	-12.1436
▁benign	-12.1437
▁insult	-12.1437
▁brake	-12.1437
▁Full	-12.1437
▁Victorian	-12.1437
▁superstar	-12.1437
▁crab	-12.1437
▁criticism	-12.1438
consistenc	-12.1438
▁textile	-12.1439
▁Game	-12.1439
▁seawater	-12.1439
▁1800	-12.1439
▁Stir	-12.1439
▁olive	-12.144
▁evaluation	-12.144
▁58	-12.1441
▁exile	-12.1441
▁manipulation	-12.1442
▁celebration	-12.1442
▁gambl	-12.1442
▁utilit	-12.1442
▁assess	-12.1442
▁pollutant	-12.1443
▁distraction	-12.1444
▁attachment	-12.1446
▁Roman	-12.1448
▁dwell	-12.145
▁Fish	-12.1451
▁CL	-12.1453
boyfriend	-12.146
▁tagg	-12.146
▁upgrade	-12.1464
▁Shake	-12.1464
▁reconcile	-12.1466
▁Coch	-12.1466
▁toaster	-12.1466
▁technologist	-12.1468
▁Cape	-12.147
▁consideration	-12.1476
▁semina	-12.1477
▁reuse	-12.1478
▁Abu	-12.1481
▁blogger	-12.1489
volt	-12.1494
type	-12.1495
▁consol	-12.1496
▁outward	-12.1502
▁Rich	-12.1502
atus	-12.1503
▁47	-12.1508
▁outlet	-12.1519
▁Prim	-12.1522
▁Designer	-12.1528
▁Eri	-12.1534
▁nuclei	-12.1539
▁capitalist	-12.1539
ronto	-12.155
▁Iraqi	-12.1554
▁speculat	-12.1569
▁Harri	-12.1582
▁Clo	-12.1592
▁Linu	-12.1597
▁Diet	-12.1611
▁backup	-12.1619
▁reliev	-12.1632
▁Though	-12.1634
▁revolutionize	-12.164
▁Peru	-12.1645
▁manufacture	-12.1647
▁reasonabl	-12.165
▁estimat	-12.1657
finishe	-12.167
▁listener	-12.1676
▁Polic	-12.1678
▁balanc	-12.1679
▁geographical	-12.1707
regulat	-12.1716
▁wrestle	-12.1716
aki	-12.1716
haired	-12.1718
▁Best	-12.1726
▁emitt	-12.1729
omi	-12.1735
▁cosmo	-12.1741
▁sensibl	-12.1743
▁Eli	-12.1747
engineer	-12.1763
axis	-12.1786
▁Euro	-12.1787
▁MP	-12.1788
ija	-12.1803
enture	-12.1807
▁starch	-12.1824
position	-12.184
front	-12.1845
claim	-12.1849
fashion	-12.1852
communication	-12.1852
securit	-12.1852
sexual	-12.1853
piece	-12.1853
government	-12.1854
▁remark	-12.1856
national	-12.1859
cast	-12.1878
▁commute	-12.1881
▁Use	-12.1886
▁astronom	-12.189
rigg	-12.1897
▁UN	-12.1898
▁Eco	-12.1901
▁Uni	-12.1901
▁riches	-12.1908
▁calcul	-12.1915
▁reconcili	-12.1917
▁collaps	-12.193
▁defi	-12.1943
▁intellect	-12.1949
▁humbl	-12.1952
cratch	-12.1953
▁journalis	-12.1954
sonic	-12.1954
▁refrigerat	-12.1955
disciplinar	-12.1957
▁prosper	-12.1959
scribe	-12.196
▁manifest	-12.196
▁narrat	-12.1961
clusion	-12.1962
RNA	-12.1962
ltimate	-12.1962
í	-12.1962
▁Guinea	-12.1962
▁Hindu	-12.1962
▁Jamaica	-12.1962
▁Language	-12.1962
▁UCL	-12.1962
▁absurd	-12.1962
▁acquisition	-12.1962
▁catastrophe	-12.1962
▁certificate	-12.1962
▁cochlea	-12.1962
▁convenience	-12.1962
▁deplet	-12.1962
▁fuzz	-12.1962
▁institute	-12.1962
▁jacket	-12.1962
▁mortgage	-12.1962
▁occupie	-12.1962
▁pivot	-12.1962
▁pixel	-12.1962
▁rigorous	-12.1962
▁serotonin	-12.1962
▁skyscraper	-12.1962
▁steward	-12.1962
▁tribute	-12.1962
▁triumph	-12.1962
▁turtle	-12.1962
▁vibran	-12.1962
▁voluntar	-12.1962
▁Photograph	-12.1962
▁perfume	-12.1962
▁Command	-12.1962
▁Stefan	-12.1962
▁scoop	-12.1962
▁spiral	-12.1962
▁statue	-12.1962
▁Liberia	-12.1962
▁Movement	-12.1962
▁psyche	-12.1962
▁tinker	-12.1962
▁spouse	-12.1962
▁gluco	-12.1962
▁Gaza	-12.1962
▁matern	-12.1962
▁immersi	-12.1962
fensive	-12.1962
▁pneumo	-12.1962
▁escalat	-12.1963
▁slate	-12.1963
▁bulk	-12.1963
▁radar	-12.1963
▁interfere	-12.1963
▁orientation	-12.1963
▁microRNA	-12.1963
▁violation	-12.1963
▁curator	-12.1963
▁verge	-12.1963
▁Portug	-12.1963
▁corti	-12.1963
▁council	-12.1964
▁nonverbal	-12.1964
▁hurdle	-12.1964
▁deceive	-12.1964
▁confer	-12.1965
▁flick	-12.1965
▁missile	-12.1965
▁sociologist	-12.1965
▁Bring	-12.1965
regon	-12.1965
▁McCa	-12.1965
▁vanish	-12.1965
▁urbanization	-12.1966
▁Guard	-12.1966
▁Trust	-12.1966
▁knot	-12.1966
▁54	-12.1967
▁Million	-12.1967
▁microbi	-12.1967
▁Deep	-12.1967
▁rott	-12.1967
▁Libra	-12.1968
▁innate	-12.1968
▁crater	-12.1968
▁chok	-12.1968
▁Saul	-12.1968
▁consultant	-12.1968
▁halve	-12.1969
▁Est	-12.197
▁compris	-12.1971
▁mash	-12.1971
▁strat	-12.1971
▁infra	-12.1972
▁vow	-12.1973
▁Dick	-12.1973
achi	-12.1973
▁Mello	-12.1974
▁Meet	-12.1974
▁Qui	-12.1974
▁ideological	-12.1975
cumen	-12.1975
ental	-12.1975
airo	-12.1976
▁beast	-12.1976
▁60,000	-12.1977
▁abstraction	-12.1978
▁125	-12.198
psychotic	-12.1981
▁laz	-12.1981
▁Walker	-12.1983
▁margins	-12.1984
▁shave	-12.1984
▁Fib	-12.1988
entrepreneurship	-12.199
▁Award	-12.199
▁Harr	-12.1991
▁Aust	-12.2008
▁Nine	-12.2012
OS	-12.2013
▁migrat	-12.2022
201	-12.2022
ushi	-12.2028
▁Mira	-12.2028
▁mock	-12.2029
▁rehabilitati	-12.2031
▁paradi	-12.2032
CO	-12.2039
▁damag	-12.2048
▁Whoa	-12.2048
▁Save	-12.2051
dental	-12.2054
▁optimize	-12.2062
▁Top	-12.2067
▁racis	-12.2073
▁employer	-12.2079
IP	-12.2082
▁mistaken	-12.2092
▁vein	-12.2093
▁follower	-12.2097
igital	-12.2099
▁tender	-12.2112
▁startling	-12.2112
ansa	-12.2116
▁Europ	-12.2118
▁CC	-12.2119
▁Hal	-12.2124
▁Commun	-12.2124
▁mysteri	-12.2128
▁Force	-12.2131
▁folk	-12.214
▁sketche	-12.2154
▁77	-12.2161
▁slap	-12.2172
49	-12.2221
▁secondar	-12.2239
apping	-12.2246
hell	-12.2254
▁Post	-12.2266
▁recreate	-12.2268
SM	-12.2273
▁commentar	-12.2276
▁auditor	-12.2291
▁pul	-12.2317
new	-12.2321
angu	-12.2331
ception	-12.2332
▁developmental	-12.2336
mmunity	-12.2349
▁plac	-12.2388
▁Code	-12.2396
▁Bio	-12.2404
▁160	-12.2409
▁depriv	-12.2422
icious	-12.2436
confidence	-12.2439
walk	-12.2441
opening	-12.2441
health	-12.2442
industrial	-12.2443
green	-12.2444
zero	-12.2444
high	-12.2445
home	-12.2446
▁ador	-12.2448
turn	-12.2452
▁fertiliz	-12.2458
risk	-12.2462
▁spor	-12.2465
▁dim	-12.2493
lateral	-12.2495
▁reflectiv	-12.2501
▁navigat	-12.2504
reasure	-12.2507
94	-12.2512
▁communi	-12.2515
▁Choi	-12.2515
anthrop	-12.2517
junction	-12.2518
▁Studio	-12.2518
▁Venezuela	-12.2518
▁attorney	-12.2518
▁carcinogen	-12.2518
▁cumulative	-12.2518
▁curtain	-12.2518
▁glory	-12.2518
▁grassroots	-12.2518
▁inclusive	-12.2518
▁obligation	-12.2518
▁peacekeep	-12.2518
▁reciproc	-12.2518
▁rediscover	-12.2518
▁scatter	-12.2518
▁scrambl	-12.2518
▁semester	-12.2518
▁synapse	-12.2518
▁technician	-12.2518
▁transaction	-12.2518
▁unequal	-12.2518
▁unnecessar	-12.2518
▁Democracy	-12.2518
▁affair	-12.2518
▁dictate	-12.2518
▁fingertip	-12.2518
▁fluorescen	-12.2518
▁gravitational	-12.2518
▁initiate	-12.2518
▁mutant	-12.2518
▁reckless	-12.2518
ijuana	-12.2518
▁Field	-12.2518
▁Odysse	-12.2518
▁Serious	-12.2518
▁audaci	-12.2518
▁meadow	-12.2518
▁widow	-12.2518
▁essay	-12.2518
▁vegetati	-12.2518
▁resort	-12.2518
▁feasib	-12.2518
▁Nichol	-12.2518
▁boreal	-12.2518
▁Jacob	-12.2518
▁forecast	-12.2518
▁pollinate	-12.2518
▁railway	-12.2518
▁illitera	-12.2518
▁biograph	-12.2518
▁Gehr	-12.2518
▁bruise	-12.2518
partisan	-12.2518
▁alliance	-12.2518
▁larva	-12.2518
▁condense	-12.2518
▁rival	-12.2518
▁Economist	-12.2518
▁thunder	-12.2518
▁battlefield	-12.2518
moud	-12.2519
▁hunch	-12.2519
▁comedian	-12.2519
▁quiz	-12.2519
▁MoMA	-12.2519
▁Canyon	-12.2519
▁irrita	-12.2519
▁scaling	-12.2519
▁Economic	-12.2519
▁euro	-12.2519
▁Potter	-12.2519
▁biotech	-12.2519
▁persistent	-12.252
▁versa	-12.252
▁owl	-12.252
▁landfill	-12.252
▁MBA	-12.252
▁communist	-12.252
▁manifestation	-12.252
▁admitted	-12.252
▁Grow	-12.2521
▁passport	-12.2521
▁roommate	-12.2521
▁porn	-12.2521
▁persever	-12.2521
▁restoration	-12.2521
▁distinctive	-12.2521
▁57	-12.2521
▁hallway	-12.2521
▁divine	-12.2521
▁Connecti	-12.2522
▁Lock	-12.2523
▁plugg	-12.2523
▁82	-12.2523
▁Norman	-12.2524
▁Protect	-12.2524
▁alternat	-12.2525
▁expressive	-12.2527
▁transformati	-12.2528
▁coca	-12.2528
▁TEDW	-12.2528
▁raft	-12.253
hran	-12.253
▁appar	-12.253
hhh	-12.2532
▁Islamist	-12.2532
▁anomal	-12.2533
▁500,000	-12.2534
▁airline	-12.2535
▁planetary	-12.2539
▁attraction	-12.2539
▁freeway	-12.254
Barack	-12.254
▁coil	-12.254
▁Cross	-12.2542
▁Creat	-12.2543
▁Often	-12.2543
▁Artist	-12.2543
corp	-12.2544
▁Mel	-12.2544
enthusiastic	-12.2549
▁demoli	-12.255
▁flush	-12.255
▁Whit	-12.2555
▁rela	-12.2561
▁Kle	-12.2568
▁evaporate	-12.2569
utilize	-12.258
▁Pakistani	-12.2583
▁connectiv	-12.2591
▁Bil	-12.2593
▁Biospher	-12.2605
▁Agen	-12.2608
▁Zu	-12.2609
scape	-12.2625
▁evaluat	-12.2628
▁carb	-12.2629
▁Call	-12.263
AG	-12.2634
▁Mob	-12.2643
vasive	-12.2644
▁ignoran	-12.2656
▁thro	-12.2663
▁Bah	-12.2666
▁observer	-12.2668
built	-12.2673
▁mindful	-12.2694
▁Fro	-12.2705
▁corporation	-12.2725
▁temper	-12.2731
▁Camp	-12.274
most	-12.2749
▁Frankl	-12.2753
unny	-12.2759
▁Juan	-12.2765
▁Nativ	-12.2768
▁Alic	-12.2775
udge	-12.2794
▁78	-12.2795
▁painter	-12.2798
▁slipp	-12.2811
▁Pier	-12.2815
name	-12.2816
rise	-12.2822
▁geographic	-12.2837
flu	-12.2843
▁causal	-12.2851
hili	-12.2858
onference	-12.2874
▁collaborat	-12.2885
hrir	-12.2886
▁Missi	-12.2907
▁improvis	-12.2928
▁pickle	-12.2931
RC	-12.295
▁App	-12.2956
▁undergo	-12.297
▁Job	-12.2973
wak	-12.2975
lead	-12.2987
▁lik	-12.2998
▁bureaucra	-12.3007
▁devastat	-12.3012
▁behav	-12.3021
▁Lim	-12.3022
▁relativ	-12.3035
▁snap	-12.3048
▁teache	-12.3049
huma	-12.3056
olk	-12.3058
▁Nic	-12.3059
worm	-12.3062
sensitive	-12.3062
appropriate	-12.3064
original	-12.3066
check	-12.3066
strong	-12.3067
watch	-12.3071
▁academ	-12.3072
▁electro	-12.3077
loop	-12.3079
margin	-12.3082
large	-12.3089
▁pun	-12.309
▁surge	-12.3091
▁standardize	-12.3095
▁physiolog	-12.3096
▁anthropolog	-12.3101
▁Babylon	-12.3105
▁Victor	-12.3105
echanical	-12.3105
▁feat	-12.3106
▁autobiograph	-12.3106
conceivabl	-12.3106
evident	-12.3106
▁Michel	-12.3106
▁Pantheon	-12.3106
▁Pepsi	-12.3106
▁Sebastia	-12.3106
▁Video	-12.3106
▁Voyage	-12.3106
▁accommodate	-12.3106
▁administrator	-12.3106
▁appliance	-12.3106
▁biodegrad	-12.3106
▁delusion	-12.3106
▁disadvantage	-12.3106
▁exclude	-12.3106
▁eyebrow	-12.3106
▁fraud	-12.3106
▁friction	-12.3106
▁hilarious	-12.3106
▁hyena	-12.3106
▁incubator	-12.3106
▁marshmallow	-12.3106
▁pollinator	-12.3106
▁prevail	-12.3106
▁promotion	-12.3106
▁pronounce	-12.3106
▁reconnect	-12.3106
▁relevanc	-12.3106
▁respirator	-12.3106
▁sabbatical	-12.3106
▁sensitivit	-12.3106
▁specimen	-12.3106
▁windmill	-12.3106
▁Laborator	-12.3106
▁affirm	-12.3106
▁deceptive	-12.3106
▁fungus	-12.3106
▁inexpensive	-12.3106
▁premature	-12.3106
▁queue	-12.3106
▁residu	-12.3106
▁smuggl	-12.3106
▁subconscious	-12.3106
▁synchroniz	-12.3106
▁testimon	-12.3106
▁Differen	-12.3106
▁sponge	-12.3106
▁subsequent	-12.3106
▁chew	-12.3106
ubtitle	-12.3106
▁abnormal	-12.3106
▁genomic	-12.3106
▁stagna	-12.3106
▁compliment	-12.3106
▁vacan	-12.3106
▁wreck	-12.3106
▁Question	-12.3106
▁wrist	-12.3106
fidel	-12.3106
▁roost	-12.3106
▁audition	-12.3106
▁swarm	-12.3106
▁Honor	-12.3106
▁Politic	-12.3106
▁crude	-12.3106
▁honeybee	-12.3106
▁compact	-12.3106
nourish	-12.3106
▁plaque	-12.3107
▁reply	-12.3107
▁priest	-12.3107
▁logistic	-12.3107
▁Financial	-12.3107
untu	-12.3107
▁aspire	-12.3107
▁Ninety	-12.3107
▁maximize	-12.3107
▁Spider	-12.3107
▁distress	-12.3107
▁Gord	-12.3107
▁outrageous	-12.3108
▁trek	-12.3108
▁Meyer	-12.3108
▁atheist	-12.3108
▁fluctuation	-12.3108
▁McG	-12.3108
▁trustworth	-12.3108
▁Compare	-12.3108
▁nudge	-12.3108
▁Brand	-12.3108
zoning	-12.3108
crony	-12.3108
▁Rocket	-12.3108
▁worthwhile	-12.3108
SDA	-12.3108
▁chill	-12.3108
hmer	-12.3109
▁guideline	-12.3109
▁Honey	-12.3109
▁Plu	-12.3109
litary	-12.311
▁Fred	-12.311
▁brin	-12.311
▁slavery	-12.311
▁breakdown	-12.311
▁pepper	-12.3111
▁Magic	-12.3112
▁joyful	-12.3113
▁bombard	-12.3113
▁astronomical	-12.3114
▁deployment	-12.3114
▁crust	-12.3114
withstand	-12.3114
▁hurr	-12.3114
▁dislike	-12.3115
▁commandment	-12.3116
▁Invest	-12.3116
▁physiological	-12.3116
▁simplify	-12.3117
focal	-12.3117
▁gaze	-12.3117
▁Russe	-12.3118
▁Blai	-12.3118
▁Want	-12.3118
▁Tara	-12.3119
▁disruption	-12.312
▁interg	-12.312
▁Moz	-12.3121
▁warfar	-12.3122
▁Pia	-12.3131
▁Ob	-12.3132
▁Bonnie	-12.3136
▁Gand	-12.3136
▁shortage	-12.3141
▁Large	-12.3143
▁peel	-12.3144
▁Alf	-12.3154
▁catalog	-12.3159
▁soda	-12.3166
▁geneticist	-12.3168
▁doubl	-12.3176
▁Gayl	-12.318
▁embody	-12.3185
▁blurr	-12.3191
▁linguistic	-12.3194
▁vibrate	-12.3206
▁Aim	-12.3208
▁Gri	-12.3212
▁swap	-12.3221
▁Tob	-12.3228
▁visionar	-12.3255
▁Gues	-12.3261
▁sane	-12.3261
tense	-12.3281
assa	-12.3288
rne	-12.3299
▁carbonate	-12.3312
jec	-12.3327
▁Mathematica	-12.3337
▁prototyp	-12.3346
▁considerabl	-12.3378
arable	-12.3386
▁clarif	-12.3386
▁Idea	-12.3414
▁inquir	-12.3419
▁infuse	-12.3425
▁foreigner	-12.3427
▁Mario	-12.3436
Sens	-12.3463
▁Cole	-12.3479
▁Row	-12.3482
▁Gui	-12.3486
▁dementi	-12.3488
▁exceptional	-12.3496
ogue	-12.3498
▁Hop	-12.3513
▁CP	-12.354
▁Uncle	-12.3551
▁diar	-12.3558
▁Lou	-12.3581
spar	-12.3601
pler	-12.3604
▁110	-12.3618
▁satisf	-12.362
deli	-12.3653
hicken	-12.3671
▁legend	-12.3672
iel	-12.3689
▁PI	-12.3696
▁Teach	-12.3699
á	-12.37
▁Maya	-12.3704
▁Snow	-12.3706
▁Nav	-12.3711
unset	-12.3713
proving	-12.3721
pleasant	-12.3723
▁reproducti	-12.3726
quarter	-12.3727
darin	-12.373
▁excess	-12.373
ampaign	-12.3731
wheel	-12.3731
▁Mount	-12.3731
=	-12.3731
▁Believe	-12.3731
▁Excuse	-12.3731
▁Group	-12.3731
▁Guatemala	-12.3731
▁Laptop	-12.3731
▁Matthew	-12.3731
▁Transition	-12.3731
▁appetite	-12.3731
▁arrogan	-12.3731
▁cafeteria	-12.3731
▁carpenter	-12.3731
▁concussion	-12.3731
▁embark	-12.3731
▁excerpt	-12.3731
▁extrovert	-12.3731
▁festival	-12.3731
▁firefight	-12.3731
▁grind	-12.3731
▁nickname	-12.3731
▁opponent	-12.3731
▁persuasi	-12.3731
▁responsive	-12.3731
▁ridicule	-12.3731
▁template	-12.3731
▁transgender	-12.3731
▁treadmill	-12.3731
▁wetsuit	-12.3731
▁Bloom	-12.3731
▁Extreme	-12.3731
▁Typical	-12.3731
▁Window	-12.3731
▁bladder	-12.3731
▁charisma	-12.3731
▁empirical	-12.3731
▁invasion	-12.3731
▁miraculous	-12.3731
▁nanotube	-12.3731
▁necessit	-12.3731
▁pollination	-12.3731
▁sermon	-12.3731
▁Achill	-12.3731
▁improbab	-12.3731
▁oblivio	-12.3731
▁registr	-12.3731
▁sentiment	-12.3731
▁submarine	-12.3731
▁graceful	-12.3731
▁Change	-12.3731
▁ancestr	-12.3731
▁Photoshop	-12.3731
▁Serge	-12.3731
▁Visual	-12.3731
▁mutate	-12.3731
▁seamless	-12.3731
▁Animal	-12.3731
▁cereal	-12.3731
▁cherish	-12.3731
▁Personal	-12.3731
▁Ariel	-12.3731
▁Oscar	-12.3731
▁sterile	-12.3731
▁sanctuar	-12.3731
▁exceed	-12.3731
▁Nico	-12.3731
▁resign	-12.3731
▁Index	-12.3731
▁stink	-12.3731
▁gymn	-12.3732
balance	-12.3732
shine	-12.3732
▁Airport	-12.3732
▁nanoscale	-12.3732
▁fingerprint	-12.3732
lift	-12.3732
▁counterpart	-12.3732
golia	-12.3732
▁pinpoint	-12.3732
▁Ahmed	-12.3732
▁Hmm	-12.3732
▁bait	-12.3732
▁flame	-12.3732
▁penetrate	-12.3732
▁boson	-12.3732
▁zip	-12.3732
▁throat	-12.3732
▁progeri	-12.3732
perform	-12.3732
▁Zero	-12.3732
▁composite	-12.3732
jev	-12.3733
design	-12.3733
▁Dennis	-12.3733
▁nomad	-12.3733
▁soundscape	-12.3733
▁blueprint	-12.3733
▁Robbi	-12.3733
brand	-12.3733
▁fridge	-12.3733
▁blade	-12.3734
model	-12.3734
▁mast	-12.3734
▁heartbreak	-12.3734
▁cynic	-12.3734
▁gamma	-12.3734
▁Libya	-12.3735
▁clash	-12.3735
▁Darwinian	-12.3735
▁trail	-12.3735
▁forgiveness	-12.3735
▁navigation	-12.3736
▁Pink	-12.3736
▁84	-12.3736
▁indication	-12.3737
▁Money	-12.3737
▁68	-12.3737
▁Hanna	-12.3738
▁Poet	-12.3739
transcendence	-12.3739
▁Helen	-12.374
▁payoff	-12.3741
stella	-12.3742
▁NO	-12.3742
pathetic	-12.3742
▁186	-12.3743
▁Max	-12.3745
▁Vel	-12.3745
aptain	-12.3745
▁booth	-12.3746
condition	-12.3748
▁Rule	-12.3749
▁Iron	-12.375
▁roughness	-12.375
▁conductor	-12.375
hatred	-12.375
▁crisp	-12.3751
▁lend	-12.3753
talk	-12.3754
▁Hadr	-12.3754
▁tourist	-12.3755
▁Trac	-12.3757
▁extraction	-12.3758
▁tailor	-12.3758
▁spaceship	-12.3759
▁clapp	-12.376
án	-12.3762
▁reside	-12.3764
▁correction	-12.3766
▁disk	-12.3766
▁900	-12.3767
ARPA	-12.3768
▁Mist	-12.3769
▁dorm	-12.3772
▁gland	-12.3773
mostat	-12.3775
▁Mayan	-12.3778
▁daf	-12.3779
▁respectful	-12.3784
elig	-12.3786
ennis	-12.379
▁Rebe	-12.3794
▁aggregate	-12.3796
▁mania	-12.38
▁Stein	-12.3812
▁Rang	-12.3816
RE	-12.3823
aunt	-12.3823
▁Intel	-12.3829
▁cancel	-12.3831
▁populat	-12.3836
▁Financ	-12.384
ruct	-12.3856
IM	-12.3859
▁redefin	-12.3883
▁Tak	-12.3896
▁pat	-12.3897
raging	-12.3901
▁360	-12.3901
post	-12.3905
▁carv	-12.3906
EP	-12.3908
parate	-12.3908
▁Nar	-12.391
▁cel	-12.391
stitution	-12.3913
azar	-12.3922
▁doodle	-12.3923
▁Twi	-12.3934
▁unto	-12.3937
▁defender	-12.3941
moor	-12.3942
▁whistl	-12.3948
NT	-12.395
▁Colli	-12.3952
▁chopp	-12.3954
nim	-12.3955
▁Ror	-12.3967
▁convers	-12.3991
emost	-12.3998
▁nut	-12.4034
chk	-12.4038
▁Brea	-12.4046
▁protester	-12.4079
bao	-12.4081
▁digitiz	-12.4084
▁chu	-12.4093
▁Esse	-12.4097
▁emit	-12.41
▁450	-12.4103
▁Anna	-12.4109
▁lymph	-12.4144
▁bugg	-12.4163
70	-12.4183
▁requir	-12.4185
▁SB	-12.4252
▁reimagine	-12.4279
▁weave	-12.4284
▁Rub	-12.4287
▁destin	-12.4287
▁disabilit	-12.4289
▁stab	-12.4295
huse	-12.4296
▁gentl	-12.4298
door	-12.4308
▁nurs	-12.4315
grader	-12.4333
▁uncertain	-12.4334
▁characterize	-12.4349
antha	-12.436
▁bake	-12.4361
libr	-12.4395
▁anonym	-12.4397
ompassion	-12.4397
▁cult	-12.4397
▁flour	-12.4398
▁misunderst	-12.4398
▁Stockh	-12.4398
▁alpha	-12.4398
▁embryo	-12.4398
▁suspens	-12.4398
Thousands	-12.4398
▁Certain	-12.4398
▁DIY	-12.4398
▁Effect	-12.4398
▁Hiroshi	-12.4398
▁Orleans	-12.4398
▁Schwarz	-12.4398
▁Thursday	-12.4398
▁Toraja	-12.4398
▁Tweet	-12.4398
▁algebra	-12.4398
▁antidote	-12.4398
▁apprentice	-12.4398
▁catalyst	-12.4398
▁confession	-12.4398
▁epiphan	-12.4398
▁equator	-12.4398
▁exhilarating	-12.4398
▁hazard	-12.4398
▁hippocamp	-12.4398
▁imprison	-12.4398
▁inferior	-12.4398
▁laureate	-12.4398
▁pavilion	-12.4398
▁pediatric	-12.4398
▁schema	-12.4398
▁sprawl	-12.4398
▁supplement	-12.4398
▁turbine	-12.4398
▁turbulen	-12.4398
▁unthink	-12.4398
▁vector	-12.4398
phobic	-12.4398
▁Cooper	-12.4398
▁Pearl	-12.4398
▁Rouge	-12.4398
▁Taiwan	-12.4398
▁Traditional	-12.4398
▁altruist	-12.4398
▁delicate	-12.4398
▁leisure	-12.4398
▁pragmati	-12.4398
▁reperto	-12.4398
▁reunion	-12.4398
▁serendipit	-12.4398
▁whiske	-12.4398
utheast	-12.4398
▁Critic	-12.4398
▁balcon	-12.4398
▁plunge	-12.4398
▁strive	-12.4398
▁vague	-12.4398
▁Anthon	-12.4398
▁holistic	-12.4398
▁empathiz	-12.4398
▁socket	-12.4398
▁Exact	-12.4398
▁collage	-12.4398
▁prompt	-12.4398
▁Shame	-12.4398
▁mourn	-12.4398
▁eager	-12.4398
▁intractable	-12.4398
▁Cruz	-12.4398
▁lexicograph	-12.4398
▁cautio	-12.4398
▁Persian	-12.4398
▁gossip	-12.4398
▁royal	-12.4398
▁budd	-12.4398
▁histories	-12.4398
▁Control	-12.4398
▁Trice	-12.4398
▁Short	-12.4398
▁scour	-12.4398
▁worn	-12.4398
▁verify	-12.4398
▁Point	-12.4398
▁craving	-12.4398
▁revolv	-12.4398
nowledge	-12.4398
▁moderate	-12.4398
▁harsh	-12.4398
▁quantitative	-12.4398
▁plaster	-12.4398
▁lesion	-12.4399
▁waist	-12.4399
▁inhabitant	-12.4399
▁pillow	-12.4399
▁contradiction	-12.4399
▁attain	-12.4399
counterintuitive	-12.4399
▁ovari	-12.4399
▁suburbia	-12.4399
▁headphone	-12.4399
trophy	-12.44
▁appall	-12.44
▁Agn	-12.44
▁recreation	-12.44
▁Kind	-12.44
▁committee	-12.44
▁allocate	-12.44
▁enrich	-12.4401
▁toolbox	-12.4401
▁Night	-12.4401
nspired	-12.4401
▁tolerate	-12.4402
▁Jake	-12.4402
▁Normal	-12.4402
▁Diver	-12.4403
▁fatty	-12.4403
▁constructive	-12.4403
▁gigant	-12.4404
▁Brook	-12.4404
▁nonviolence	-12.4405
▁fluent	-12.4406
▁Pick	-12.4407
▁keen	-12.4407
▁Malco	-12.4407
inister	-12.4408
▁HP	-12.4409
▁dragon	-12.441
▁liar	-12.441
▁Break	-12.4411
▁dogma	-12.4412
▁uh	-12.4413
▁relational	-12.4413
▁rejection	-12.4414
▁delightful	-12.4416
▁Miller	-12.4416
▁Fear	-12.4417
▁39	-12.4418
▁INC	-12.4418
▁thou	-12.4419
▁supplier	-12.4419
▁youngster	-12.4421
▁puzzl	-12.4421
elect	-12.4423
▁substitute	-12.4423
▁ignit	-12.4424
▁multitask	-12.4425
▁meaningless	-12.4427
▁Alto	-12.4429
▁illustrat	-12.4431
▁Player	-12.4437
FL	-12.4438
▁seren	-12.4442
MRI	-12.4443
▁antique	-12.4445
infect	-12.4446
▁naught	-12.4446
birth	-12.4446
familiar	-12.4447
material	-12.4447
white	-12.4447
pattern	-12.4447
machine	-12.4448
terior	-12.4449
bank	-12.4451
PL	-12.4458
MF	-12.4459
▁mimick	-12.4462
present	-12.4464
▁hostilit	-12.4475
▁accountant	-12.4476
homa	-12.4478
▁bark	-12.4491
SG	-12.4499
▁murderer	-12.4508
▁participator	-12.4509
nya	-12.451
▁BP	-12.4512
lux	-12.4513
eject	-12.452
▁Near	-12.4521
essage	-12.4556
▁tinie	-12.4565
▁Pres	-12.4571
emia	-12.4586
▁thriv	-12.4599
▁nitro	-12.4608
TH	-12.4611
▁tickle	-12.4616
ductive	-12.4618
coordinate	-12.4624
motivat	-12.4631
▁Midwest	-12.4632
▁Osa	-12.4642
▁functionalit	-12.4645
rock	-12.4658
undi	-12.4665
▁67	-12.4666
▁Perc	-12.4668
asia	-12.4683
▁nap	-12.4693
▁Huh	-12.4708
ecto	-12.4712
▁organizer	-12.4718
▁cub	-12.472
location	-12.4736
▁Limb	-12.4757
agne	-12.4759
▁flor	-12.4761
▁Univers	-12.4791
▁savanna	-12.482
▁continual	-12.4821
▁wrinkle	-12.483
▁dip	-12.4881
▁gravel	-12.4882
ovo	-12.4886
▁Sky	-12.4903
▁Jami	-12.4915
▁fog	-12.4922
lix	-12.4923
▁miniatur	-12.4931
▁purchas	-12.4932
wesome	-12.494
sterda	-12.4981
▁wav	-12.4988
▁neurologic	-12.4999
actic	-12.5002
▁Environment	-12.5021
wick	-12.5028
▁blur	-12.503
▁giga	-12.5044
▁activis	-12.5049
▁cultivat	-12.5055
minent	-12.5064
▁Tasmania	-12.5081
▁dominan	-12.5088
▁Basi	-12.5096
▁Pun	-12.5107
explored	-12.5107
▁compass	-12.5108
▁bioluminescen	-12.5109
▁cabin	-12.5111
▁sanct	-12.5112
rief	-12.5112
▁Electro	-12.5112
perpetuat	-12.5112
è	-12.5112
▁CIA	-12.5112
▁choreograph	-12.5112
▁diminish	-12.5112
▁discourag	-12.5112
▁disintegrat	-12.5112
▁irrigati	-12.5112
▁refresh	-12.5112
▁scribbl	-12.5112
▁superhero	-12.5112
%	-12.5112
percussion	-12.5112
pocalyp	-12.5112
–	-12.5112
▁Author	-12.5112
▁Charlotte	-12.5112
▁Conservati	-12.5112
▁Engineer	-12.5112
▁Fantastic	-12.5112
▁Freud	-12.5112
▁Jacque	-12.5112
▁Netflix	-12.5112
▁Papua	-12.5112
▁Rhode	-12.5112
▁Scoop	-12.5112
▁Strange	-12.5112
▁WorldWide	-12.5112
▁ambassador	-12.5112
▁amputee	-12.5112
▁antiretroviral	-12.5112
▁assault	-12.5112
▁bottleneck	-12.5112
▁bundle	-12.5112
▁coalition	-12.5112
▁condemn	-12.5112
▁cricket	-12.5112
▁decisive	-12.5112
▁diffuse	-12.5112
▁doctrine	-12.5112
▁elusive	-12.5112
▁embroider	-12.5112
▁estrogen	-12.5112
▁fragrance	-12.5112
▁handwrit	-12.5112
▁homosexual	-12.5112
▁intimidat	-12.5112
▁lettuce	-12.5112
▁microblogg	-12.5112
▁mockingbird	-12.5112
▁neurosurge	-12.5112
▁outweigh	-12.5112
▁perceptual	-12.5112
▁plummet	-12.5112
▁quirk	-12.5112
▁rainbow	-12.5112
▁reassure	-12.5112
▁rectangle	-12.5112
▁recurren	-12.5112
▁ribbon	-12.5112
▁singular	-12.5112
▁stakeholder	-12.5112
▁taxpayer	-12.5112
▁Club	-12.5112
▁Current	-12.5112
▁patron	-12.5112
▁Common	-12.5112
▁tweak	-12.5112
▁Reddit	-12.5112
▁gadget	-12.5112
▁mangrove	-12.5112
▁slime	-12.5112
▁Shaw	-12.5112
▁daunting	-12.5112
▁Fifteen	-12.5112
▁Lanka	-12.5112
▁shipyard	-12.5112
▁ingenious	-12.5112
▁vaccination	-12.5112
▁cliche	-12.5112
nnovation	-12.5112
▁terminal	-12.5112
NES	-12.5112
▁crave	-12.5112
▁forensic	-12.5112
▁paranoi	-12.5112
▁rodent	-12.5112
▁juni	-12.5112
▁Word	-12.5112
▁fibro	-12.5112
umann	-12.5112
▁cellulos	-12.5113
▁knob	-12.5113
▁Morning	-12.5113
▁Massac	-12.5113
▁championship	-12.5113
▁dictatorship	-12.5113
▁meritocra	-12.5113
▁telecom	-12.5113
▁Geoff	-12.5113
▁stripped	-12.5113
▁Barbar	-12.5114
▁latitude	-12.5114
▁Solar	-12.5114
▁humid	-12.5114
▁Naj	-12.5114
▁Program	-12.5114
zzar	-12.5114
▁Pitt	-12.5114
▁sulfur	-12.5114
▁aisle	-12.5114
▁preview	-12.5114
▁Planet	-12.5114
ircle	-12.5114
▁latter	-12.5115
▁landmine	-12.5115
▁Prison	-12.5115
▁instructor	-12.5115
▁facade	-12.5115
▁Sufi	-12.5116
▁Zip	-12.5116
▁dissection	-12.5116
▁Fight	-12.5116
▁Patent	-12.5116
manda	-12.5117
▁Bono	-12.5117
▁76	-12.5117
▁spam	-12.5117
▁devastation	-12.5117
▁83	-12.5118
▁disagreement	-12.5118
▁iteration	-12.5118
▁mitigat	-12.5118
▁Raise	-12.5119
▁Wang	-12.5119
▁reset	-12.512
▁Chop	-12.512
▁Marsha	-12.512
▁restriction	-12.5121
▁Wide	-12.5121
negat	-12.5121
▁livelihood	-12.5121
▁hail	-12.5122
▁pedal	-12.5122
▁mandate	-12.5124
▁variant	-12.5125
▁treasure	-12.5126
▁blast	-12.5126
▁backpack	-12.5127
▁Brain	-12.5129
▁fond	-12.513
▁baseline	-12.5135
▁Hous	-12.5136
▁Pran	-12.5137
▁judg	-12.5138
▁Tso	-12.5138
▁Face	-12.5139
▁Gilli	-12.5142
▁Yemeni	-12.5142
▁foresee	-12.5144
rosion	-12.5145
▁Bots	-12.5146
▁separat	-12.5148
▁Fold	-12.5156
▁dug	-12.5157
haul	-12.516
▁ramp	-12.516
▁Java	-12.516
▁slot	-12.5162
▁Bonn	-12.5165
polis	-12.5165
eague	-12.5171
▁canoe	-12.518
zel	-12.518
groom	-12.5181
▁legendar	-12.5184
▁Conne	-12.5198
▁Chap	-12.5199
▁Environmental	-12.5204
resolution	-12.5207
secure	-12.5212
famous	-12.5216
computer	-12.5216
function	-12.5216
focus	-12.5217
help	-12.5221
▁amuse	-12.5222
▁Kite	-12.5222
▁Safe	-12.5227
▁Fortun	-12.5229
bureaucrat	-12.5234
phone	-12.5242
text	-12.525
▁Genom	-12.5258
▁bagg	-12.5279
▁Beyon	-12.528
▁Rap	-12.5281
illus	-12.5305
pont	-12.5363
atops	-12.539
cited	-12.5447
▁originate	-12.5465
▁Mali	-12.5491
▁blu	-12.5492
cott	-12.5493
▁expo	-12.5503
esert	-12.5504
▁heroin	-12.5508
MM	-12.5513
nuit	-12.5549
heid	-12.5563
SF	-12.5596
▁whal	-12.5638
nthia	-12.5639
▁proportional	-12.5674
▁complet	-12.57
glu	-12.571
amie	-12.5724
educat	-12.574
▁cran	-12.5773
▁utiliz	-12.5795
spen	-12.5804
▁Leg	-12.5804
nnett	-12.5809
replica	-12.5826
▁generalize	-12.5841
cientific	-12.5857
volut	-12.5876
▁dissect	-12.5877
▁invisib	-12.5878
▁legitima	-12.588
iamond	-12.588
▁renew	-12.588
incidence	-12.588
▁Secret	-12.5881
enthrall	-12.5881
▁plutocra	-12.5881
arroça	-12.5881
borough	-12.5881
eclaration	-12.5881
granddaughter	-12.5881
▁EEG	-12.5881
▁Explor	-12.5881
▁Gapminder	-12.5881
▁Ottoman	-12.5881
▁Picasso	-12.5881
▁Progress	-12.5881
▁Record	-12.5881
▁Tamiflu	-12.5881
▁altruism	-12.5881
▁asphalt	-12.5881
▁bailout	-12.5881
▁calibrat	-12.5881
▁dashboard	-12.5881
▁deconstruct	-12.5881
▁detergent	-12.5881
▁devotion	-12.5881
▁gecko	-12.5881
▁heterosexual	-12.5881
▁leapfrog	-12.5881
▁misconception	-12.5881
▁module	-12.5881
▁municipal	-12.5881
▁orthopedic	-12.5881
▁perpetual	-12.5881
▁pessimist	-12.5881
▁plague	-12.5881
▁plume	-12.5881
▁primordial	-12.5881
▁provision	-12.5881
▁railroad	-12.5881
▁reconfigur	-12.5881
▁reflex	-12.5881
▁republic	-12.5881
▁sediment	-12.5881
▁surrender	-12.5881
▁surrogate	-12.5881
▁troubling	-12.5881
▁yogurt	-12.5881
▁1.4	-12.5881
▁astounding	-12.5881
▁inequit	-12.5881
▁ripple	-12.5881
▁stockpile	-12.5881
▁vapor	-12.5881
▁webcam	-12.5881
▁Further	-12.5881
▁Hirsh	-12.5881
▁conjure	-12.5881
▁empti	-12.5881
▁fierce	-12.5881
▁teapot	-12.5881
▁announcement	-12.5881
▁recline	-12.5881
▁shareholder	-12.5881
frost	-12.5881
▁Brenda	-12.5881
▁unsafe	-12.5881
▁venom	-12.5881
▁premier	-12.5881
▁Johann	-12.5881
▁Minne	-12.5881
▁summon	-12.5881
▁snapshot	-12.5881
▁warrant	-12.5881
▁Khal	-12.5881
▁IKE	-12.5881
▁Malawi	-12.5881
▁underpin	-12.5881
▁ballast	-12.5881
▁billionaire	-12.5881
▁compatib	-12.5881
▁deteriorat	-12.5882
▁hurricane	-12.5882
▁capaciti	-12.5882
▁scandal	-12.5882
▁napkin	-12.5882
welve	-12.5882
▁byproduct	-12.5882
▁sniff	-12.5882
▁palette	-12.5882
▁masterpiece	-12.5882
▁maze	-12.5882
▁crunch	-12.5882
▁radiologist	-12.5882
▁engulf	-12.5882
plasma	-12.5882
▁Heather	-12.5882
▁metropolitan	-12.5882
▁grandmaster	-12.5882
▁blunt	-12.5882
▁feminism	-12.5882
▁parameter	-12.5882
▁dissent	-12.5882
▁anchor	-12.5882
▁interference	-12.5882
▁kidnappe	-12.5882
▁pledg	-12.5882
▁subtract	-12.5882
▁automo	-12.5882
▁Search	-12.5882
▁gridlock	-12.5882
▁prescribe	-12.5883
▁obey	-12.5883
electrif	-12.5883
▁statistician	-12.5883
▁Kiva	-12.5883
▁saturat	-12.5883
▁womb	-12.5883
▁Auto	-12.5883
▁mason	-12.5883
▁champ	-12.5883
▁Seventy	-12.5884
▁forehead	-12.5884
▁conform	-12.5884
▁foolish	-12.5884
▁emulate	-12.5884
▁niche	-12.5884
▁cruise	-12.5884
▁outfit	-12.5884
www	-12.5884
▁Mind	-12.5884
▁Galil	-12.5884
▁reception	-12.5884
▁interconnection	-12.5885
▁Danny	-12.5885
▁semen	-12.5885
▁Moham	-12.5885
▁dysfunctional	-12.5885
▁droplet	-12.5885
▁grill	-12.5885
▁Holland	-12.5885
▁Turkish	-12.5885
▁tradeoff	-12.5885
▁Shah	-12.5885
▁Choice	-12.5886
▁geological	-12.5886
▁underlie	-12.5886
▁89	-12.5887
▁shortcut	-12.5887
▁uninten	-12.5887
▁speculation	-12.5888
▁potter	-12.5888
▁Pool	-12.5888
▁Claus	-12.5889
▁Town	-12.5889
▁firefl	-12.5889
venge	-12.589
▁offender	-12.589
▁wax	-12.589
▁packet	-12.5891
▁waterfall	-12.5891
▁Nano	-12.5891
▁Gamb	-12.5891
alaria	-12.5892
▁misuse	-12.5892
▁Huck	-12.5892
▁Whale	-12.5893
▁reign	-12.5893
▁confrontation	-12.5895
▁Rita	-12.5897
▁Nir	-12.5898
▁Rena	-12.5898
▁Fourth	-12.5898
▁wetland	-12.5899
shmi	-12.5899
melon	-12.5901
▁dilat	-12.5905
▁Mayor	-12.5906
violent	-12.5907
▁crumbl	-12.5907
▁Cleve	-12.5909
▁Understand	-12.5921
urance	-12.5925
▁Kins	-12.5949
▁visualiz	-12.595
acco	-12.5956
▁Marine	-12.5961
pork	-12.5963
▁Rama	-12.5965
▁analytical	-12.5968
▁hatch	-12.5969
ggy	-12.5978
▁Ala	-12.598
▁Born	-12.5981
▁entitle	-12.5988
asca	-12.6006
idden	-12.6006
▁Luk	-12.6011
locate	-12.6033
portrait	-12.6045
conventional	-12.6046
border	-12.6046
protect	-12.6049
mouth	-12.605
finance	-12.605
performance	-12.605
grain	-12.6051
week	-12.6053
game	-12.6053
medical	-12.6053
different	-12.6065
ulli	-12.6067
▁investigati	-12.6074
ipped	-12.6074
▁59	-12.6101
▁Infinit	-12.6104
chai	-12.6111
woman	-12.6126
▁debat	-12.6126
▁Jerem	-12.6141
▁tackl	-12.6142
▁rib	-12.6167
▁erase	-12.6168
ibu	-12.625
▁welcom	-12.6265
argon	-12.6266
treat	-12.629
▁Carri	-12.6312
▁Elv	-12.6318
ascar	-12.6319
▁Jose	-12.6346
▁Berg	-12.6358
▁persuad	-12.6359
razo	-12.6364
handler	-12.6367
▁decreas	-12.6377
▁metaboliz	-12.639
▁remedi	-12.6413
▁Mada	-12.6479
▁colonize	-12.6486
▁competenc	-12.6496
PO	-12.6523
flyer	-12.6544
▁ethnicit	-12.6578
spiring	-12.6603
▁Build	-12.6625
▁stunn	-12.6625
▁astonish	-12.6626
▁accord	-12.6626
▁brillian	-12.6651
▁commercializ	-12.6664
lage	-12.6683
▁atmospher	-12.6685
▁disast	-12.6685
caust	-12.6686
▁suicid	-12.6686
▁desperat	-12.6691
▁spectro	-12.6693
▁comprehensi	-12.6698
▁cogniti	-12.6698
omorrow	-12.6705
▁restorati	-12.6711
▁Develop	-12.6712
orruption	-12.6714
▁lexico	-12.6714
Chryst	-12.6715
▁congratulat	-12.6715
▁immigrat	-12.6715
▁proxim	-12.6715
▁Harbor	-12.6715
▁cadaver	-12.6715
▁multimedia	-12.6715
ó	-12.6715
▁99.9	-12.6715
▁Challenge	-12.6715
▁Convention	-12.6715
▁Gabriel	-12.6715
▁Georgia	-12.6715
▁Malaysia	-12.6715
▁Mushroom	-12.6715
▁Physici	-12.6715
▁Psychologist	-12.6715
▁Statistic	-12.6715
▁abdomen	-12.6715
▁adversar	-12.6715
▁archetyp	-12.6715
▁biblical	-12.6715
▁bloom	-12.6715
▁bonobo	-12.6715
▁capsule	-12.6715
▁complication	-12.6715
▁cramm	-12.6715
▁crocodile	-12.6715
▁cucumber	-12.6715
▁cyberattack	-12.6715
▁cyborg	-12.6715
▁defect	-12.6715
▁definitive	-12.6715
▁discrete	-12.6715
▁drastic	-12.6715
▁dyslexi	-12.6715
▁execution	-12.6715
▁explosive	-12.6715
▁fiddle	-12.6715
▁fracture	-12.6715
▁hustle	-12.6715
▁immoral	-12.6715
▁immunization	-12.6715
▁implicit	-12.6715
▁influenza	-12.6715
▁intertwine	-12.6715
▁jealous	-12.6715
▁lightbulb	-12.6715
▁microprocessor	-12.6715
▁moisture	-12.6715
▁pajama	-12.6715
▁practitioner	-12.6715
▁precaution	-12.6715
▁prehistor	-12.6715
▁prosthes	-12.6715
▁psychotherap	-12.6715
▁scrutin	-12.6715
▁soprano	-12.6715
▁stirring	-12.6715
▁submersible	-12.6715
▁typewriter	-12.6715
▁unravel	-12.6715
▁Psycho	-12.6715
▁asylum	-12.6715
▁embryonic	-12.6715
▁examination	-12.6715
▁indefinite	-12.6715
▁miscarri	-12.6715
▁rupee	-12.6715
▁segment	-12.6715
▁stunt	-12.6715
▁collide	-12.6715
▁crippl	-12.6715
▁strawberr	-12.6715
▁trawl	-12.6715
▁ozone	-12.6715
▁thrust	-12.6715
▁advertisement	-12.6715
▁siege	-12.6715
tyrann	-12.6715
▁coworker	-12.6715
▁nominate	-12.6715
▁cowboy	-12.6715
▁harass	-12.6715
▁Hotel	-12.6715
▁gluten	-12.6715
entagon	-12.6715
▁bookstore	-12.6715
▁slamm	-12.6715
bilitat	-12.6715
▁Clark	-12.6715
▁profan	-12.6715
▁detach	-12.6715
▁savor	-12.6715
▁coincide	-12.6715
Monkey	-12.6715
▁crease	-12.6715
▁stitch	-12.6715
▁smack	-12.6715
▁subset	-12.6715
▁precursor	-12.6715
▁admission	-12.6715
▁bumblebee	-12.6715
▁Trini	-12.6715
▁LOL	-12.6715
▁leash	-12.6716
▁Missou	-12.6716
▁ferment	-12.6716
▁imaginative	-12.6716
flamma	-12.6716
▁rooftop	-12.6716
▁excessive	-12.6716
▁Memor	-12.6716
▁costume	-12.6716
▁enlist	-12.6716
▁guru	-12.6716
▁NSA	-12.6716
▁ascend	-12.6717
vicini	-12.6717
▁1940	-12.6717
▁erupt	-12.6717
▁proliferation	-12.6717
▁tidy	-12.6717
▁Director	-12.6718
▁seque	-12.6718
▁suburban	-12.6718
▁Among	-12.6718
▁Zeta	-12.6718
▁graft	-12.6718
▁impart	-12.6718
▁skydiv	-12.6718
▁bioluminescence	-12.6718
▁Judge	-12.6719
▁Nicole	-12.6719
▁Sacr	-12.6719
▁bald	-12.6719
▁embarrassment	-12.672
▁waterfront	-12.672
▁enact	-12.672
▁curb	-12.672
▁Walter	-12.6721
▁cartel	-12.6721
▁microwave	-12.6721
Lebanese	-12.6721
▁fuck	-12.6721
▁pupp	-12.6722
▁hover	-12.6722
▁clinician	-12.6722
▁recommendation	-12.6723
▁handsome	-12.6724
▁73	-12.6724
▁poop	-12.6724
▁batch	-12.6724
▁Block	-12.6724
▁precipitat	-12.6724
▁Knight	-12.6724
▁crest	-12.6725
▁classify	-12.6725
▁counselor	-12.6726
▁repel	-12.6726
▁1982	-12.6727
▁Curi	-12.6727
▁Bandu	-12.6727
netary	-12.6727
dez	-12.6727
▁claw	-12.6728
▁Axi	-12.6728
▁formulation	-12.6728
▁Board	-12.6729
amara	-12.6737
▁Generati	-12.674
HO	-12.6741
▁lava	-12.6742
▁Tree	-12.6743
▁hike	-12.6759
400	-12.6775
Contra	-12.6777
Tun	-12.6778
▁centi	-12.6785
▁Giv	-12.6788
iki	-12.6793
▁Architectur	-12.6795
▁inhale	-12.6796
colonial	-12.6804
▁complian	-12.6806
▁prominen	-12.6816
▁Hyde	-12.6842
▁commut	-12.6846
▁harp	-12.6883
muddi	-12.6891
▁reviv	-12.6927
Prince	-12.695
bird	-12.6957
market	-12.6957
limited	-12.6958
belief	-12.6958
square	-12.6959
billion	-12.696
people	-12.696
▁validate	-12.6964
spoke	-12.6967
▁predictabl	-12.7008
▁auditori	-12.707
exist	-12.7079
▁locomoti	-12.7099
▁Cloni	-12.7158
▁Patric	-12.716
▁Loca	-12.7189
provok	-12.7199
▁locomot	-12.7219
▁categorize	-12.7244
▁cooperat	-12.7294
▁lenti	-12.73
imming	-12.7321
▁750	-12.7321
▁temporari	-12.7336
▁spiritualit	-12.7345
▁Greg	-12.7357
▁slid	-12.7368
enhanc	-12.7377
shel	-12.7408
gras	-12.7457
▁financ	-12.748
emic	-12.7481
▁pharmac	-12.75
hocke	-12.7561
glob	-12.7568
▁Davi	-12.7571
elimina	-12.7589
azi	-12.7592
▁clap	-12.7597
ynthetic	-12.76
imulator	-12.7609
solate	-12.7611
abba	-12.7611
▁hung	-12.7611
heikh	-12.7613
vaccin	-12.7616
▁fright	-12.7617
▁situat	-12.762
▁femini	-12.7621
flection	-12.7621
▁symbio	-12.7622
▁advent	-12.7622
sippi	-12.7623
▁Electric	-12.7624
▁crate	-12.7624
▁segregat	-12.7624
▁Agricultur	-12.7624
▁catheter	-12.7624
▁congress	-12.7624
▁gelatin	-12.7624
▁irregular	-12.7624
▁jurisdiction	-12.7624
▁overestimat	-12.7624
▁patriarch	-12.7624
▁plural	-12.7624
▁prohibit	-12.7624
@	-12.7624
NICE	-12.7624
bimetal	-12.7624
clamation	-12.7624
▁1.6	-12.7624
▁Amazing	-12.7624
▁Embrac	-12.7624
▁Enlighten	-12.7624
▁Exxon	-12.7624
▁Hispanic	-12.7624
▁LOLcat	-12.7624
▁Magazine	-12.7624
▁Mozambi	-12.7624
▁Senegal	-12.7624
▁Simpson	-12.7624
▁Sinclair	-12.7624
▁adrenalin	-12.7624
▁aerodynamic	-12.7624
▁amygdala	-12.7624
▁antidepressant	-12.7624
▁archaeolog	-12.7624
▁benchmark	-12.7624
▁briquette	-12.7624
▁buffalo	-12.7624
▁cannibal	-12.7624
▁caterpillar	-12.7624
▁ceramic	-12.7624
▁coherent	-12.7624
▁demoralize	-12.7624
▁devour	-12.7624
▁dilute	-12.7624
▁discharge	-12.7624
▁dissonance	-12.7624
▁dreadful	-12.7624
▁duplicate	-12.7624
▁ecsta	-12.7624
▁excavat	-12.7624
▁excruciating	-12.7624
▁eyewitness	-12.7624
▁fatigue	-12.7624
▁fifty	-12.7624
▁fountain	-12.7624
▁frantic	-12.7624
▁ghetto	-12.7624
▁giraffe	-12.7624
▁glaze	-12.7624
▁gradient	-12.7624
▁immunize	-12.7624
▁incentiviz	-12.7624
▁juxtaposition	-12.7624
▁latrine	-12.7624
▁manuscript	-12.7624
▁motorbike	-12.7624
▁muffin	-12.7624
▁poignant	-12.7624
▁questionnaire	-12.7624
▁reassuring	-12.7624
▁rejuvenat	-12.7624
▁repositor	-12.7624
▁rhyme	-12.7624
▁sausage	-12.7624
▁squirt	-12.7624
▁utilitarian	-12.7624
▁volatile	-12.7624
▁whistleblower	-12.7624
▁yawn	-12.7624
▁Federal	-12.7624
▁chalk	-12.7624
▁crayon	-12.7624
▁hectare	-12.7624
▁instantaneous	-12.7624
▁intestine	-12.7624
▁messenger	-12.7624
▁predominant	-12.7624
▁Michoac	-12.7624
▁desalinati	-12.7624
▁pianist	-12.7624
▁prophec	-12.7624
▁sleeve	-12.7624
▁disparit	-12.7624
▁evolutionarily	-12.7624
▁landmark	-12.7624
▁proverb	-12.7624
sophist	-12.7624
▁Belgi	-12.7624
▁Jarret	-12.7624
▁churn	-12.7624
▁griev	-12.7624
▁metasta	-12.7624
▁Eames	-12.7624
▁carcass	-12.7624
▁compuls	-12.7624
▁dispense	-12.7624
▁Commission	-12.7624
▁Train	-12.7624
▁voyage	-12.7624
▁disseminat	-12.7624
▁propulsi	-12.7624
▁Hyper	-12.7624
▁Living	-12.7624
▁glamo	-12.7624
▁grappl	-12.7624
▁kettle	-12.7624
▁Prosper	-12.7624
▁marble	-12.7624
▁disclosure	-12.7624
▁Improv	-12.7624
▁propagat	-12.7624
▁Nikola	-12.7624
▁Templ	-12.7624
▁burial	-12.7624
▁CDC	-12.7624
▁hospi	-12.7624
▁permit	-12.7624
▁Survey	-12.7624
▁sequester	-12.7624
▁Adria	-12.7624
▁Ferris	-12.7624
▁embass	-12.7624
▁polish	-12.7624
▁league	-12.7624
▁Parent	-12.7624
▁ruling	-12.7624
▁grue	-12.7624
▁launder	-12.7625
▁Medit	-12.7625
▁synthesizer	-12.7625
▁Blak	-12.7625
▁Tiger	-12.7625
▁omni	-12.7625
penetra	-12.7625
▁Nicola	-12.7625
▁discount	-12.7626
▁enroll	-12.7626
▁quantify	-12.7626
▁Creative	-12.7626
▁vocation	-12.7626
▁actress	-12.7626
nough	-12.7626
rchestra	-12.7626
▁Veg	-12.7627
▁funnel	-12.7627
▁editorial	-12.7627
▁motive	-12.7627
▁frail	-12.7627
▁teammate	-12.7627
▁roar	-12.7627
▁Reserv	-12.7627
▁Newcast	-12.7627
▁stigmatiz	-12.7627
▁1920	-12.7628
eautiful	-12.7628
▁Journalist	-12.7628
▁hull	-12.7628
▁pearl	-12.7629
▁prolong	-12.7629
▁Morgan	-12.7629
▁coerc	-12.7629
▁Chair	-12.7629
▁56	-12.7629
▁66	-12.763
tigation	-12.763
▁Kendal	-12.763
▁Boom	-12.763
▁stance	-12.763
▁Gho	-12.7631
▁Marx	-12.7631
▁deform	-12.7632
▁abor	-12.7632
▁recap	-12.7633
tasting	-12.7633
defy	-12.7634
▁Vila	-12.7635
▁impatien	-12.7636
quake	-12.7638
blanc	-12.7639
▁coward	-12.7639
▁visi	-12.764
▁88	-12.7644
▁Name	-12.765
ML	-12.7657
trenche	-12.766
▁Found	-12.7665
anza	-12.7678
aya	-12.7702
▁messag	-12.7703
▁wobbl	-12.7713
LM	-12.7715
▁snapp	-12.7732
pharmacolog	-12.7749
▁Arr	-12.7769
▁Preg	-12.7793
metri	-12.7807
ometric	-12.7808
Cash	-12.7847
ollider	-12.7851
▁entr	-12.7861
Card	-12.7875
▁assistan	-12.7895
▁copulat	-12.7946
realistic	-12.795
LP	-12.7955
pilot	-12.7956
threaten	-12.7956
violence	-12.7958
speaking	-12.7958
skill	-12.7958
process	-12.7959
normal	-12.7959
teacher	-12.796
comfort	-12.7961
catch	-12.7961
dense	-12.7962
purpose	-12.797
UV	-12.7971
visual	-12.7973
epression	-12.7977
skies	-12.8002
▁internalize	-12.802
assi	-12.8052
▁interdependenc	-12.8055
cob	-12.814
▁crowdsourc	-12.8156
▁rebuil	-12.8178
▁liabilit	-12.8231
gatherer	-12.8237
▁temperat	-12.8243
▁antibiotic	-12.8245
▁emission	-12.8247
▁repressi	-12.8259
▁Happi	-12.8277
▁decompos	-12.8317
▁measurabl	-12.8334
▁randomize	-12.8372
▁incorporat	-12.8382
OL	-12.8389
▁energ	-12.8442
▁parasit	-12.845
compli	-12.8465
ragg	-12.8472
▁linguist	-12.8473
▁Biolog	-12.8504
▁interconnect	-12.8529
ague	-12.854
DAR	-12.8563
▁Hug	-12.8575
tasking	-12.8583
▁Northwest	-12.8586
hadow	-12.8601
▁aqua	-12.8605
▁hypoth	-12.8607
ransparency	-12.8613
rocco	-12.8622
urricane	-12.8623
uza	-12.8624
▁brigade	-12.8624
▁redundan	-12.8624
▁thirty	-12.8624
constru	-12.8624
neurotransmitter	-12.8624
ü	-12.8624
▁Ancient	-12.8624
▁Balkan	-12.8624
▁Buffet	-12.8624
▁Committe	-12.8624
▁Denisovan	-12.8624
▁Dictionar	-12.8624
▁Marriage	-12.8624
▁Metaphor	-12.8624
▁PET	-12.8624
▁Perfect	-12.8624
▁Plastic	-12.8624
▁Quixot	-12.8624
▁Scientolog	-12.8624
▁Viagra	-12.8624
▁accelerometer	-12.8624
▁administer	-12.8624
▁amplify	-12.8624
▁applaud	-12.8624
▁appointment	-12.8624
▁assassinat	-12.8624
▁biochemical	-12.8624
▁breadwinner	-12.8624
▁cascade	-12.8624
▁cassette	-12.8624
▁circumcis	-12.8624
▁combusti	-12.8624
▁complement	-12.8624
▁constituenc	-12.8624
▁contempt	-12.8624
▁contraceptive	-12.8624
▁delicac	-12.8624
▁detriment	-12.8624
▁disengage	-12.8624
▁expenditure	-12.8624
▁extremism	-12.8624
▁fratern	-12.8624
▁geopolitic	-12.8624
▁inadvertent	-12.8624
▁mafia	-12.8624
▁meteorite	-12.8624
▁mistrust	-12.8624
▁multiplie	-12.8624
▁neutrino	-12.8624
▁nugget	-12.8624
▁photojournalist	-12.8624
▁picnic	-12.8624
▁pluripoten	-12.8624
▁preconce	-12.8624
▁punctuat	-12.8624
▁restraint	-12.8624
▁retrospect	-12.8624
▁sapien	-12.8624
▁shield	-12.8624
▁snippet	-12.8624
▁spawn	-12.8624
▁spreadsheet	-12.8624
▁squirrel	-12.8624
▁squish	-12.8624
▁superficial	-12.8624
▁surpass	-12.8624
▁synagogue	-12.8624
▁toothpaste	-12.8624
▁whims	-12.8624
conclusive	-12.8624
▁bulldoze	-12.8624
▁carriage	-12.8624
▁demobiliz	-12.8624
▁interpersonal	-12.8624
▁pornograph	-12.8624
▁sunflower	-12.8624
▁swirl	-12.8624
necdo	-12.8624
▁1.7	-12.8624
▁Dragon	-12.8624
▁multiplic	-12.8624
▁patriot	-12.8624
▁playwright	-12.8624
▁preoccup	-12.8624
▁privatiz	-12.8624
▁niece	-12.8624
▁Network	-12.8624
▁buffer	-12.8624
▁summit	-12.8624
▁adversit	-12.8624
▁fringe	-12.8624
▁Beatle	-12.8624
▁Gross	-12.8624
▁Standard	-12.8624
▁bunker	-12.8624
▁hippie	-12.8624
▁patern	-12.8624
▁Blackberr	-12.8624
▁Express	-12.8624
▁roast	-12.8624
▁absent	-12.8624
▁pellet	-12.8624
▁redistribut	-12.8624
vantage	-12.8624
▁toddler	-12.8624
▁dizzy	-12.8624
▁notorious	-12.8624
▁aphid	-12.8624
▁Bowl	-12.8624
▁crazi	-12.8624
▁motel	-12.8624
jerk	-12.8624
▁Algeria	-12.8624
▁outlier	-12.8624
▁slang	-12.8624
▁Major	-12.8624
▁archeolog	-12.8624
elope	-12.8624
▁chore	-12.8624
▁bleep	-12.8624
▁monarch	-12.8624
▁Sophi	-12.8624
▁seductive	-12.8624
▁Saint	-12.8624
▁nanometer	-12.8624
nnica	-12.8624
▁Knee	-12.8624
▁cohesi	-12.8624
▁offense	-12.8624
▁cosmetic	-12.8624
▁contingen	-12.8625
▁foreground	-12.8625
▁snack	-12.8625
▁subscribe	-12.8625
▁safeguard	-12.8625
▁Mommy	-12.8625
▁garment	-12.8625
▁scripture	-12.8625
▁rebellio	-12.8625
▁Babylonian	-12.8625
▁Galax	-12.8626
▁emanat	-12.8626
▁Romantic	-12.8626
▁classmate	-12.8626
▁symbiotic	-12.8626
,700	-12.8626
▁interval	-12.8627
▁reorganize	-12.8627
▁Casa	-12.8627
▁aquari	-12.8627
vada	-12.8627
profe	-12.8628
▁Barbi	-12.8628
▁beaver	-12.8628
▁rumor	-12.8628
▁fantasi	-12.8628
▁reverbera	-12.8628
▁Genetic	-12.8629
▁exert	-12.8629
disproportionate	-12.8629
▁geologist	-12.863
▁Biologist	-12.863
▁ministr	-12.8631
▁nanotechnolog	-12.8631
Murdo	-12.8632
▁tenaci	-12.8635
Foot	-12.8641
▁chap	-12.865
MCA	-12.8652
▁alleviat	-12.8654
▁civiliz	-12.8657
▁luna	-12.8659
▁Snowde	-12.8665
iscons	-12.8682
tute	-12.8695
simplification	-12.8706
▁glide	-12.8711
▁interpla	-12.8714
▁wiggl	-12.8719
▁squeez	-12.8739
asket	-12.8786
▁Fai	-12.8797
Kerr	-12.8833
ninsula	-12.8848
▁wicke	-12.8861
▁localiz	-12.8874
Gregor	-12.8927
▁Hai	-12.895
building	-12.8996
mphatic	-12.9026
▁curse	-12.9027
guard	-12.9039
rmia	-12.9044
dropping	-12.9059
deaf	-12.9062
know	-12.9063
ethical	-12.9065
define	-12.9067
consumption	-12.9067
destructi	-12.9068
fiction	-12.9068
Muslim	-12.9069
dynamic	-12.9069
distance	-12.9069
peace	-12.907
meaning	-12.907
through	-12.907
girl	-12.907
population	-12.9071
important	-12.9071
first	-12.9071
reason	-12.9073
evolution	-12.9076
stopp	-12.9082
create	-12.909
tigr	-12.9105
▁adventur	-12.9106
glass	-12.9112
irstream	-12.9116
▁captiv	-12.9131
mmit	-12.9212
▁Success	-12.934
▁submissi	-12.9342
▁Constitu	-12.9347
mission	-12.9475
▁preferabl	-12.9492
▁bubbl	-12.9503
▁exchang	-12.9515
▁optimiz	-12.9522
▁battl	-12.953
transcendent	-12.9563
compromis	-12.9571
llusion	-12.9593
illuminate	-12.9599
trinsic	-12.9622
▁vulnerabilit	-12.9627
▁Independen	-12.9634
▁credi	-12.9664
▁etern	-12.9671
▁elegan	-12.9672
ISA	-12.9672
▁hype	-12.9692
▁Costa	-12.9702
ymphon	-12.9711
▁fragil	-12.9712
▁precipi	-12.9722
▁trivia	-12.9729
▁volcan	-12.9731
▁intersect	-12.9731
▁hallucinat	-12.9731
sufficien	-12.9731
▁Olymp	-12.9731
▁hurd	-12.9732
rilliant	-12.9733
ccasional	-12.9734
ö	-12.9735
▁Behavior	-12.9735
▁Yugoslav	-12.9735
▁repulsi	-12.9735
▁Correction	-12.9735
▁Glenn	-12.9735
▁Instagram	-12.9735
▁Torosaurus	-12.9735
▁bankrupt	-12.9735
▁clutch	-12.9735
▁eleven	-12.9735
▁lattice	-12.9735
▁mismatch	-12.9735
▁synesthe	-12.9735
▁tornado	-12.9735
affiliat	-12.9735
inflict	-12.9735
munition	-12.9735
orthodox	-12.9735
quawk	-12.9735
tuitous	-12.9735
ycorrhiza	-12.9735
ã	-12.9735
▁Bitcoin	-12.9735
▁District	-12.9735
▁Elliot	-12.9735
▁Engel	-12.9735
▁Excellen	-12.9735
▁Feminist	-12.9735
▁Glacier	-12.9735
▁Hoffman	-12.9735
▁MOOC	-12.9735
▁Neuroscientist	-12.9735
▁Randolph	-12.9735
▁Schwartz	-12.9735
▁Sisyph	-12.9735
▁Urban	-12.9735
▁abolish	-12.9735
▁agnostic	-12.9735
▁annihilat	-12.9735
▁barbecue	-12.9735
▁bilingual	-12.9735
▁biochemistr	-12.9735
▁biofuel	-12.9735
▁blossom	-12.9735
▁caffein	-12.9735
▁camouflage	-12.9735
▁coconut	-12.9735
▁comrade	-12.9735
▁cunning	-12.9735
▁dessert	-12.9735
▁discontinu	-12.9735
▁disguise	-12.9735
▁dismantle	-12.9735
▁exacerbate	-12.9735
▁fractal	-12.9735
▁geriatric	-12.9735
▁granular	-12.9735
▁hiccup	-12.9735
▁judicia	-12.9735
▁kangaroo	-12.9735
▁legitimize	-12.9735
▁lollipop	-12.9735
▁majest	-12.9735
▁mitochondria	-12.9735
▁neurologist	-12.9735
▁nostalgi	-12.9735
▁parabola	-12.9735
▁paraphras	-12.9735
▁portfolio	-12.9735
▁reconsider	-12.9735
▁rehearsal	-12.9735
▁reintegrat	-12.9735
▁remorse	-12.9735
▁repetitive	-12.9735
▁revisit	-12.9735
▁résumé	-12.9735
▁skyrocket	-12.9735
▁sprinkle	-12.9735
▁stereotypical	-12.9735
▁succumb	-12.9735
▁tentacle	-12.9735
▁terawatt	-12.9735
▁thirst	-12.9735
▁umbrella	-12.9735
▁unacceptabl	-12.9735
▁virulen	-12.9735
▁wavelength	-12.9735
▁Hazle	-12.9735
▁Isabel	-12.9735
▁Zambia	-12.9735
▁fission	-12.9735
▁infringe	-12.9735
▁lobbie	-12.9735
▁marginaliz	-12.9735
▁prestig	-12.9735
▁relentless	-12.9735
▁tremor	-12.9735
▁vigorous	-12.9735
▁wingsuit	-12.9735
▁Advanc	-12.9735
▁Impossib	-12.9735
▁TNC	-12.9735
▁Tinker	-12.9735
▁evoke	-12.9735
▁frown	-12.9735
▁menstrua	-12.9735
▁remake	-12.9735
▁superstitio	-12.9735
▁Answer	-12.9735
▁typograph	-12.9735
▁ulcer	-12.9735
▁utopia	-12.9735
▁Pioneer	-12.9735
▁Clean	-12.9735
▁modalit	-12.9735
▁boast	-12.9735
▁diaper	-12.9735
▁flirt	-12.9735
▁ravage	-12.9735
▁surreal	-12.9735
argass	-12.9735
▁Model	-12.9735
▁corona	-12.9735
▁Skid	-12.9735
misunderstanding	-12.9735
▁permeate	-12.9735
▁Suzan	-12.9735
▁Match	-12.9735
▁Crime	-12.9735
▁puppeteer	-12.9735
▁videotape	-12.9735
▁Horse	-12.9735
▁aristocra	-12.9735
▁phant	-12.9735
▁salut	-12.9735
▁Khad	-12.9735
▁consolidat	-12.9735
▁Utopia	-12.9735
cense	-12.9735
▁uterus	-12.9735
▁duct	-12.9735
▁brute	-12.9735
▁Legend	-12.9735
▁equate	-12.9735
▁lord	-12.9735
▁Bureau	-12.9735
▁jelly	-12.9735
▁embed	-12.9736
▁Krist	-12.9736
▁Moderat	-12.9736
▁Hacker	-12.9736
▁orchid	-12.9736
▁plausib	-12.9736
▁bleach	-12.9736
▁filing	-12.9736
▁cervi	-12.9736
▁rehab	-12.9736
▁roam	-12.9736
▁Valenti	-12.9736
▁maim	-12.9736
▁Invent	-12.9736
redeem	-12.9736
▁Wealth	-12.9737
▁handshak	-12.9737
▁deathbed	-12.9737
▁font	-12.9737
▁impersona	-12.9737
▁resume	-12.9738
▁husk	-12.9738
▁Frederic	-12.9739
emeral	-12.9739
▁squatt	-12.9739
▁riddle	-12.974
consequential	-12.974
cursor	-12.974
▁Curiosit	-12.9746
▁Atheis	-12.9749
▁inoculat	-12.975
libi	-12.9751
▁modulat	-12.9751
bject	-12.9758
▁staple	-12.9763
▁squea	-12.9767
▁germinat	-12.9768
▁marit	-12.9774
▁Theodo	-12.9777
blaze	-12.9789
▁telegraph	-12.9791
▁rude	-12.9804
▁Vote	-12.9813
gabyte	-12.9838
▁inertia	-12.984
▁Identi	-12.9861
▁bounc	-12.9907
▁tacti	-12.9925
▁archiv	-12.9938
▁Jeh	-13.0057
▁Vivi	-13.0192
serving	-13.0267
spora	-13.0268
technology	-13.0282
fabricate	-13.0295
issue	-13.0311
Israel	-13.0317
narrative	-13.0319
capacity	-13.0319
driving	-13.0319
benefit	-13.032
blood	-13.032
species	-13.0321
robot	-13.0321
yourself	-13.0321
definition	-13.0321
evolv	-13.0323
ickli	-13.0577
spiration	-13.0696
▁sacrific	-13.0704
riplet	-13.0757
zzi	-13.0796
▁insignifican	-13.0845
aggregat	-13.0852
▁celebrit	-13.0876
▁biologic	-13.0891
▁innocen	-13.0922
▁pleasur	-13.0923
eadership	-13.0928
▁whil	-13.094
▁Scra	-13.0953
▁advert	-13.0969
▁proliferat	-13.0981
▁fluctuat	-13.0981
▁suspicio	-13.0982
ocracy	-13.0983
ncyclopedia	-13.0983
ndustry	-13.0985
ntelligence	-13.0985
▁disclos	-13.0985
▁mush	-13.0985
ulnerability	-13.0985
▁chronolog	-13.0985
▁disfigur	-13.0985
▁propriet	-13.0985
haracter	-13.0985
▁Krishna	-13.0985
▁Volta	-13.0985
▁centrifug	-13.0985
▁dwindl	-13.0985
▁egalitarian	-13.0985
▁enclos	-13.0985
▁involuntar	-13.0985
Baptist	-13.0985
Script	-13.0985
ä	-13.2413
#	-13.408
ø	-13.408
â	-13.858
&	-14.1254
	-14.1913
	-14.1913
à	-14.1913
ë	-14.1913
́	-14.1913
(	-14.6913
_	-14.6913
£	-14.6913
Á	-14.6913
É	-14.6913
ā	-14.6913
ร	-14.6913
่	-14.6913
ย	-15.6904
ñ	-15.6905
ê	-15.6906
อ	-15.6907
ï	-15.6908
)	-15.6909
ç	-15.691
+	-15.6911
!	-15.6912
*	-15.6913
?	-15.6913
¡	-15.6913
Å	-15.6913
Ă	-15.6913
Č	-15.6913
ē	-15.6913
Ť	-15.6913
€	-15.6913
你	-15.6913
葱	-15.6913
送	-15.6913
