<pad>	0
<s>	0
</s>	0
<unk>	0
▁,	-3.34396
▁.	-3.415
▁là	-4.12843
▁tôi	-4.24864
▁và	-4.26079
▁một	-4.30889
▁có	-4.32201
▁những	-4.56413
▁chúng	-4.57989
▁của	-4.5876
▁ta	-4.76492
▁không	-4.77319
i	-4.79363
ng	-4.84173
▁đó	-4.88539
▁người	-4.91204
▁bạn	-4.91615
▁trong	-4.98905
▁thể	-5.00738
▁này	-5.05876
▁đã	-5.06354
▁các	-5.08509
▁được	-5.10617
;	-5.13216
▁&	-5.15822
▁với	-5.17774
quot	-5.21272
▁cho	-5.21809
▁Và	-5.24359
▁sự	-5.25356
▁ra	-5.25565
t	-5.27875
▁làm	-5.32673
▁nó	-5.36754
▁ở	-5.39062
▁mà	-5.39859
▁để	-5.41883
▁về	-5.42929
▁như	-5.44431
▁sẽ	-5.45015
▁điều	-5.54177
▁thế	-5.55045
▁khi	-5.55788
y	-5.6472
▁họ	-5.65133
▁Tôi	-5.66447
▁nói	-5.678
n	-5.71689
▁đến	-5.72689
▁?	-5.76444
▁phải	-5.7663
m	-5.80397
▁rằng	-5.80526
▁gì	-5.81558
▁vào	-5.81678
▁đang	-5.8175
▁từ	-5.81945
▁việc	-5.82298
▁	-5.83198
▁lại	-5.85124
▁thấy	-5.86557
▁cách	-5.88978
▁cả	-5.89747
▁hơn	-5.89837
▁nhiều	-5.92385
▁rấ	-5.93784
▁Đ	-5.95633
▁thực	-5.97829
▁đầu	-5.98246
▁đây	-6.00536
▁học	-6.02236
▁con	-6.02901
▁khác	-6.02982
▁trên	-6.05462
▁công	-6.05659
▁cái	-6.08293
▁vì	-6.0864
▁nào	-6.0865
▁chỉ	-6.09329
▁biết	-6.09426
▁Chúng	-6.09923
▁b	-6.14336
▁đi	-6.15653
▁năm	-6.15833
▁nghĩ	-6.17757
ây	-6.17861
▁thứ	-6.1798
▁thành	-6.19737
▁:	-6.20872
▁--	-6.23499
▁cũng	-6.24938
▁nhà	-6.25287
▁Như	-6.26913
▁số	-6.27116
▁bị	-6.28936
▁quan	-6.30595
▁muốn	-6.31043
a	-6.33052
▁mình	-6.34568
▁nhất	-6.35981
▁tạo	-6.37489
▁nhưng	-6.37678
▁giới	-6.38519
▁chính	-6.38586
▁động	-6.38619
▁N	-6.39358
▁1	-6.40039
▁nên	-6.40686
▁vậy	-6.41946
▁hình	-6.47591
▁giờ	-6.49026
▁hiện	-6.49281
▁sống	-6.50938
▁tại	-6.5102
▁nếu	-6.51466
▁nhận	-6.51502
▁mọ	-6.52276
▁cuộc	-6.54247
▁cần	-6.55039
▁hay	-6.55441
▁tự	-6.56573
▁ch	-6.56737
▁thì	-6.56894
▁đề	-6.57061
▁đ	-6.59902
▁t	-6.60051
▁tất	-6.60102
▁ông	-6.60438
▁ấy	-6.61254
▁bởi	-6.61575
▁tới	-6.6213
▁theo	-6.62601
▁bắt	-6.62954
▁còn	-6.63646
▁nhìn	-6.64041
▁lớn	-6.64286
▁cơ	-6.65009
▁cùng	-6.65376
▁bằng	-6.65644
▁ý	-6.65831
▁cảm	-6.6663
▁tế	-6.66785
▁sau	-6.67495
▁dụng	-6.67827
▁thật	-6.67907
▁lên	-6.68117
▁gia	-6.68423
▁anh	-6.68495
▁câu	-6.68561
▁bản	-6.6871
▁tin	-6.69797
▁qua	-6.7021
▁bộ	-6.70525
▁sao	-6.70716
▁thời	-6.70805
ất	-6.70861
▁chuyện	-6.7113
▁trở	-6.71425
▁ngày	-6.72125
▁nhân	-6.72314
▁sinh	-6.73041
u	-6.7548
▁năng	-6.76134
▁trước	-6.76799
▁nước	-6.76986
▁phát	-6.77028
▁đổi	-6.77625
▁Nó	-6.77752
▁toàn	-6.78713
▁phần	-6.79107
▁nơi	-6.79587
▁thông	-6.80497
▁tìm	-6.81449
▁nhau	-6.8145
▁mới	-6.81888
▁thay	-6.81904
▁vấn	-6.83246
▁định	-6.83368
▁hệ	-6.84686
▁trường	-6.85047
▁nhiên	-6.85479
▁sử	-6.85567
▁tính	-6.86361
nh	-6.86527
▁trình	-6.8725
▁c	-6.87309
▁tốt	-6.88071
▁tưởng	-6.88336
▁kết	-6.88842
▁vật	-6.90469
▁lý	-6.91186
▁hàng	-6.91205
▁T	-6.91602
▁hỏi	-6.9215
▁n	-6.93071
▁Bạn	-6.93862
▁máy	-6.94805
▁ảnh	-6.94859
▁hợp	-6.96471
▁Đó	-6.97059
c	-6.97562
▁mặt	-6.97727
▁C	-6.98404
▁tiếp	-6.98793
▁hành	-6.98865
▁nữa	-6.99597
▁kinh	-6.99662
▁thức	-7.00813
▁hội	-7.00903
▁gian	-7.01
▁thiết	-7.01573
▁rồi	-7.01915
▁m	-7.02089
▁cô	-7.02116
▁xem	-7.02671
▁liệu	-7.02675
▁vị	-7.02759
▁trọng	-7.03201
▁độ	-7.03206
▁hoá	-7.03293
▁thích	-7.03861
▁đồng	-7.05941
▁giải	-7.06531
▁tr	-7.06786
▁trẻ	-7.08605
▁lượng	-7.08805
▁hai	-7.09138
o	-7.09661
▁ai	-7.09785
▁thường	-7.10522
▁B	-7.11293
▁đều	-7.11369
▁quá	-7.11806
▁tiên	-7.12043
▁Một	-7.12198
▁sáng	-7.12746
▁đối	-7.1276
▁do	-7.12943
▁hiểu	-7.14165
▁quả	-7.14774
▁tâm	-7.14874
▁nay	-7.14964
▁loại	-7.15411
▁giống	-7.15658
▁lần	-7.15924
▁Vì	-7.15975
▁cứu	-7.16514
▁bệnh	-7.17369
▁bao	-7.17418
▁thống	-7.17438
▁viên	-7.18838
iều	-7.1936
-	-7.19469
▁nghệ	-7.2064
▁điểm	-7.21159
▁l	-7.21548
▁Vậ	-7.21613
▁nghĩa	-7.21674
▁gọi	-7.21686
▁Có	-7.21753
▁nhỏ	-7.22729
h	-7.23612
▁mô	-7.23656
▁hoàn	-7.2453
▁Họ	-7.25245
▁đưa	-7.25587
▁nghiệm	-7.2654
▁tác	-7.27371
▁đường	-7.27631
▁vẫ	-7.27883
▁khoả	-7.2903
▁cố	-7.29882
▁xả	-7.30703
▁thuật	-7.31331
▁bên	-7.31784
▁biệt	-7.31791
▁dân	-7.32016
▁dự	-7.32069
▁giá	-7.32155
▁dùng	-7.32165
▁đại	-7.32275
▁hoặc	-7.32316
▁triển	-7.33993
▁lúc	-7.34167
▁chuyển	-7.34211
p	-7.3428
▁diễn	-7.34682
hững	-7.35015
▁ma	-7.35663
▁trị	-7.35859
▁quyết	-7.35956
▁từng	-7.3668
▁nghe	-7.36691
▁cao	-7.36702
▁ăn	-7.37445
▁tuyệt	-7.38488
▁mỗi	-7.38817
▁cầu	-7.39076
▁kế	-7.39737
▁lực	-7.40102
▁thu	-7.40382
▁chất	-7.40563
▁phụ	-7.40767
▁khá	-7.41011
.	-7.42165
▁lời	-7.42955
▁giáo	-7.43098
▁giúp	-7.43474
▁đất	-7.43833
▁ơn	-7.44212
ắc	-7.44249
▁trung	-7.45044
▁cá	-7.45392
▁hã	-7.45421
▁bảo	-7.45952
▁nữ	-7.46036
▁tiến	-7.46524
▁hết	-7.46687
▁phòng	-7.46879
▁khả	-7.46961
▁nghiên	-7.4728
▁chưa	-7.47436
▁tình	-7.47472
▁liên	-7.47682
▁xuất	-7.47885
▁xe	-7.47946
▁th	-7.48455
▁phân	-7.49733
▁M	-7.49882
▁Anh	-7.49974
▁tranh	-7.50152
▁em	-7.50325
▁đơn	-7.50367
▁não	-7.50601
▁truyền	-7.50705
▁tập	-7.50746
▁bài	-7.50772
▁tuổi	-7.51075
▁đúng	-7.51181
▁phương	-7.51329
▁điện	-7.51371
▁khoa	-7.51431
▁bình	-7.51528
▁sản	-7.51751
▁đặt	-7.51957
▁Khi	-7.5223
▁tượng	-7.52381
▁biến	-7.52592
▁Các	-7.52848
▁tiền	-7.5339
▁giữa	-7.53524
▁yêu	-7.53542
▁2	-7.54151
▁tiếng	-7.54159
▁trả	-7.55648
▁ngay	-7.56307
▁Không	-7.5742
▁thú	-7.57697
▁tay	-7.58544
▁lấy	-7.58568
▁xã	-7.59587
▁bỏ	-7.59623
▁gần	-7.59646
▁ng	-7.59692
▁S	-7.60104
▁hoạt	-7.60269
▁chiến	-7.61033
▁sách	-7.61565
▁đáng	-7.61939
▁Tro	-7.61964
s	-7.62305
▁phẩm	-7.62517
▁cứ	-7.62754
▁thân	-7.62793
▁kh	-7.62862
▁pháp	-7.62904
▁khó	-7.62911
▁trí	-7.62972
▁hiệu	-7.63111
▁cuối	-7.6336
ên	-7.63523
▁v	-7.63652
▁chủ	-7.637
▁dụ	-7.63768
▁đời	-7.63775
▁chơi	-7.64252
▁-	-7.65386
▁sức	-7.65491
▁minh	-7.65505
▁mất	-7.65579
▁kể	-7.6613
▁V	-7.66264
▁Mỹ	-7.66942
▁đồ	-7.67231
▁mạnh	-7.67831
▁bé	-7.68622
▁nghiệp	-7.68783
▁chí	-7.68865
▁ngoài	-7.69023
▁r	-7.6926
▁khí	-7.69321
▁dẫn	-7.69384
▁ít	-7.694
▁đấy	-7.69909
▁lập	-7.6995
▁tài	-7.69993
ân	-7.70052
▁vi	-7.7059
▁loài	-7.70663
▁kỳ	-7.70957
▁bức	-7.71056
▁tinh	-7.71818
▁luôn	-7.72065
▁vô	-7.72248
▁tiêu	-7.73094
▁dựng	-7.73502
▁văn	-7.7357
▁tên	-7.73799
▁cộng	-7.74092
▁âm	-7.74409
▁chứng	-7.74739
ếu	-7.74798
ương	-7.75175
▁tử	-7.75341
▁phố	-7.75498
▁3	-7.75745
▁hướng	-7.75976
▁di	-7.76015
▁nhạc	-7.76568
▁giả	-7.76744
ông	-7.77362
▁x	-7.77457
▁thử	-7.77608
▁ba	-7.78273
▁Hã	-7.78321
▁viết	-7.78403
▁đâu	-7.78644
▁chức	-7.78655
▁kiến	-7.787
▁nguyên	-7.78747
▁quốc	-7.7892
▁bà	-7.79008
▁hạn	-7.79499
▁ứng	-7.79519
▁vời	-7.79617
▁thị	-7.79739
▁chọn	-7.80048
▁chế	-7.80108
▁tư	-7.80207
▁quyền	-7.80322
▁giản	-7.806
▁đặc	-7.80875
▁án	-7.81273
▁chết	-7.82045
▁bào	-7.82079
▁mạng	-7.82096
▁cấp	-7.82396
▁suy	-7.82462
▁khu	-7.82546
▁phá	-7.82718
▁triệu	-7.82838
▁L	-7.83031
▁tăng	-7.83033
▁thần	-7.83414
▁đạo	-7.83889
▁xu	-7.85103
▁lẽ	-7.85277
▁sĩ	-7.85781
▁khỏ	-7.85855
ến	-7.87124
▁cụ	-7.87183
▁đánh	-7.87359
▁mẹ	-7.87393
▁màu	-7.87484
▁vụ	-7.87533
ánh	-7.87759
▁gặp	-7.87924
▁tháng	-7.87992
▁Thế	-7.8821
▁dưới	-7.88283
▁nề	-7.8832
▁H	-7.89594
▁chút	-7.89657
▁xuống	-7.8968
▁xác	-7.89701
▁gắng	-7.9102
▁đá	-7.91483
▁thậ	-7.9191
ắp	-7.92014
▁phép	-7.92146
▁nhóm	-7.92384
▁dịch	-7.92525
▁mở	-7.92537
▁quanh	-7.93067
▁vực	-7.93291
iểu	-7.93439
▁dữ	-7.93585
▁%	-7.93815
▁trò	-7.94277
▁chia	-7.94296
▁bay	-7.94867
▁thêm	-7.94911
▁duy	-7.95299
▁tổ	-7.95635
▁thuyết	-7.9568
▁mức	-7.95856
▁nhanh	-7.95919
▁đàn	-7.96483
▁dạng	-7.96843
▁tươ	-7.9696
▁rõ	-7.97109
▁cực	-7.97132
▁gây	-7.97196
▁quay	-7.9739
▁vọng	-7.97444
▁xa	-7.97983
▁nguồn	-7.98539
▁dù	-7.98849
▁vùng	-7.98979
▁đẹp	-7.99759
▁báo	-7.99939
▁cảnh	-7.9995
ận	-8.0005
▁tục	-8.00195
▁10	-8.0104
▁giác	-8.01092
▁sát	-8.01573
▁dễ	-8.01742
▁càng	-8.01901
▁đủ	-8.01988
▁ví	-8.02016
▁sợ	-8.03096
▁cây	-8.03213
▁nhớ	-8.03245
▁vũ	-8.03281
▁phía	-8.0337
▁trang	-8.03521
▁phim	-8.03566
▁hưởng	-8.03924
▁đoạn	-8.04367
▁ph	-8.04921
▁...	-8.05498
▁kiểm	-8.05638
▁trái	-8.05681
▁thư	-8.05793
▁chú	-8.0637
▁thương	-8.06503
▁Quốc	-8.06773
▁kì	-8.06793
▁Ông	-8.07584
▁dài	-8.07607
▁vòng	-8.07915
ầm	-8.08033
▁ngữ	-8.08286
▁Tạ	-8.08347
▁luận	-8.08357
▁phản	-8.08811
▁chiế	-8.09013
▁Th	-8.0909
ầu	-8.09334
▁Trung	-8.09711
▁đôi	-8.10066
▁đầy	-8.10261
▁Cả	-8.10942
▁dục	-8.1096
▁bố	-8.11226
▁lợi	-8.11337
▁kia	-8.11991
▁so	-8.12202
▁chẳ	-8.12484
▁giảm	-8.12576
▁d	-8.12888
▁thuốc	-8.13039
ằm	-8.13426
▁kiếm	-8.13466
▁quy	-8.13897
▁chân	-8.1405
▁tích	-8.14145
ăm	-8.14203
tham	-8.14451
▁trăm	-8.14489
▁thôi	-8.14719
pos	-8.14941
▁ty	-8.15338
▁s	-8.1589
▁g	-8.16024
▁đình	-8.16246
▁bước	-8.16788
▁Cá	-8.16901
▁giao	-8.17051
▁Người	-8.17378
▁lai	-8.17701
▁sâu	-8.18119
hiếc	-8.18636
▁toán	-8.18862
▁trời	-8.1943
▁sư	-8.19569
▁tồn	-8.19742
▁diện	-8.20054
▁rộng	-8.20756
▁phi	-8.20759
▁giữ	-8.20772
▁trải	-8.208
▁vừ	-8.2085
▁phục	-8.21078
▁thanh	-8.21186
▁Tr	-8.21207
▁lã	-8.21405
▁đô	-8.21526
▁nối	-8.21725
▁địa	-8.21957
▁đoán	-8.21965
▁lòng	-8.22157
▁trụ	-8.22221
▁thuộc	-8.22382
▁riêng	-8.22469
▁20	-8.22583
▁vệ	-8.22731
▁Bở	-8.22763
▁tạp	-8.22799
▁;	-8.22907
▁chi	-8.23108
▁mắt	-8.23352
▁mục	-8.23474
▁!	-8.23601
▁tra	-8.23652
▁phủ	-8.2381
▁đứng	-8.2388
▁dạy	-8.23949
▁nổi	-8.24067
▁thí	-8.24138
▁vẻ	-8.24353
▁đạt	-8.2444
▁sai	-8.24968
ứa	-8.25022
▁căn	-8.25332
▁kỹ	-8.25379
▁thúc	-8.25469
▁luật	-8.25483
▁lệ	-8.25588
▁sẻ	-8.25708
▁mẫu	-8.26479
▁xâ	-8.26562
iếc	-8.26672
▁tối	-8.27057
▁lịch	-8.27205
▁bàn	-8.28003
▁đọc	-8.28191
tương	-8.28343
▁tá	-8.28423
▁lớp	-8.28592
▁kỷ	-8.29251
▁yếu	-8.29607
▁Nế	-8.30044
▁D	-8.30062
▁la	-8.30599
▁vui	-8.30941
▁khoẻ	-8.31129
▁tiết	-8.3153
▁ngồi	-8.31693
▁chương	-8.31712
▁chạy	-8.31804
▁Là	-8.32285
▁gái	-8.32533
▁cuốn	-8.32705
▁phí	-8.32748
▁bấ	-8.32813
▁phút	-8.32852
▁cậu	-8.32953
▁trợ	-8.33187
▁mối	-8.33463
▁chắn	-8.34143
▁sắc	-8.34266
▁buổi	-8.34274
▁Phi	-8.3481
▁hầu	-8.34912
▁suốt	-8.35019
▁5	-8.35639
▁kiện	-8.35732
▁biển	-8.36182
▁trúc	-8.36318
▁tố	-8.36753
▁chung	-8.37052
▁hoà	-8.3737
▁ngôn	-8.37482
▁Nh	-8.37491
▁mua	-8.37608
▁doanh	-8.37712
▁4	-8.37925
▁R	-8.37958
▁kiểu	-8.38337
▁Thậ	-8.38692
hôm	-8.38726
▁Vâng	-8.38784
▁tỉ	-8.38785
▁ngạc	-8.39272
▁nh	-8.39349
▁cửa	-8.39378
▁sở	-8.39525
--	-8.39711
ào	-8.3985
▁ké	-8.40307
▁cánh	-8.40573
▁xúc	-8.40619
▁xét	-8.40665
▁khám	-8.40911
g	-8.41195
▁ràng	-8.41264
▁thiên	-8.41297
▁lâu	-8.41411
▁thoại	-8.41471
▁tuần	-8.41481
▁bán	-8.4154
▁hiểm	-8.42095
▁h	-8.4241
▁lạ	-8.42729
▁hồi	-8.42834
▁Sau	-8.43266
▁cấu	-8.43561
▁nhiệm	-8.43729
▁dàn	-8.44477
ể	-8.44636
▁phức	-8.44756
▁da	-8.44939
▁kích	-8.45009
▁cha	-8.45031
▁cung	-8.45582
▁chụp	-8.45919
▁chuyên	-8.45966
▁k	-8.46046
▁nhập	-8.46086
ục	-8.46139
Ở	-8.46552
ần	-8.46911
▁bóng	-8.47393
▁trạ	-8.47724
▁kẻ	-8.48008
▁thái	-8.48009
▁cạnh	-8.48138
e	-8.48146
▁sa	-8.48253
▁y	-8.48297
▁ngô	-8.48696
▁TED	-8.49029
▁chứ	-8.49112
▁lí	-8.49198
▁viện	-8.49479
▁độc	-8.49597
▁ghi	-8.49923
▁hữu	-8.49998
▁băng	-8.50056
▁đa	-8.50206
▁chỗ	-8.507
▁ngành	-8.50751
▁hoạ	-8.5141
▁trưởng	-8.51514
▁xin	-8.51816
▁khủng	-8.51905
▁vẽ	-8.51927
▁ích	-8.52384
ự	-8.53424
▁Cô	-8.53737
▁chuẩn	-8.53855
▁bác	-8.54087
▁to	-8.54114
▁quý	-8.54134
iễn	-8.54137
▁phúc	-8.54157
▁ca	-8.54181
▁hoa	-8.54199
▁thiếu	-8.54583
▁Xi	-8.54637
▁Độ	-8.54673
▁chịu	-8.54916
ắm	-8.55095
▁hề	-8.55551
▁khăn	-8.55579
▁lắng	-8.55695
ĩ	-8.55698
▁hạ	-8.55773
▁xanh	-8.5601
▁tấm	-8.56024
ốc	-8.5605
▁sẵn	-8.56259
ăn	-8.56293
▁tệ	-8.5638
▁niệm	-8.56546
▁phạm	-8.56983
▁nhiêu	-8.56993
▁tức	-8.57042
▁đau	-8.57995
▁sắp	-8.58207
▁hơi	-8.58315
▁áp	-8.58383
▁trai	-8.58807
▁an	-8.58865
▁Giờ	-8.58878
▁Thực	-8.5948
▁mặc	-8.59651
ọi	-8.59721
▁dung	-8.59726
âu	-8.59767
▁lạc	-8.60076
▁chống	-8.60289
▁thất	-8.60705
▁xử	-8.60835
▁châu	-8.61552
▁đứ	-8.62058
ẩy	-8.62814
ấp	-8.62982
▁lựa	-8.63105
▁trực	-8.63126
▁hộ	-8.63765
▁hậu	-8.6418
▁cổ	-8.64353
ăng	-8.64558
▁bánh	-8.64608
▁khổ	-8.64684
ch	-8.64752
▁lo	-8.64859
▁vượ	-8.65311
▁nội	-8.65334
▁dò	-8.6544
1	-8.65641
▁khắc	-8.65916
▁tổng	-8.66005
▁mo	-8.66028
▁mật	-8.66108
▁ban	-8.66341
▁xấu	-8.66416
▁tỷ	-8.66419
▁toà	-8.66545
▁gử	-8.66695
▁dần	-8.6673
▁30	-8.66908
▁ẩn	-8.66944
ôi	-8.6706
▁nguy	-8.67067
▁Ý	-8.67814
▁đội	-8.67857
▁hứng	-8.67975
▁thiện	-8.68121
▁u	-8.68147
▁hạt	-8.68835
▁tim	-8.69036
▁vậ	-8.69698
▁lưu	-8.69946
ấu	-8.69976
▁Ấn	-8.701
▁danh	-8.70225
▁nhiệt	-8.70433
ập	-8.70988
▁chiều	-8.71004
▁kê	-8.7116
▁ô	-8.71205
▁dầu	-8.71651
▁K	-8.71767
▁niề	-8.71784
ắt	-8.72091
ao	-8.72458
▁tội	-8.72812
▁nghèo	-8.72939
▁nghi	-8.73239
▁nạn	-8.73276
▁ngoại	-8.73295
▁cận	-8.73862
▁Ch	-8.73974
▁kính	-8.74361
▁Do	-8.74383
ối	-8.74442
▁chữa	-8.74551
▁qu	-8.74891
▁Châu	-8.75013
▁đấu	-8.75144
▁dấu	-8.75203
▁New	-8.75251
▁nỗi	-8.76308
▁thủ	-8.76907
▁đố	-8.76955
▁già	-8.77268
▁hát	-8.77322
▁hô	-8.77392
▁thách	-8.77497
ấy	-8.77591
▁50	-8.78105
▁đen	-8.78206
▁mù	-8.78314
▁may	-8.7834
▁giấy	-8.78708
▁tắc	-8.7888
▁G	-8.78965
▁ngược	-8.79084
▁tả	-8.79115
▁khách	-8.79383
▁chữ	-8.79416
▁nuôi	-8.79429
ấn	-8.79555
▁100	-8.79835
▁hy	-8.79959
▁bại	-8.8054
▁ước	-8.80586
▁nghị	-8.81138
▁6	-8.81328
▁soát	-8.81621
▁Con	-8.81859
▁ngủ	-8.82478
▁lĩnh	-8.82547
▁nửa	-8.82553
▁tiện	-8.82614
▁lỗi	-8.82661
▁Tây	-8.82666
▁mơ	-8.8278
▁quản	-8.82817
▁hoạch	-8.82943
▁thi	-8.83226
▁gồm	-8.83684
▁nhiễm	-8.83862
▁cư	-8.83893
▁dương	-8.84153
▁khố	-8.84328
▁khiển	-8.84451
▁sóc	-8.84825
▁cắt	-8.85136
▁giết	-8.86012
▁thẳng	-8.86386
▁mã	-8.86472
▁ngờ	-8.86611
▁quen	-8.86782
▁hại	-8.86818
▁quân	-8.86987
▁cử	-8.87043
▁tàu	-8.87137
▁trừ	-8.8719
▁dây	-8.87421
▁đích	-8.8776
▁lưới	-8.87927
▁bày	-8.8802
▁chiếu	-8.8809
▁đức	-8.88109
▁nhờ	-8.8813
▁Chỉ	-8.88325
▁thấp	-8.88641
▁mê	-8.88942
▁đông	-8.8904
▁đổ	-8.891
▁cười	-8.89348
▁niên	-8.89535
▁đêm	-8.89579
▁lái	-8.90029
▁khai	-8.90345
▁phóng	-8.90366
▁dàng	-8.90437
▁sàng	-8.90527
▁khoá	-8.90613
▁ngắn	-8.90928
▁xếp	-8.90945
▁rối	-8.90989
ẩn	-8.91159
▁gốc	-8.91179
▁Ph	-8.91334
▁kỉ	-8.91555
▁gấp	-8.91973
▁đo	-8.92075
▁phong	-8.92079
▁đem	-8.92324
▁/	-8.92347
▁đỡ	-8.92613
▁hồ	-8.93154
▁bạo	-8.93269
▁giây	-8.93321
ằng	-8.9344
▁lắm	-8.93495
í	-8.94114
ường	-8.94212
▁trách	-8.94252
▁Rồ	-8.94388
▁gắn	-8.94412
▁vai	-8.94988
▁cáo	-8.95009
▁tù	-8.95218
▁thụ	-8.95395
▁bốn	-8.95564
▁ngàn	-8.95601
▁đợi	-8.9592
▁Bà	-8.95998
▁tôn	-8.96388
▁bí	-8.97008
▁đóng	-8.97311
ơi	-8.97349
Với	-8.97556
▁hài	-8.97636
▁xuyên	-8.9767
▁chị	-8.98141
▁nhảy	-8.98545
▁lộ	-8.98749
▁chuyến	-8.98956
▁siêu	-8.99191
▁dừng	-8.99201
âm	-8.99495
▁thoả	-8.99534
▁Hiệ	-8.99545
▁&#9	-8.9983
ừng	-9.0027
▁&#93;	-9.00498
▁nghiê	-9.00563
▁ký	-9.00734
▁lao	-9.0099
ỗi	-9.00994
▁chá	-9.01046
▁tầng	-9.01175
▁15	-9.01223
▁đảm	-9.01423
▁chim	-9.02064
▁ảo	-9.02301
▁Tuy	-9.02524
▁phổ	-9.02632
▁hấp	-9.02688
▁video	-9.02987
▁tải	-9.03147
rời	-9.03161
ẻ	-9.03569
ù	-9.04082
à	-9.04474
▁lá	-9.04595
▁Ai	-9.0472
▁lồ	-9.04753
ước	-9.04983
▁món	-9.05266
▁nhắc	-9.05276
▁rừng	-9.05363
úng	-9.05671
▁Nam	-9.05722
▁góc	-9.06255
▁Internet	-9.06483
ưa	-9.06607
▁thải	-9.07122
▁khở	-9.07141
▁hút	-9.07207
òn	-9.07478
▁chỉnh	-9.07514
▁gen	-9.07576
▁Việ	-9.07715
▁thơ	-9.07746
▁hộp	-9.07774
▁Ta	-9.07927
▁luyện	-9.0816
▁Được	-9.08313
▁ổn	-9.08423
▁nam	-9.08439
▁Âu	-9.08671
▁khuôn	-9.08798
iết	-9.09031
▁tín	-9.09419
▁giàu	-9.09546
▁chuột	-9.09623
▁cập	-9.09791
▁trù	-9.09811
ền	-9.09932
▁nhu	-9.09944
▁X	-9.1056
▁chà	-9.10579
▁đỏ	-9.1064
ảy	-9.10667
▁liệt	-9.10888
▁Cho	-9.10977
▁coi	-9.11073
▁tấn	-9.11298
▁Hoa	-9.11404
▁tuyến	-9.1186
▁phận	-9.11946
▁thắng	-9.1211
ẫu	-9.123
▁Trá	-9.13017
▁màn	-9.13273
▁Chúa	-9.13646
▁đảo	-9.13978
▁huỷ	-9.13983
▁nặng	-9.14124
▁khiế	-9.14178
▁Từ	-9.14338
▁hẳn	-9.14345
▁vĩ	-9.14416
▁mềm	-9.1465
▁dậy	-9.14651
▁phẫ	-9.14921
▁chứa	-9.15055
▁vân	-9.15106
▁York	-9.15121
▁mấy	-9.16076
▁khoản	-9.1612
▁môn	-9.16311
▁cà	-9.16358
inh	-9.16426
▁mạch	-9.16791
▁Bắc	-9.16892
▁quyển	-9.16985
▁mẽ	-9.17321
iếng	-9.17389
▁điển	-9.17533
▁ống	-9.17619
▁chóng	-9.17648
▁buộc	-9.1767
▁dưỡng	-9.17784
▁máu	-9.17832
▁sóng	-9.17848
▁cũ	-9.18155
▁sơ	-9.1853
▁Công	-9.18544
▁A	-9.18582
▁linh	-9.18675
▁in	-9.19306
▁7	-9.19511
▁dõi	-9.19653
▁uống	-9.19663
▁buồn	-9.19814
▁Ngà	-9.19824
▁khán	-9.19835
▁loạn	-9.19971
▁chờ	-9.19985
▁8	-9.20096
iêu	-9.20104
▁robot	-9.20193
▁Kỳ	-9.20197
▁tồi	-9.20232
▁mắn	-9.20619
▁Nga	-9.20756
▁điên	-9.20982
▁Thứ	-9.21102
▁lầm	-9.2125
▁vững	-9.21289
▁tảng	-9.21372
▁hi	-9.21604
ữa	-9.21733
▁nô	-9.22225
▁góp	-9.22674
▁chủng	-9.22731
▁lan	-9.22885
▁hãi	-9.22959
▁thưởng	-9.22989
ệt	-9.2305
ốn	-9.23075
eo	-9.23116
▁9	-9.23387
ỏng	-9.23404
▁tường	-9.23994
▁40	-9.24059
▁sửa	-9.24243
uyên	-9.24793
▁đèn	-9.25264
▁12	-9.25396
▁lạnh	-9.25443
ã	-9.2569
▁ủng	-9.26154
▁mái	-9.26194
êu	-9.26406
▁thả	-9.26557
▁du	-9.26624
▁trắng	-9.26677
▁bảng	-9.26739
▁tộc	-9.26947
▁lẫn	-9.26996
▁tờ	-9.27066
▁tổn	-9.27217
ùng	-9.27386
▁đỉnh	-9.27544
▁diệu	-9.27836
▁núi	-9.28122
▁web	-9.28376
uổi	-9.28961
▁trì	-9.29515
▁Đông	-9.29767
ễ	-9.29777
▁tiểu	-9.2988
▁chó	-9.29949
ật	-9.3003
▁tô	-9.30063
ép	-9.30222
▁giọng	-9.30349
▁bề	-9.30474
▁áo	-9.30893
▁tốn	-9.31022
▁ấn	-9.3104
▁trận	-9.31132
▁trồng	-9.31176
ành	-9.31233
▁hảo	-9.31343
▁quên	-9.31351
▁giỏi	-9.31441
▁200	-9.31878
▁Hồi	-9.32407
▁chạm	-9.32672
▁ngừ	-9.32673
▁kim	-9.33294
▁cỡ	-9.33329
▁sâ	-9.33383
▁nhé	-9.33397
▁thù	-9.33471
▁mãi	-9.33629
▁khuẩn	-9.3363
▁cầm	-9.33657
▁bền	-9.34079
▁bật	-9.3411
▁Liệ	-9.34312
▁phấn	-9.3456
▁gi	-9.34876
hẳng	-9.34894
▁sánh	-9.34959
▁tiề	-9.35012
▁chố	-9.35156
▁hôn	-9.35569
▁nghỉ	-9.35769
▁chấm	-9.35873
▁19	-9.35991
▁Đại	-9.36119
▁vợ	-9.36272
▁hoảng	-9.36658
▁rơ	-9.36763
▁mời	-9.36805
▁khích	-9.36841
▁quần	-9.37409
▁tha	-9.37452
▁bang	-9.37656
▁lửa	-9.37722
▁hào	-9.37821
uỗi	-9.37893
▁vỡ	-9.38054
▁điệu	-9.38077
hiển	-9.38079
▁ghế	-9.38344
▁hỗ	-9.38372
▁xương	-9.38585
▁hổ	-9.38666
▁nổ	-9.38853
▁đừng	-9.38894
ia	-9.38997
▁tách	-9.39406
▁Ba	-9.39642
▁dường	-9.39709
er	-9.39712
▁18	-9.39712
ợ	-9.39787
▁rút	-9.40052
▁ong	-9.40056
▁kịch	-9.40344
▁khẩu	-9.40352
▁chảy	-9.40618
▁sót	-9.40718
▁thịt	-9.40799
▁biên	-9.40802
ẽ	-9.40837
▁gió	-9.40991
▁Mà	-9.41267
▁phối	-9.4162
▁sớm	-9.41661
▁gợ	-9.41995
▁loạt	-9.42007
▁I	-9.42169
▁thoát	-9.42216
▁bè	-9.42229
▁khứ	-9.42688
▁chồng	-9.42787
▁chậm	-9.4281
▁dĩ	-9.43143
▁tàn	-9.43315
▁Ồ	-9.43361
▁sạch	-9.43381
ghề	-9.43465
▁Qu	-9.43679
ảnh	-9.43841
▁tắt	-9.44015
ảo	-9.44022
▁giấc	-9.4405
hắc	-9.44517
▁lặp	-9.45151
▁suất	-9.45508
ức	-9.45802
▁J	-9.46151
d	-9.46491
▁quỹ	-9.46503
▁lỗ	-9.47147
▁25	-9.47453
▁80	-9.47655
▁nghì	-9.47798
▁E	-9.47832
▁trưng	-9.47943
▁phê	-9.48086
▁ngại	-9.48292
uộc	-9.48614
▁túi	-9.48728
▁nâ	-9.4891
▁Google	-9.48914
▁sông	-9.49007
▁trữ	-9.49018
ở	-9.49358
▁bờ	-9.49498
▁tán	-9.49683
▁nguyện	-9.49739
▁thiệ	-9.50055
▁dặm	-9.50129
▁đe	-9.50484
▁kiệm	-9.50549
▁thước	-9.50561
▁khuyế	-9.51164
▁trại	-9.51269
▁Hay	-9.5133
▁chặ	-9.51854
▁cờ	-9.51979
▁sỹ	-9.52715
▁11	-9.52946
A	-9.52976
ực	-9.5316
▁né	-9.53183
õ	-9.53241
son	-9.53529
▁mỏ	-9.53582
▁nhẹ	-9.53593
▁nóng	-9.53648
▁nhắn	-9.53944
ếp	-9.53977
▁Cuố	-9.54135
▁bơi	-9.54219
k	-9.54221
▁vỏ	-9.54239
on	-9.5459
▁ghép	-9.54661
▁60	-9.54675
ý	-9.54762
ung	-9.54965
▁thở	-9.55089
en	-9.55121
▁thăm	-9.55253
▁nhị	-9.55383
▁rẻ	-9.55852
▁thảm	-9.56528
▁Mặ	-9.56563
▁nỗ	-9.56571
▁dã	-9.56797
▁nhật	-9.56966
▁tàng	-9.57069
▁lặng	-9.57341
▁chu	-9.57523
▁bọn	-9.57878
▁sáu	-9.58149
ược	-9.5831
▁Hai	-9.58469
▁Nhật	-9.58551
▁lọc	-9.58615
▁Bản	-9.58666
▁tụ	-9.59223
▁lố	-9.59319
▁hùng	-9.59398
ống	-9.59415
▁trống	-9.59426
ũng	-9.59467
ẩm	-9.59618
▁rác	-9.59652
▁Gi	-9.59683
▁bò	-9.60132
iện	-9.60217
▁đà	-9.60313
▁nấ	-9.6035
▁tròn	-9.6075
▁hà	-9.60866
2	-9.61016
▁ưu	-9.61158
▁đẳng	-9.61437
▁vế	-9.6151
▁doạ	-9.61779
▁voi	-9.61793
▁Bộ	-9.61793
▁Ng	-9.61798
ượng	-9.62107
▁Đất	-9.62249
▁ghé	-9.62536
r	-9.63045
▁đam	-9.63105
▁mùi	-9.63167
▁Hà	-9.6384
▁can	-9.63883
▁đựng	-9.63957
▁thừa	-9.6433
▁thác	-9.64638
▁đoàn	-9.65554
▁HIV	-9.65976
ặc	-9.66199
▁Theo	-9.66504
▁xứ	-9.66851
▁nhuận	-9.66901
▁quang	-9.66935
êm	-9.66943
ồng	-9.67113
▁thang	-9.67696
▁đạp	-9.6777
▁dị	-9.68235
▁Đức	-9.68469
▁lược	-9.68692
▁Dù	-9.68706
ịch	-9.68804
▁khô	-9.68865
▁nhựa	-9.69041
▁cãi	-9.69051
ề	-9.69054
▁Nào	-9.69199
▁sốt	-9.69497
▁90	-9.69519
▁đế	-9.69589
▁khấu	-9.69616
l	-9.69695
▁tật	-9.69701
▁chặn	-9.69902
▁P	-9.70226
ặp	-9.70267
▁đò	-9.70556
▁ngoái	-9.70826
ấm	-9.70889
▁hè	-9.70893
ong	-9.70934
▁mừng	-9.7149
▁thai	-9.71767
▁huố	-9.71805
▁ngang	-9.71817
,000	-9.7182
hìn	-9.7185
▁yên	-9.71901
▁dà	-9.71926
ũ	-9.71938
▁Em	-9.72094
▁vú	-9.72265
▁diệt	-9.72281
▁$	-9.72645
▁mại	-9.72791
▁Phả	-9.72843
▁thao	-9.72903
▁giảng	-9.73062
▁xoá	-9.73151
▁hương	-9.73357
ình	-9.73505
▁tràn	-9.73552
▁sổ	-9.73574
ét	-9.73611
▁70	-9.73731
▁ko	-9.73803
▁Á	-9.74096
▁thận	-9.74252
▁chép	-9.74253
▁tỏ	-9.7435
▁mộ	-9.74434
▁đùa	-9.74616
▁vong	-9.74623
▁tri	-9.74704
hiến	-9.7576
ỷ	-9.75883
▁mây	-9.76146
▁ám	-9.76228
▁mập	-9.76687
▁Ả	-9.76791
▁mực	-9.76997
▁bom	-9.77115
hập	-9.77436
▁nhạ	-9.77524
oặc	-9.77669
▁ADN	-9.77836
▁súng	-9.7795
úc	-9.78106
ính	-9.78258
▁hiếm	-9.78334
▁bắn	-9.78341
▁chán	-9.78645
ọc	-9.78699
▁trào	-9.78733
▁thổ	-9.78759
▁tiêm	-9.78862
ơn	-9.79133
hiếp	-9.79156
▁va	-9.79268
ỡ	-9.79471
▁ngọn	-9.79523
▁cát	-9.79555
te	-9.79735
▁Mẹ	-9.79797
▁móc	-9.79874
▁kí	-9.79947
▁lừa	-9.80375
óm	-9.80592
▁ro	-9.80684
▁liền	-9.80813
▁Pháp	-9.80819
ạo	-9.80877
▁dối	-9.80896
▁óc	-9.80978
▁Bằng	-9.80981
▁gỗ	-9.81304
▁mả	-9.81315
▁John	-9.81441
▁thờ	-9.81548
▁đua	-9.81942
▁cứng	-9.81948
▁béo	-9.82176
▁nhấ	-9.82332
uỳ	-9.82794
▁thầy	-9.83355
▁lũ	-9.83668
▁mạc	-9.83771
▁căng	-9.83797
▁bậc	-9.83822
▁cỏ	-9.84038
▁sụ	-9.84096
▁Thái	-9.84119
▁ạ	-9.84231
▁hoàng	-9.84296
▁ngưỡng	-9.84371
▁hối	-9.84525
▁che	-9.84885
iệp	-9.84986
▁ác	-9.84989
ton	-9.85103
▁cam	-9.85659
▁rượu	-9.85904
D	-9.85932
▁khung	-9.85976
▁thuyền	-9.86009
.000	-9.86109
▁dư	-9.86112
▁táo	-9.86334
us	-9.86428
▁Al	-9.86496
▁mét	-9.86587
el	-9.86779
ậu	-9.86937
▁nhũng	-9.86988
▁côn	-9.87285
ẩu	-9.87332
▁hỗn	-9.87469
▁Hô	-9.87505
▁16	-9.87527
▁vâng	-9.87539
▁mì	-9.87615
▁bi	-9.88114
uấn	-9.88143
éo	-9.88327
▁cú	-9.88556
▁bó	-9.88753
▁cản	-9.88827
hay	-9.89004
▁ức	-9.89056
▁Iran	-9.89144
▁bã	-9.89453
▁lành	-9.89783
▁ngón	-9.90162
▁thọ	-9.90218
▁nút	-9.90227
▁rủ	-9.90416
▁ngu	-9.9058
▁tỉnh	-9.90667
▁mồ	-9.90773
rước	-9.90882
▁truy	-9.91196
▁Afghanistan	-9.91292
▁hắn	-9.91307
▁mò	-9.91581
áu	-9.91818
ưởng	-9.9213
▁hồn	-9.92145
es	-9.92222
▁tò	-9.92307
ua	-9.92388
▁David	-9.92407
▁mạo	-9.92534
▁gọn	-9.93127
▁à	-9.93146
▁túc	-9.93148
▁thiểu	-9.93401
xoay	-9.93482
▁hư	-9.93531
▁protein	-9.93533
▁cỗ	-9.93927
▁phán	-9.93961
▁mũi	-9.94033
▁trứng	-9.9413
▁song	-9.94239
▁giận	-9.94255
▁thạch	-9.94765
ậy	-9.94793
▁Liê	-9.9482
▁đắn	-9.95593
▁W	-9.95981
▁khiếp	-9.96025
▁thiệp	-9.96108
▁dày	-9.96228
▁Y	-9.96267
in	-9.96303
▁gà	-9.96396
▁xong	-9.96591
ội	-9.96617
huỵ	-9.96653
▁rồ	-9.9682
ê	-9.96941
▁hước	-9.9705
▁cột	-9.97164
la	-9.97367
▁Cơ	-9.97401
▁thánh	-9.97484
▁phó	-9.97543
▁Kế	-9.97619
▁TV	-9.97625
▁lộn	-9.97733
ười	-9.97798
ách	-9.9795
▁huy	-9.97985
▁21	-9.98017
▁cụt	-9.98168
▁14	-9.98171
▁truyện	-9.98179
▁tóc	-9.98277
▁xưa	-9.98883
▁răng	-9.98968
▁tuy	-9.99106
▁dọc	-9.99407
▁mát	-9.99498
▁nơ	-9.99801
▁bạc	-9.99913
▁rưỡi	-9.99968
▁đài	-9.99981
▁huyết	-10.0001
▁lù	-10.0006
▁pha	-10.0053
▁miền	-10.006
▁Lú	-10.0062
áp	-10.0063
▁17	-10.0094
▁tặng	-10.0118
▁đĩa	-10.012
▁gương	-10.0151
hảo	-10.0161
▁ấm	-10.0229
▁xạ	-10.0239
▁vườn	-10.0242
▁nhỉ	-10.0243
▁ngài	-10.0253
uỷ	-10.0263
▁trộn	-10.0304
▁ổ	-10.0314
hính	-10.0318
ời	-10.0331
▁quê	-10.0335
▁Israel	-10.0367
▁ư	-10.0375
hiệu	-10.038
▁Tổ	-10.0398
▁khóc	-10.0412
▁than	-10.0432
▁tạ	-10.0461
▁Lan	-10.0472
▁lẻ	-10.0474
▁vả	-10.0484
huyện	-10.0491
▁dính	-10.0498
▁U	-10.0506
uyển	-10.0518
▁mai	-10.0524
▁miệng	-10.0556
▁đớn	-10.0557
iệt	-10.0584
▁tuệ	-10.062
oá	-10.0652
▁À	-10.0685
▁hẹn	-10.0689
▁hả	-10.0717
▁bọ	-10.073
man	-10.0741
▁Giáo	-10.0757
▁lỏng	-10.0771
▁ngầm	-10.0791
ầy	-10.0803
▁game	-10.0812
▁Facebook	-10.0815
▁kho	-10.0852
▁vuông	-10.0882
▁kiên	-10.0883
ới	-10.0888
▁đậu	-10.0897
▁bắc	-10.0913
▁mãn	-10.092
▁cốc	-10.0956
ùa	-10.0958
▁24	-10.0969
▁bạch	-10.0975
▁tí	-10.0983
▁phổi	-10.0985
▁lão	-10.0999
▁Gia	-10.1015
▁bổ	-10.1047
▁cường	-10.105
▁ga	-10.1056
▁hố	-10.1074
▁Cực	-10.1098
▁rô	-10.1137
▁California	-10.1148
▁bột	-10.1153
▁pin	-10.116
▁Mĩ	-10.1175
▁thoảng	-10.1176
▁13	-10.1184
an	-10.1202
▁DNA	-10.1217
▁hằng	-10.1224
▁The	-10.1246
▁500	-10.1255
▁O	-10.1269
▁nướng	-10.1296
▁hứa	-10.1301
▁leo	-10.1304
▁ngã	-10.1304
▁buôn	-10.1307
▁hạng	-10.1309
▁Ban	-10.131
òng	-10.1334
▁Giá	-10.136
▁đảng	-10.1371
▁ngự	-10.1378
▁gã	-10.1402
▁Thờ	-10.1423
▁giày	-10.1492
▁su	-10.1496
▁Kinh	-10.15
uân	-10.1528
▁nét	-10.1531
▁chăng	-10.1555
▁hoại	-10.1559
▁OK	-10.1564
▁Bố	-10.1571
▁lưng	-10.1572
▁ti	-10.1603
▁tuyết	-10.1636
▁quà	-10.1649
▁xí	-10.1652
▁mẻ	-10.1665
ẳng	-10.1682
ỗ	-10.1688
▁tĩnh	-10.1708
▁vắc	-10.1715
▁Chris	-10.1726
ích	-10.1733
▁ly	-10.1777
▁kèm	-10.1783
▁mèo	-10.1784
▁Nhân	-10.1806
▁Toà	-10.181
ạch	-10.181
▁Khán	-10.1817
▁dán	-10.1853
▁tây	-10.1866
ởi	-10.1875
▁trà	-10.1878
▁quán	-10.1886
▁trăng	-10.1891
ore	-10.1908
hiệp	-10.191
▁gói	-10.1925
▁trú	-10.1929
▁bụng	-10.193
▁F	-10.1935
hỉnh	-10.1995
▁hỏng	-10.2003
▁lăn	-10.2034
▁chợ	-10.2049
▁lõ	-10.2057
▁Mexico	-10.2071
▁blog	-10.2074
▁phì	-10.2102
ụ	-10.211
▁Bill	-10.2116
▁tám	-10.2133
▁mờ	-10.2144
▁email	-10.2146
▁tiệc	-10.2147
ghệ	-10.2147
▁giấu	-10.215
▁cong	-10.2168
▁Số	-10.2178
▁trần	-10.2195
▁thó	-10.2205
▁2000	-10.2225
▁tị	-10.2235
▁cự	-10.2239
▁sàn	-10.227
▁Khoản	-10.2273
ừa	-10.2283
▁Canada	-10.2297
▁dứt	-10.2298
S	-10.2312
▁lệnh	-10.2374
▁heo	-10.2379
▁phiền	-10.2384
ốt	-10.2384
▁ngon	-10.2388
▁chìm	-10.2391
▁Cứ	-10.2392
▁trốn	-10.2395
▁Hộ	-10.2396
ướng	-10.2407
▁lặn	-10.2447
▁Brazil	-10.245
▁kẹ	-10.2457
▁bão	-10.2463
ron	-10.251
▁Giả	-10.251
▁ngọt	-10.2529
▁giơ	-10.2531
▁tung	-10.2556
▁AIDS	-10.2605
▁Kenya	-10.2606
▁cụm	-10.2607
▁thoá	-10.2608
▁bụ	-10.2621
▁Úc	-10.2684
▁virus	-10.2688
▁mệnh	-10.2692
▁quí	-10.2692
▁Điển	-10.2697
▁Dự	-10.2705
ám	-10.2719
▁300	-10.2739
▁thuế	-10.2767
▁vò	-10.2769
▁and	-10.2774
▁Trường	-10.2774
▁nho	-10.278
▁cúm	-10.2808
▁quái	-10.2826
▁Paul	-10.2839
▁San	-10.2862
▁hang	-10.2868
▁trưa	-10.2874
àng	-10.2897
▁hàm	-10.2901
▁London	-10.2924
▁lề	-10.2931
▁sữa	-10.2935
ải	-10.2967
▁dáng	-10.297
quang	-10.2975
ệp	-10.3014
▁lô	-10.3018
▁Rập	-10.3018
huyền	-10.3022
▁im	-10.3028
▁La	-10.3087
▁tuý	-10.3089
▁Ho	-10.3096
▁san	-10.3097
▁khỉ	-10.3112
▁tủ	-10.313
▁Điề	-10.3147
▁khoan	-10.3151
▁Tiếp	-10.3173
▁rét	-10.3179
hấp	-10.3185
▁cấm	-10.3193
▁ngắm	-10.3203
▁Hy	-10.3217
▁tân	-10.324
z	-10.3244
▁Chà	-10.3249
▁kị	-10.3253
hậm	-10.3296
ợt	-10.3298
▁gián	-10.3324
ine	-10.3335
–	-10.3337
▁bù	-10.3345
▁khuy	-10.3365
v	-10.3415
óc	-10.3441
le	-10.3448
▁Chủ	-10.3449
▁muỗi	-10.345
huỷ	-10.3484
▁cưới	-10.3489
mera	-10.3494
▁Iraq	-10.3508
▁lướt	-10.3509
ưỡng	-10.3515
▁CO	-10.3516
▁tháp	-10.3517
ày	-10.3523
▁sứ	-10.3538
ley	-10.3552
▁rãi	-10.3554
▁khôn	-10.3568
▁phú	-10.358
▁Cha	-10.359
▁George	-10.3594
▁nhẫn	-10.3596
▁trượt	-10.3597
ay	-10.3614
▁sơn	-10.3619
▁nở	-10.3619
▁Cộ	-10.3629
▁cuộ	-10.3671
▁chúa	-10.3679
▁Thiên	-10.3685
▁thám	-10.369
▁ngập	-10.3711
▁ngốc	-10.3716
▁Nha	-10.3723
▁kín	-10.3732
0.000	-10.374
▁say	-10.374
▁feet	-10.3768
▁nốt	-10.3782
▁nàng	-10.3784
▁tướng	-10.3786
iên	-10.3814
▁ngư	-10.3817
▁châm	-10.3828
▁GDP	-10.3857
▁lò	-10.3872
▁xóm	-10.3877
▁thính	-10.3885
▁Bao	-10.3924
▁Twitter	-10.3946
▁khớp	-10.3947
ắn	-10.3974
▁bơ	-10.4015
▁thua	-10.4026
huê	-10.403
M	-10.4036
▁nắng	-10.4045
▁Ok	-10.4054
amp	-10.4064
00	-10.4064
uốt	-10.4069
▁vở	-10.4078
▁Hệ	-10.411
▁toả	-10.4128
▁phạt	-10.4129
▁tháo	-10.4134
by	-10.4137
▁sung	-10.4148
▁nhãn	-10.418
▁co	-10.4184
▁củ	-10.4191
▁bớ	-10.4205
▁Nghĩ	-10.4219
▁mạn	-10.4224
▁hầm	-10.4243
▁mũ	-10.425
▁nọ	-10.4252
ie	-10.4261
iệu	-10.4272
G	-10.4276
▁bốt	-10.4295
▁đuôi	-10.4313
▁lông	-10.4313
▁thô	-10.4314
▁Khoa	-10.4315
▁Tự	-10.4329
▁Ôi	-10.4339
▁Thông	-10.4358
▁Bình	-10.4422
C	-10.4461
▁quát	-10.4465
▁Cậ	-10.4472
▁Einstein	-10.4499
▁slide	-10.4499
▁thuẫn	-10.4505
▁nhở	-10.4506
▁150	-10.4543
ra	-10.4549
▁dạ	-10.4573
▁muộn	-10.4595
▁hoả	-10.4616
▁Dương	-10.4634
0,000	-10.4639
▁400	-10.4653
▁quạ	-10.4656
▁Dan	-10.4663
al	-10.4689
▁Khá	-10.4694
▁lát	-10.4709
▁Tin	-10.4713
▁mỹ	-10.4797
▁hòn	-10.4809
▁xoa	-10.4828
K	-10.4847
▁Hoả	-10.4886
▁phẳng	-10.4891
▁thấ	-10.4899
▁bút	-10.491
▁Loạ	-10.491
▁ngực	-10.4912
▁ồn	-10.4913
▁thôn	-10.492
▁Quá	-10.4934
ái	-10.4944
ưu	-10.4964
▁ngoa	-10.4969
▁Washington	-10.4985
▁carbon	-10.4987
ler	-10.4987
▁múa	-10.4989
▁khúc	-10.4995
▁giam	-10.5003
▁đới	-10.5007
▁Quan	-10.5013
▁trấn	-10.5033
▁Cập	-10.5051
▁xô	-10.5058
▁Ngài	-10.5085
▁lụ	-10.5102
▁the	-10.5124
▁phái	-10.5167
▁chả	-10.5173
ệnh	-10.5198
▁rung	-10.522
N	-10.5236
▁Nigeria	-10.5288
▁Charles	-10.5288
▁nghiện	-10.5289
▁websi	-10.5304
ey	-10.5314
▁gố	-10.5367
▁gan	-10.539
▁internet	-10.5391
ảng	-10.5401
▁ráp	-10.5402
▁Phụ	-10.5406
▁mỏi	-10.5407
▁Oh	-10.541
▁hưu	-10.5416
ít	-10.546
▁đỗ	-10.549
▁nhặt	-10.5495
▁Thổ	-10.5497
▁Hình	-10.5504
▁ngộ	-10.5547
▁tu	-10.555
▁lưỡng	-10.5552
▁1000	-10.5568
ài	-10.5594
▁cuồng	-10.5612
▁Tốt	-10.5617
ỹ	-10.5623
▁Na	-10.564
▁vươn	-10.5686
▁Hàn	-10.5703
▁MIT	-10.5707
▁Nghe	-10.5707
▁hẹp	-10.5708
▁2008	-10.5709
▁bá	-10.5723
▁phô	-10.5734
▁Ma	-10.5748
ậm	-10.5772
▁rắn	-10.5785
▁sốc	-10.5786
▁45	-10.5799
▁Adam	-10.5815
▁vé	-10.5826
J	-10.5828
uồng	-10.5843
ẫn	-10.5861
▁Tiến	-10.587
co	-10.5873
▁hồng	-10.5893
hử	-10.5898
▁Joe	-10.5927
▁Los	-10.5935
▁Francis	-10.5948
ỗng	-10.5956
ô	-10.5958
▁dá	-10.596
T	-10.596
▁35	-10.5961
▁dả	-10.5992
▁Chín	-10.6002
ồi	-10.6009
▁rửa	-10.6035
▁0	-10.6036
▁cừu	-10.6036
▁đoan	-10.6037
▁đáo	-10.6049
▁vây	-10.6056
▁non	-10.6058
iểm	-10.6076
▁..	-10.6116
da	-10.6123
▁cạn	-10.6142
▁stress	-10.6144
▁Pakistan	-10.6145
3	-10.6147
▁lọ	-10.615
▁giã	-10.6152
omas	-10.6183
ụt	-10.6187
9	-10.6192
▁đươ	-10.6203
▁Gầ	-10.6224
▁Michael	-10.6237
H	-10.6245
▁Â	-10.6246
▁đạn	-10.6247
▁sạn	-10.6258
▁dẻo	-10.6258
▁tần	-10.6268
▁dạo	-10.6273
▁dâm	-10.6273
▁Xe	-10.6284
hủ	-10.6303
▁gene	-10.6342
▁đồi	-10.6351
ne	-10.6351
▁lận	-10.6365
▁vặ	-10.637
▁vẹn	-10.6375
▁e	-10.6387
▁lệch	-10.6391
ớt	-10.6418
▁de	-10.6422
▁cacbon	-10.6446
ạp	-10.6467
▁cướ	-10.648
▁lợn	-10.6485
▁PM	-10.6486
▁đạc	-10.6487
▁hò	-10.6501
▁Dar	-10.6509
▁manh	-10.6519
▁lờ	-10.6525
▁Sa	-10.6587
▁Haiti	-10.6603
▁long	-10.6615
▁chừ	-10.6644
▁75	-10.6688
ta	-10.6692
▁trán	-10.6703
▁Nghiê	-10.671
▁rau	-10.6715
▁GPS	-10.6719
▁buýt	-10.672
▁2010	-10.6721
▁kẹo	-10.6732
▁dọn	-10.6741
▁Má	-10.6742
▁ham	-10.675
▁Đa	-10.6785
iếm	-10.679
land	-10.6793
▁May	-10.6801
▁phiế	-10.6804
ếm	-10.6809
ỳ	-10.6828
▁Lạ	-10.6852
ắng	-10.686
▁chín	-10.6887
ri	-10.6906
ỏ	-10.6912
▁kiê	-10.6935
▁Ngô	-10.6941
▁mòn	-10.6943
ị	-10.6969
▁Robert	-10.6973
ử	-10.6975
▁bia	-10.6979
hẩm	-10.6981
▁bắp	-10.7071
▁xám	-10.7111
▁rập	-10.7125
▁amp	-10.7126
▁rì	-10.7134
▁vay	-10.7177
win	-10.7189
ói	-10.7194
▁Jame	-10.7206
▁dở	-10.7215
▁ố	-10.7218
▁Di	-10.7256
▁lũng	-10.7287
R	-10.7305
▁chăn	-10.732
▁Hả	-10.7331
▁Richard	-10.7334
▁Tuyệt	-10.7335
▁Lạp	-10.734
▁dồ	-10.7352
▁dốc	-10.7358
▁khói	-10.7373
▁ngừa	-10.7413
▁ồ	-10.7431
▁cương	-10.7441
▁Bang	-10.7445
áo	-10.7463
▁nát	-10.7471
▁Chú	-10.7477
▁lượt	-10.7484
▁Mark	-10.7497
▁kiệ	-10.7514
▁lơ	-10.7515
ma	-10.7542
▁sôi	-10.7556
▁ruộ	-10.7576
com	-10.7591
▁phác	-10.7669
▁ho	-10.7687
▁Bác	-10.7692
▁nản	-10.7699
ice	-10.7699
▁Ben	-10.77
▁Mo	-10.7713
▁iPhone	-10.7714
▁đai	-10.7724
▁hung	-10.7742
èo	-10.7745
▁pho	-10.7752
▁men	-10.776
▁Talk	-10.7845
▁2007	-10.7847
▁NAS	-10.7851
▁Luậ	-10.7859
▁vá	-10.7866
▁dội	-10.787
▁mọc	-10.7878
▁Sinh	-10.7879
▁Dere	-10.7879
ED	-10.7882
hờ	-10.7888
▁qui	-10.7896
▁Quả	-10.7912
▁vượng	-10.7965
▁bách	-10.7968
▁van	-10.798
▁nghiệt	-10.7986
▁võ	-10.7998
▁xăng	-10.8017
▁đẽ	-10.8035
▁xé	-10.8039
▁23	-10.8071
▁Đồ	-10.8109
▁Obama	-10.8114
▁muối	-10.8114
▁Bos	-10.8121
▁tiễn	-10.8122
▁bìa	-10.8131
▁thẳ	-10.8175
▁mỉ	-10.819
▁Steve	-10.8198
ượn	-10.8236
▁giặ	-10.8251
▁ruồi	-10.8251
▁xích	-10.8263
li	-10.8272
▁ngẩn	-10.8289
ce	-10.8325
em	-10.8334
▁chì	-10.8351
ba	-10.8352
▁đắ	-10.8355
ợp	-10.8357
▁Qua	-10.8357
▁of	-10.8374
▁Nob	-10.839
▁lúa	-10.8392
▁hóc	-10.8395
▁trộm	-10.8395
▁Hoà	-10.8431
▁Z	-10.8434
b	-10.8436
▁An	-10.8456
▁Quy	-10.8461
uỹ	-10.8463
ẫy	-10.8468
▁lắc	-10.8469
oài	-10.8489
B	-10.8496
▁sọ	-10.8513
▁gá	-10.8518
úp	-10.8526
▁Wikipedia	-10.853
▁Martin	-10.853
▁gũi	-10.8531
▁Trans	-10.8531
▁mươi	-10.8535
ụp	-10.8546
▁rũ	-10.8547
▁tím	-10.8593
▁mộng	-10.862
▁lân	-10.8632
▁Da	-10.864
rus	-10.8641
▁ngẫm	-10.8673
▁Harvard	-10.8673
▁Peter	-10.8673
▁Big	-10.8678
▁dũ	-10.8678
▁ếch	-10.8694
▁dỗ	-10.871
▁hét	-10.8711
▁Phá	-10.872
▁Giọ	-10.8723
▁tráng	-10.873
▁chẽ	-10.8732
dio	-10.8741
▁há	-10.8746
▁ván	-10.8773
▁hacker	-10.882
▁Paris	-10.882
▁Chị	-10.882
▁Sam	-10.8821
▁nhường	-10.8839
W	-10.8853
de	-10.8907
x	-10.8948
▁sô	-10.896
▁Angeles	-10.8965
▁bẩn	-10.8978
▁Thá	-10.8988
▁cọ	-10.9002
▁Frank	-10.9016
lo	-10.9029
▁vụn	-10.9043
▁Thu	-10.9053
▁Điện	-10.9061
▁bám	-10.9062
ỵ	-10.911
▁Sahara	-10.9115
▁nhạt	-10.9118
▁sáo	-10.912
▁oh	-10.912
▁rỗng	-10.9125
▁soạ	-10.9138
▁mến	-10.9155
▁sắm	-10.9171
▁Eric	-10.9179
▁lánh	-10.9193
▁loa	-10.9226
▁phun	-10.9246
ứt	-10.9253
▁logic	-10.9266
▁nhện	-10.9267
▁mổ	-10.9271
▁Nguyên	-10.9271
▁chôn	-10.9272
▁Tom	-10.9315
▁El	-10.9317
▁ơ	-10.9318
uỵ	-10.9344
▁Đô	-10.9344
▁giọ	-10.9374
▁ngợ	-10.9379
▁Smith	-10.9419
aptop	-10.942
▁2005	-10.942
▁micro	-10.9425
▁vạch	-10.9432
▁nhó	-10.9437
▁---	-10.947
est	-10.9483
▁vờ	-10.95
▁rã	-10.9523
ãy	-10.9542
▁Re	-10.9551
ạm	-10.9556
▁xà	-10.9574
▁Amazon	-10.9576
▁inch	-10.9586
▁sét	-10.9595
▁lỡ	-10.9601
▁huynh	-10.9605
E	-10.9613
▁Van	-10.9629
út	-10.9648
▁đệ	-10.9686
▁nhào	-10.9693
ộp	-10.9715
▁Manhattan	-10.9735
át	-10.9735
▁tivi	-10.9736
L	-10.9737
▁Su	-10.9738
iển	-10.9738
▁run	-10.9743
▁xướ	-10.9751
▁bê	-10.9755
▁léo	-10.9763
▁Sĩ	-10.9791
▁lăng	-10.9819
ward	-10.9844
ill	-10.9871
▁Alzheimer	-10.9896
▁oxytocin	-10.9896
▁tê	-10.9899
▁nano	-10.9904
I	-10.9905
ưới	-10.9955
▁22	-10.9968
▁Tác	-11.0005
▁Tư	-11.0028
chìa	-11.004
od	-11.0054
goài	-11.0055
▁Chicago	-11.006
▁Ừ	-11.006
▁Rwanda	-11.006
▁chớp	-11.0064
ế	-11.0076
▁chuông	-11.0079
▁mó	-11.0088
▁cộ	-11.013
▁ngớ	-11.0135
▁sắ	-11.0138
▁lưỡ	-11.0151
▁27	-11.0169
▁xỉ	-11.0172
▁nạ	-11.0173
▁Gab	-11.0176
▁ái	-11.0198
▁1990	-11.0227
▁nhiễu	-11.0228
▁Sử	-11.0279
▁độn	-11.0315
▁p	-11.0336
▁Kh	-11.0348
f	-11.0353
▁Tra	-11.0367
▁Sub	-11.0372
▁xá	-11.0373
▁kìa	-11.0392
▁Tony	-11.0398
áy	-11.0402
▁000	-11.0408
▁Chưa	-11.0408
kg	-11.0411
▁Web	-11.0436
▁vịnh	-11.0438
▁lui	-11.0457
ịnh	-11.0471
O	-11.0478
ner	-11.0488
▁bồi	-11.0512
▁ron	-11.0517
▁99	-11.0558
ụng	-11.0561
▁Higg	-11.0569
▁Apple	-11.0569
▁đuối	-11.0569
▁Coca	-11.0569
▁hoãn	-11.0569
▁khoăn	-11.0574
▁gậy	-11.0578
▁đôla	-11.0579
▁tuỵ	-11.0585
▁đúc	-11.0618
▁km	-11.0647
ram	-11.066
▁ngụ	-11.0668
ar	-11.0669
▁Vị	-11.0671
▁quặ	-11.0713
▁nàn	-11.072
xi	-11.0722
ghê	-11.0735
▁ngử	-11.0736
▁golf	-11.0744
▁hydro	-11.0744
▁MRI	-11.0745
▁Jim	-11.0746
▁rỉ	-11.0747
ike	-11.075
▁oxy	-11.0751
ờ	-11.0775
lin	-11.0779
▁mỡ	-11.078
▁bồ	-11.0788
as	-11.0811
crip	-11.0823
▁bể	-11.0875
▁rè	-11.0877
▁f	-11.0882
▁tiệm	-11.0923
▁ấu	-11.0923
▁Gates	-11.0923
▁II	-11.0924
ết	-11.0958
ol	-11.0975
▁Jer	-11.0984
▁Quay	-11.0992
▁95	-11.0992
▁cở	-11.1012
▁Uy	-11.1025
▁Chá	-11.1042
▁vứ	-11.1047
anh	-11.1057
xin	-11.1099
▁nghẽn	-11.1104
▁Hạ	-11.1106
▁Times	-11.1108
▁Latin	-11.1122
▁Hi	-11.1124
▁huý	-11.1125
ang	-11.1145
ềm	-11.1165
th	-11.1188
▁gãy	-11.1203
▁St	-11.1205
ựa	-11.1214
▁Chí	-11.1281
▁Green	-11.1286
▁đoạ	-11.1286
▁Henr	-11.129
▁Koran	-11.129
▁Okay	-11.129
▁2004	-11.129
▁2006	-11.1292
▁gien	-11.1294
V	-11.1322
▁nhú	-11.1337
▁Or	-11.1373
▁băn	-11.139
▁vu	-11.1395
▁buồ	-11.141
▁Mô	-11.1418
iêm	-11.1454
▁chù	-11.147
▁súp	-11.1484
▁Khu	-11.1486
▁nhá	-11.15
ủa	-11.1508
▁ướ	-11.1539
oắn	-11.1544
▁Kì	-11.1545
▁Hans	-11.1562
len	-11.1571
▁lam	-11.1609
▁que	-11.162
▁mớ	-11.162
▁hoan	-11.1622
▁600	-11.1629
▁TEDx	-11.1636
▁go	-11.1641
▁65	-11.1644
▁1960	-11.1671
▁1970	-11.1671
▁Rio	-11.1672
▁sướng	-11.1678
▁To	-11.1691
▁mầm	-11.1694
▁Hoàn	-11.1715
ác	-11.174
▁chày	-11.1765
▁War	-11.1771
▁ló	-11.1832
▁vaccine	-11.1869
▁2011	-11.187
▁Wall	-11.1871
▁rộn	-11.1874
▁uốn	-11.1879
▁kề	-11.1884
ơ	-11.1909
▁uy	-11.1924
um	-11.1964
▁250	-11.198
▁giậ	-11.1987
oán	-11.2007
▁li	-11.2016
di	-11.2042
▁Nữ	-11.2059
▁origami	-11.2067
▁Yemen	-11.2067
▁Não	-11.207
▁thắn	-11.2078
der	-11.2082
▁khan	-11.2087
▁nan	-11.2098
▁So	-11.21
▁Kim	-11.2104
▁khùng	-11.2106
▁khen	-11.2121
ian	-11.2172
ly	-11.2181
▁nhã	-11.2192
▁28	-11.221
▁MT	-11.2245
▁YouTube	-11.2271
▁studio	-11.2271
▁piano	-11.2271
▁Brian	-11.2271
▁Congo	-11.2272
ed	-11.2272
▁Lego	-11.2273
▁kem	-11.2279
▁búa	-11.2282
▁kẽ	-11.2285
▁Thư	-11.2292
▁26	-11.2296
▁Chiế	-11.2299
hâm	-11.2302
ter	-11.2303
▁kệ	-11.2309
▁phế	-11.2316
Cola	-11.2317
▁ủi	-11.2333
▁xộn	-11.2361
▁chóc	-11.237
P	-11.2372
▁Ke	-11.239
▁Lớ	-11.2411
▁hông	-11.2426
ệ	-11.244
gen	-11.2445
▁Lin	-11.2458
tles	-11.2464
▁sườn	-11.2465
▁Ka	-11.2466
▁phe	-11.2478
▁Tasmania	-11.2479
▁Uganda	-11.2479
▁Syria	-11.2479
▁Ford	-11.2479
▁Ghana	-11.248
▁3000	-11.2481
▁Bush	-11.2481
▁chíp	-11.2483
▁gạt	-11.2486
▁Sáu	-11.2501
▁rỡ	-11.2502
ow	-11.2509
one	-11.2514
▁choáng	-11.2521
4	-11.2548
ì	-11.2551
▁lu	-11.2564
een	-11.2576
▁xó	-11.2595
▁trá	-11.2601
rễ	-11.2609
▁bế	-11.2649
▁120	-11.2671
▁nha	-11.269
▁Oxford	-11.2692
▁bướm	-11.2692
▁Aristotle	-11.2692
▁FG	-11.2693
▁Đế	-11.2725
▁Đỏ	-11.2738
▁thơm	-11.2738
▁10,000	-11.2746
▁rỗi	-11.2747
re	-11.2748
▁dịu	-11.2755
▁gai	-11.276
▁Car	-11.2765
ạt	-11.2765
▁Jona	-11.2767
▁Go	-11.2778
ence	-11.2792
▁Man	-11.2799
▁tăm	-11.2811
os	-11.2839
▁King	-11.2874
▁Pa	-11.2896
ếch	-11.2902
hì	-11.2902
▁1950	-11.2909
▁Cambridge	-11.291
▁Microsoft	-11.291
▁trọn	-11.2913
▁tạng	-11.2939
se	-11.2966
▁râu	-11.2988
hen	-11.2992
we	-11.2994
▁thề	-11.302
▁vần	-11.3028
clip	-11.3043
30	-11.3066
▁vọ	-11.3073
▁hàn	-11.3078
▁túng	-11.3096
▁NL	-11.3102
▁Josh	-11.3131
▁Taliba	-11.3132
▁Giới	-11.3134
uyền	-11.3158
▁lau	-11.3165
ard	-11.318
ex	-11.3186
▁Flori	-11.3195
▁trễ	-11.3213
oạn	-11.3218
rút	-11.3223
▁85	-11.3224
▁Ja	-11.3232
▁chổ	-11.3235
▁cồn	-11.3251
▁thè	-11.3263
▁bón	-11.3271
▁rò	-11.3284
ham	-11.3312
▁phốt	-11.3318
▁vạn	-11.3325
ó	-11.3333
right	-11.3357
▁Charlie	-11.3359
▁jazz	-11.3359
▁pizza	-11.3359
▁Stanford	-11.3359
▁Địa	-11.3359
▁show	-11.3361
▁dẹp	-11.3361
▁đục	-11.3383
▁Free	-11.3387
▁ní	-11.3396
▁Le	-11.3396
▁32	-11.3397
▁âu	-11.3408
▁hé	-11.3412
▁dơi	-11.3415
▁Đá	-11.343
▁nhi	-11.3456
▁vớ	-11.3459
uel	-11.3459
▁Mạ	-11.3471
ộm	-11.3476
▁Hoàng	-11.3488
▁xế	-11.3491
▁đè	-11.3513
gie	-11.3515
Q	-11.3528
ide	-11.3537
age	-11.3585
org	-11.359
—	-11.3591
▁Texas	-11.3591
▁Abraham	-11.3591
▁Yeah	-11.3592
▁ôtô	-11.3592
▁Xô	-11.3594
▁Sáng	-11.3596
▁Amy	-11.3607
▁rốt	-11.3609
▁Bob	-11.3619
▁bồn	-11.3623
5	-11.3647
▁vẩn	-11.3656
ren	-11.366
▁quad	-11.3666
▁đòn	-11.3667
▁Tim	-11.3697
▁William	-11.3701
cô	-11.3732
▁....	-11.3758
ìm	-11.3803
▁nhộn	-11.3821
ạn	-11.3825
▁Pat	-11.3825
▁entropy	-11.3829
▁online	-11.3829
▁Ước	-11.3829
▁1980	-11.3829
▁Daniel	-11.3831
▁Khả	-11.3868
▁pháo	-11.3874
▁Chế	-11.3902
▁Chứ	-11.3904
▁thỉ	-11.391
ck	-11.3916
U	-11.3921
▁Chi	-11.3947
▁bát	-11.3978
▁Phậ	-11.3993
iền	-11.4035
ảm	-11.4049
our	-11.4057
dy	-11.4061
▁Olympic	-11.4073
▁virút	-11.4078
▁Cụ	-11.4081
▁Mike	-11.4084
▁USD	-11.4118
▁muôn	-11.4142
EO	-11.415
▁33	-11.417
▁ve	-11.4175
▁Wolf	-11.4192
▁Ra	-11.4199
gũ	-11.4269
▁Alex	-11.431
▁Mc	-11.431
▁Brown	-11.4321
▁Youtube	-11.4323
▁Rosling	-11.4323
▁dollar	-11.4324
▁2050	-11.4324
▁Arthu	-11.4326
▁xảo	-11.4343
▁só	-11.4363
▁chay	-11.4366
ver	-11.4372
▁đinh	-11.4379
▁toa	-11.4381
▁bẩy	-11.4439
▁Lib	-11.4468
▁Cam	-11.4506
bon	-11.4507
ượt	-11.4517
▁Se	-11.4524
▁Vương	-11.4525
▁Kiế	-11.4554
▁cent	-11.4561
berg	-11.4575
▁Watson	-11.458
▁Andrew	-11.458
▁Norden	-11.458
▁dì	-11.458
▁Wow	-11.458
ủ	-11.4604
hạch	-11.4607
▁sùng	-11.461
▁Cố	-11.4663
▁lượ	-11.4675
▁Long	-11.4677
▁Pho	-11.4685
▁ngươ	-11.4695
iễu	-11.4723
▁trinh	-11.4735
▁tre	-11.4749
▁29	-11.4778
▁bin	-11.4801
▁Ah	-11.4803
▁Eve	-11.4824
▁Steph	-11.4836
▁Neanderthal	-11.4837
▁Jack	-11.4843
▁World	-11.4843
▁Detroit	-11.4843
▁insulin	-11.4843
▁Scotland	-11.4843
▁Ngoạ	-11.4843
▁Hollywo	-11.4843
▁Palestine	-11.4844
uả	-11.4844
▁Mandela	-11.4844
▁lê	-11.4845
▁Nghị	-11.4848
▁nhăn	-11.4858
▁rổ	-11.4859
is	-11.486
▁tơ	-11.4865
ửa	-11.4872
▁Ray	-11.4876
▁Ted	-11.4882
▁bổng	-11.4883
▁xơ	-11.4889
▁Ven	-11.489
▁Kev	-11.4915
▁Dạ	-11.4916
03	-11.4921
09	-11.4928
col	-11.4935
▁Xu	-11.4939
▁Thị	-11.4941
am	-11.4949
eda	-11.4949
▁Đan	-11.4986
▁chip	-11.5011
▁36	-11.5018
▁Hill	-11.5035
▁Bọn	-11.5038
F	-11.5047
▁nhí	-11.5052
ber	-11.5054
ger	-11.5062
▁khe	-11.5073
▁khuất	-11.5098
▁Ha	-11.5101
▁giàn	-11.5103
▁Jenn	-11.5111
▁Bronx	-11.5113
▁Indonesia	-11.5113
▁Shakespear	-11.5113
▁Singapore	-11.5113
▁Street	-11.5113
▁rặ	-11.5113
▁laser	-11.5113
▁scan	-11.5113
▁Black	-11.5114
▁hẻ	-11.5116
▁hán	-11.5146
▁Nel	-11.5152
▁ki	-11.5154
▁31	-11.5157
▁cẩu	-11.5173
st	-11.5183
▁lay	-11.5195
ọng	-11.5218
▁Ô	-11.5234
▁tua	-11.5236
▁Nguồ	-11.5238
▁khoán	-11.5249
▁toạ	-11.5262
▁Thú	-11.5272
▁South	-11.5275
▁800	-11.5281
uần	-11.5295
erry	-11.5298
▁rà	-11.5299
ten	-11.5313
▁bùn	-11.5318
▁ha	-11.5345
▁In	-11.5377
huyến	-11.5379
▁Vi	-11.5384
▁gặ	-11.5385
▁market	-11.5391
▁Joseph	-11.5391
▁DVD	-11.5391
▁Iceland	-11.5391
▁lử	-11.5391
▁Zealan	-11.5394
▁Xã	-11.5402
▁sỏi	-11.5402
▁Lee	-11.5404
▁Simon	-11.541
▁Ken	-11.5412
▁Nano	-11.542
▁Thí	-11.5424
▁Mos	-11.5424
ỉ	-11.5425
▁kiề	-11.5432
▁Phí	-11.5434
▁na	-11.5439
▁lượn	-11.544
▁rụ	-11.5459
▁37	-11.5464
▁55	-11.5476
ation	-11.5479
▁Wi	-11.5498
▁Montan	-11.5499
ith	-11.5502
▁ngơi	-11.5504
▁Chữ	-11.5528
▁xài	-11.5551
or	-11.556
▁Edi	-11.5561
SW	-11.557
▁á	-11.5579
▁Carol	-11.5589
▁khốn	-11.5609
▁Mac	-11.5611
▁Ca	-11.5624
▁Ga	-11.5628
▁lội	-11.5634
bốt	-11.5645
than	-11.5651
▁nuối	-11.5677
▁Nhạc	-11.5677
▁Albert	-11.5677
▁logo	-11.5679
▁Carolina	-11.5679
▁2002	-11.5684
ka	-11.569
well	-11.5693
20	-11.5708
▁nhược	-11.5717
▁Victor	-11.5725
pe	-11.5736
▁lách	-11.5738
▁Yo	-11.5752
▁Ron	-11.5774
▁Bảy	-11.5776
▁viê	-11.5786
▁mạ	-11.5796
red	-11.5797
▁chốn	-11.5801
▁hở	-11.5814
▁ngào	-11.5821
BC	-11.5823
na	-11.5848
ôn	-11.5863
▁khiếu	-11.5867
hai	-11.5879
ứng	-11.5883
gram	-11.5884
▁cò	-11.5898
▁700	-11.5908
▁Đàn	-11.5912
▁bon	-11.5912
BM	-11.5936
▁Gar	-11.595
way	-11.5965
▁pound	-11.5966
▁chê	-11.5969
▁Mộc	-11.5971
▁toilet	-11.5971
▁devil	-11.5971
▁Gandhi	-11.5971
▁chuộng	-11.5971
▁Silicon	-11.5971
▁click	-11.5975
ak	-11.5975
▁đun	-11.5976
ier	-11.5987
▁dời	-11.5987
▁Alexand	-11.5988
▁ngoạn	-11.599
nhồi	-11.5995
▁quăng	-11.6002
▁đự	-11.6002
▁Lewi	-11.6026
▁cua	-11.604
▁len	-11.6056
aden	-11.6059
▁nắp	-11.6091
▁lấn	-11.6099
▁ngả	-11.6117
▁Băng	-11.613
ph	-11.6131
▁De	-11.6133
atch	-11.6139
fi	-11.6176
▁Sal	-11.62
▁Jane	-11.6245
▁He	-11.6262
ate	-11.6268
▁Khác	-11.627
▁Delhi	-11.6274
▁electron	-11.6274
▁Chile	-11.6274
▁Robot	-11.6275
▁1930	-11.6275
▁1999	-11.6275
▁1900	-11.6277
▁Gô	-11.6278
▁chuối	-11.6289
▁tạc	-11.6292
▁khử	-11.6293
lon	-11.6295
▁Mary	-11.6301
▁ỏi	-11.631
▁cắn	-11.6313
▁ủ	-11.6317
▁vã	-11.632
▁Rằ	-11.6324
▁thỏ	-11.6334
▁môt	-11.634
▁nhát	-11.6345
▁thà	-11.6364
▁Matt	-11.641
et	-11.6434
ữ	-11.6439
▁tước	-11.6471
▁vù	-11.6471
▁ả	-11.6475
ns	-11.6502
▁Hoạ	-11.6502
▁Me	-11.6503
▁tớ	-11.6509
ure	-11.6529
ẹp	-11.6539
ót	-11.6541
ỏi	-11.6543
ổ	-11.6546
&	-11.6554
CD	-11.6565
▁High	-11.6586
▁cafe	-11.6587
pamine	-11.6587
▁Scott	-11.6587
▁2012	-11.659
▁Sarah	-11.6591
▁bì	-11.6592
lpha	-11.6598
▁Sai	-11.6601
ster	-11.6614
ers	-11.6618
▁khiết	-11.6621
▁đạm	-11.6622
▁chạp	-11.6628
ford	-11.6646
▁thốn	-11.6652
to	-11.6653
▁xi	-11.6655
▁cớ	-11.6663
axit	-11.6665
▁cọc	-11.6681
▁Tes	-11.6709
▁Sky	-11.6712
è	-11.6734
▁Che	-11.6736
ưng	-11.6769
▁rạ	-11.6771
▁đọ	-11.6781
▁đan	-11.6784
▁al	-11.6795
▁bar	-11.685
Y	-11.6851
▁dang	-11.6855
▁phả	-11.6869
▁phàn	-11.6888
áng	-11.6895
olly	-11.6895
▁48	-11.6903
ẳn	-11.6904
ville	-11.6909
▁Columb	-11.6909
▁oxi	-11.6909
▁cưỡi	-11.6909
▁Disney	-11.6909
▁xốp	-11.691
▁sờ	-11.6915
▁Stewart	-11.6916
nda	-11.6932
▁nộ	-11.6933
▁xẻ	-11.6933
▁nộp	-11.6937
hành	-11.6939
▁ok	-11.6953
▁Jay	-11.6965
▁no	-11.6976
▁trệ	-11.6982
▁ché	-11.6985
eep	-11.7004
▁thừng	-11.701
õi	-11.7018
ệch	-11.7023
▁Q	-11.7034
▁Trí	-11.7047
ever	-11.705
▁dào	-11.7052
▁suố	-11.7078
▁Baby	-11.7094
▁hoi	-11.712
▁Giữ	-11.7143
ìa	-11.7147
▁gán	-11.7151
▁Tiề	-11.7156
ỉnh	-11.7183
▁Ky	-11.7185
oster	-11.7196
▁lẫ	-11.7202
Global	-11.7207
▁Nick	-11.7209
openha	-11.7242
▁Brooklyn	-11.7242
▁Bosnia	-11.7242
▁1984	-11.7242
▁Nathan	-11.7242
▁Tanzania	-11.7243
▁Johnny	-11.7243
▁Anders	-11.7244
▁Kenne	-11.7246
▁má	-11.726
▁Rose	-11.7262
sey	-11.7269
tic	-11.7271
▁Trò	-11.7276
▁Julian	-11.7282
▁hao	-11.7302
▁gắt	-11.7304
▁bỉ	-11.7312
▁Ki	-11.7317
▁Cy	-11.7342
▁ươ	-11.7343
ad	-11.7361
▁Bồ	-11.7361
bet	-11.7376
ro	-11.7377
▁CP	-11.7377
▁khoác	-11.7405
chi	-11.7414
ax	-11.7415
tan	-11.7416
▁đồn	-11.7454
▁Căn	-11.7459
BA	-11.7482
▁Maya	-11.7486
rt	-11.749
X	-11.7505
▁Bell	-11.752
uôn	-11.7544
beria	-11.7545
▁Julia	-11.755
hăm	-11.7559
ria	-11.7559
én	-11.7562
▁mác	-11.7569
▁Ever	-11.7577
own	-11.7578
desh	-11.7586
▁iPod	-11.7587
▁đặn	-11.7587
▁Parkinson	-11.7587
▁Virginia	-11.7587
▁Power	-11.7587
▁poster	-11.7587
▁gớm	-11.7588
▁đốn	-11.759
▁Jones	-11.7591
▁pop	-11.7593
▁2.5	-11.7594
▁Emil	-11.7609
▁gạo	-11.7609
▁Fa	-11.7617
stein	-11.7623
▁1.5	-11.7629
▁Ảo	-11.7646
MS	-11.7649
▁Carl	-11.7653
▁chiê	-11.7699
▁vự	-11.7719
den	-11.7745
me	-11.7752
▁Dian	-11.7769
▁mìn	-11.78
▁Fort	-11.7801
▁OE	-11.7836
▁Dea	-11.7847
▁thiê	-11.7848
nd	-11.7852
▁vác	-11.7852
▁Bra	-11.7854
▁Lo	-11.7877
▁Tỉ	-11.7888
và	-11.7908
oto	-11.7922
▁Argentina	-11.7944
▁Sylvi	-11.7944
▁album	-11.7944
▁sộ	-11.7944
▁Qatar	-11.7944
▁iPa	-11.7944
▁Clinton	-11.7944
▁EDI	-11.7944
▁Susan	-11.7944
▁vitamin	-11.7945
opera	-11.7945
▁46	-11.7948
▁Hồ	-11.7948
▁Mã	-11.7953
▁Li	-11.7954
usal	-11.7963
ãi	-11.7964
▁ôn	-11.7971
▁ah	-11.7973
▁bỏng	-11.7996
▁bự	-11.8014
hức	-11.8021
▁Bay	-11.8032
▁tweet	-11.8042
▁hon	-11.8058
iza	-11.8065
▁tho	-11.8069
ươi	-11.8071
hiền	-11.8118
▁tú	-11.8122
▁Ham	-11.8135
▁Mill	-11.8143
arry	-11.817
hiệm	-11.8176
RN	-11.819
lyn	-11.8218
▁phớ	-11.8222
hid	-11.8247
sia	-11.8258
van	-11.8281
Yêu	-11.8298
▁dặ	-11.8299
▁Muhammad	-11.8314
▁Sierra	-11.8315
▁silicon	-11.8315
▁Ethiopia	-11.8315
▁Julie	-11.8316
▁Doug	-11.8321
▁quầy	-11.8324
▁nhốt	-11.8328
▁huỳ	-11.8332
▁Lang	-11.8341
▁Emma	-11.8344
▁Co	-11.8353
chia	-11.8353
ifer	-11.8355
▁nhọ	-11.8374
▁Khan	-11.8378
▁Wa	-11.8392
▁nghê	-11.8402
▁Temp	-11.8406
▁nực	-11.8421
▁Nội	-11.8422
▁Steven	-11.8459
▁ngủi	-11.8462
▁196	-11.8463
ại	-11.8464
▁thối	-11.8471
▁xen	-11.8482
lock	-11.8488
ko	-11.8501
▁sương	-11.851
▁Tớ	-11.8526
▁130	-11.8527
▁kép	-11.8531
ruyền	-11.8535
▁ngoặ	-11.8547
ều	-11.8556
ington	-11.8568
▁Lu	-11.8605
ves	-11.8622
▁197	-11.8644
▁phu	-11.866
ve	-11.8668
▁xị	-11.8677
ban	-11.8683
▁cán	-11.869
ney	-11.8698
▁pheromone	-11.8699
▁Broad	-11.8699
▁Zimbab	-11.8699
▁suýt	-11.8699
▁acid	-11.87
▁Philade	-11.87
▁Leonardo	-11.8701
▁Ross	-11.8701
▁Roger	-11.8701
▁Usha	-11.8701
▁Somalia	-11.8703
▁gót	-11.8703
▁Anas	-11.8704
▁Cameron	-11.8706
▁Hawaii	-11.8707
▁West	-11.8723
▁fil	-11.8723
▁Park	-11.8724
▁Si	-11.873
▁phiện	-11.8734
▁Khó	-11.8735
lphi	-11.8742
so	-11.8745
▁Bali	-11.8747
▁CD	-11.8774
mer	-11.8789
▁ớt	-11.8821
▁dạn	-11.8837
▁Apol	-11.8842
ryl	-11.8861
▁Phố	-11.8863
rock	-11.8866
▁Tinh	-11.8905
nô	-11.8911
▁rợ	-11.8936
▁Marc	-11.8939
uk	-11.896
▁Khố	-11.8972
km	-11.8975
▁Op	-11.8979
phone	-11.8984
▁bệ	-11.8985
huật	-11.8989
au	-11.8993
ghen	-11.8994
▁Sher	-11.9
▁Jo	-11.9003
ain	-11.9005
▁chử	-11.9005
▁nhả	-11.9009
ỉa	-11.9017
▁giế	-11.9036
▁Ze	-11.9038
▁am	-11.9048
vít	-11.9069
▁72	-11.9075
▁Berkeley	-11.9099
▁Sputnik	-11.9099
▁Starbuck	-11.9099
▁Tokyo	-11.9099
azeera	-11.9099
▁Earth	-11.9099
▁tởm	-11.91
▁virut	-11.9101
▁giầy	-11.9105
▁xổ	-11.9105
▁Ne	-11.9106
▁Kelly	-11.9107
▁xì	-11.9108
▁Carne	-11.9109
▁Xanh	-11.9109
▁City	-11.911
▁1,5	-11.9111
▁Bí	-11.912
6	-11.9126
ational	-11.9128
▁Marco	-11.9128
▁96	-11.9129
▁Well	-11.9132
▁quấn	-11.9136
▁5000	-11.9143
▁Uh	-11.9147
▁Bangla	-11.9161
▁pa	-11.9161
▁Can	-11.9184
▁Newto	-11.9204
▁ngâm	-11.9205
▁láng	-11.921
reat	-11.9213
▁News	-11.9217
ir	-11.924
bat	-11.9244
gom	-11.9252
▁rờ	-11.9266
hóm	-11.9274
iếp	-11.9284
▁Ar	-11.9295
ản	-11.9299
▁Est	-11.9309
▁Bolt	-11.9325
ki	-11.9347
▁cửu	-11.9375
▁Ann	-11.9383
aska	-11.9391
▁ngó	-11.9393
▁loé	-11.9399
and	-11.9407
▁Wal	-11.9408
▁Te	-11.941
ez	-11.9412
▁thản	-11.9445
fa	-11.9451
low	-11.9457
w	-11.9462
45	-11.9462
▁Evan	-11.9474
▁2.0	-11.9476
▁Mars	-11.9477
ran	-11.95
ẻo	-11.9504
ơc	-11.9508
▁Ăn	-11.9513
Ứ	-11.9516
▁Copernic	-11.9516
▁Michigan	-11.9516
▁bướu	-11.9516
▁hamburger	-11.9516
▁Benjamin	-11.9516
▁1996	-11.9516
▁Colombia	-11.9516
▁Tesla	-11.9516
▁Hungar	-11.9517
▁Luther	-11.9518
▁Atlanta	-11.9521
▁Dub	-11.9526
▁Prince	-11.9531
▁rậm	-11.9538
▁ion	-11.9538
▁Lester	-11.9539
▁Rome	-11.9547
oor	-11.9556
▁vầy	-11.9562
▁gas	-11.9565
▁Roy	-11.9573
▁Edward	-11.9577
▁140	-11.958
úm	-11.9599
▁nham	-11.9601
ev	-11.9609
▁hip	-11.9614
▁Har	-11.9627
▁Palm	-11.9629
ish	-11.9629
ego	-11.9648
ek	-11.9669
hạy	-11.9681
▁tý	-11.9684
▁My	-11.9691
▁Cà	-11.971
▁Movem	-11.9714
ẹo	-11.9721
▁Han	-11.9724
burgh	-11.974
▁Star	-11.9751
▁42	-11.9771
oel	-11.9773
▁Port	-11.9787
▁Marg	-11.9798
ợi	-11.9799
▁Leo	-11.9805
▁And	-11.9807
▁Há	-11.9808
▁kè	-11.9809
▁Pal	-11.9833
▁Ed	-11.9879
▁man	-11.9882
▁64	-11.9888
▁Giấ	-11.9888
▁Pop	-11.9895
let	-11.9899
▁Bờ	-11.9907
▁trớ	-11.9918
mart	-11.9929
▁Win	-11.995
▁Galapagos	-11.9951
▁Lakota	-11.9951
▁yeah	-11.9951
▁Hawkin	-11.9951
▁ooh	-11.9951
▁Fried	-11.9951
▁giun	-11.9951
▁1998	-11.9952
▁Jackson	-11.9952
▁Rick	-11.9952
▁chồn	-11.9955
▁AK	-11.9955
RA	-11.9956
▁Who	-11.9957
▁2,5	-11.9957
▁Khí	-11.996
▁Bon	-11.9962
▁93	-11.9963
▁Bhut	-11.9969
▁44	-11.9969
▁mú	-11.997
▁Uni	-11.9971
▁thoa	-11.9972
▁Nô	-11.9974
bul	-11.9975
▁Leon	-11.9983
79	-11.9989
▁test	-11.9994
up	-11.9995
▁Chia	-12.0009
liza	-12.001
▁Philip	-12.0015
▁Thầ	-12.0022
87	-12.0028
▁Alan	-12.0034
▁Trắ	-12.0036
stan	-12.0046
▁Ku	-12.0058
▁viền	-12.0061
▁Kal	-12.0063
đ	-12.0069
▁Đôn	-12.0075
▁Jesu	-12.0086
▁Grand	-12.0092
aret	-12.0101
▁Sea	-12.0102
ium	-12.0109
▁350	-12.0124
rack	-12.016
▁Os	-12.0172
uồn	-12.0179
▁Dàn	-12.0207
▁Time	-12.0208
▁98	-12.0217
▁photo	-12.0222
▁Mi	-12.0238
bar	-12.0243
▁Chad	-12.0246
kh	-12.0254
▁Po	-12.0267
▁Cri	-12.0289
▁Jon	-12.0291
▁Mong	-12.0311
▁AM	-12.0316
▁180	-12.0318
▁Kar	-12.0326
▁Sch	-12.0351
▁38	-12.0358
ge	-12.0362
▁Jean	-12.0373
▁86	-12.0379
▁bô	-12.0387
▁Ira	-12.0393
▁Jeopa	-12.0405
CAPTCH	-12.0405
▁Afghan	-12.0405
▁Arizona	-12.0405
▁Mumbai	-12.0405
▁ngặt	-12.0405
▁Nepal	-12.0405
▁Sudan	-12.0405
ansas	-12.0405
▁1995	-12.0405
▁North	-12.0406
▁giềng	-12.0406
▁violin	-12.0406
▁1994	-12.0406
▁Trừ	-12.0407
▁Romo	-12.0407
net	-12.041
ata	-12.041
rdy	-12.0411
▁Kiri	-12.0415
▁rạc	-12.0421
uột	-12.0421
▁heli	-12.0423
▁kha	-12.0435
▁Ur	-12.0436
▁nguyệt	-12.0436
▁nhôm	-12.0443
▁Dave	-12.0445
lair	-12.0446
▁phà	-12.045
woo	-12.0452
each	-12.0461
▁gồ	-12.0464
▁Ali	-12.0474
họn	-12.0477
▁Roma	-12.0478
ere	-12.0484
▁Mar	-12.0487
▁Louis	-12.049
▁Rock	-12.0518
mét	-12.0518
▁Sant	-12.0544
▁Will	-12.0544
7	-12.0559
▁Jess	-12.0561
▁160	-12.057
▁AO	-12.0571
ary	-12.0575
ah	-12.0583
pu	-12.0587
▁Cair	-12.0599
▁Mu	-12.0605
▁thò	-12.0611
▁Bu	-12.0615
▁Don	-12.0618
▁Nổ	-12.0628
▁Gold	-12.0644
▁suôn	-12.0649
▁Berli	-12.0687
▁For	-12.0694
▁khoé	-12.0712
▁amin	-12.0742
▁Leb	-12.0762
▁Ya	-12.0763
▁Mù	-12.0768
▁Ir	-12.0777
▁Colli	-12.0787
▁Wo	-12.0809
▁cừ	-12.0816
ronto	-12.0843
▁Map	-12.0846
Z	-12.0849
một	-12.0849
▁Tô	-12.0862
▁hươ	-12.0869
▁báng	-12.0876
▁Jordan	-12.088
▁Jeff	-12.088
▁Beethoven	-12.0881
▁Havard	-12.0881
▁Taylor	-12.0881
▁enzym	-12.0881
▁Rachel	-12.0881
▁prô	-12.0881
▁Lawr	-12.0882
▁Grace	-12.0882
▁Fox	-12.0882
▁Jeffer	-12.0882
zơ	-12.0883
▁PH	-12.0884
▁sẹo	-12.0885
▁Plato	-12.0885
▁Cuba	-12.0886
pass	-12.0888
85	-12.0888
▁nhô	-12.0892
uốc	-12.0899
▁Clay	-12.0901
ĩa	-12.0906
▁nhọc	-12.0916
▁lé	-12.0921
vis	-12.0926
mail	-12.0926
án	-12.093
▁fan	-12.0931
▁Ru	-12.096
▁gram	-12.0965
▁34	-12.0973
▁Mama	-12.0987
▁Hall	-12.1
▁Men	-12.1009
witz	-12.1019
go	-12.1022
▁Be	-12.1036
bert	-12.1046
▁bú	-12.1051
▁Net	-12.1057
▁Ko	-12.1062
▁dẫ	-12.1064
▁Yu	-12.1069
▁nhai	-12.1095
oạt	-12.1108
tô	-12.1115
▁4000	-12.1133
za	-12.1134
▁43	-12.1142
▁bầm	-12.1152
▁Sun	-12.1168
attle	-12.1188
▁Bue	-12.1219
tin	-12.1224
▁Ge	-12.1229
mee	-12.1253
▁Bru	-12.1262
NG	-12.1263
▁xo	-12.1273
é	-12.1291
▁Blue	-12.1293
que	-12.1297
▁97	-12.1303
èn	-12.1313
58	-12.1333
▁Bé	-12.1349
▁199	-12.1359
ẹ	-12.1364
iến	-12.1365
▁sạc	-12.1376
Ờ	-12.1381
eographic	-12.1381
▁Europa	-12.1381
▁CNN	-12.1381
word	-12.1381
▁Ryan	-12.1381
▁Lesterland	-12.1382
▁sandwich	-12.1382
▁McDonald	-12.1382
▁1975	-12.1382
▁gôn	-12.1382
▁IQ	-12.1383
▁banjo	-12.1384
▁State	-12.1386
▁dè	-12.1387
▁Murr	-12.1396
▁liễu	-12.1397
▁ín	-12.1397
▁125	-12.1397
▁cưng	-12.1398
▁Yorker	-12.1398
lee	-12.1398
▁sero	-12.1399
itus	-12.1404
▁50,000	-12.1412
▁loã	-12.1414
▁58	-12.1414
▁Pro	-12.1417
▁nhẽ	-12.1418
▁đê	-12.1419
▁Peru	-12.1429
rin	-12.1433
cor	-12.145
▁wi	-12.1452
▁Red	-12.1456
▁Oo	-12.1464
xy	-12.1464
▁gở	-12.1467
ga	-12.1471
▁Art	-12.1488
ity	-12.1517
▁Za	-12.152
ire	-12.1528
▁vãn	-12.1537
▁Harl	-12.1538
▁nai	-12.1538
▁1.2	-12.1558
tha	-12.1561
▁Kí	-12.1566
istan	-12.1574
▁Fl	-12.158
▁khờ	-12.1591
ntu	-12.1592
▁ròng	-12.1598
ện	-12.1622
ola	-12.1669
▁Aye	-12.1701
▁52	-12.1702
▁You	-12.1703
▁SR	-12.1712
▁bén	-12.1725
bro	-12.1733
▁bịch	-12.1738
ight	-12.1755
lash	-12.177
cou	-12.1776
▁Super	-12.1795
q	-12.1812
hẹn	-12.1831
▁tản	-12.184
▁Len	-12.1841
▁En	-12.1849
▁Has	-12.1854
▁Kare	-12.1872
bi	-12.1875
▁miên	-12.1876
res	-12.1876
▁đắp	-12.1876
▁Sara	-12.1878
Tôi	-12.1886
▁tứ	-12.1903
▁thạc	-12.1904
▁Quản	-12.1904
field	-12.1907
▁Guinea	-12.1908
▁Mitchell	-12.1908
▁Nairobi	-12.1908
▁Oregon	-12.1908
▁marathon	-12.1908
▁spaghetti	-12.1908
▁Katrina	-12.1908
▁FOXO	-12.1908
▁phthalate	-12.1908
▁Bertie	-12.1908
▁Island	-12.1908
▁1997	-12.1908
▁FBI	-12.1908
▁nitri	-12.1908
▁Craig	-12.1908
▁Nhớ	-12.1909
▁canxi	-12.191
▁Doha	-12.191
▁Walker	-12.1911
euron	-12.1912
▁hack	-12.1914
▁mị	-12.1919
cca	-12.1919
ltim	-12.192
▁vv	-12.192
▁Mario	-12.1924
▁Thanh	-12.1925
▁Biến	-12.1929
▁Eri	-12.193
▁Mag	-12.1937
▁Tham	-12.1945
▁games	-12.1949
▁bit	-12.1949
▁meta	-12.1951
mala	-12.1955
raham	-12.1958
▁Qa	-12.197
hiếu	-12.1983
▁lẽo	-12.1985
▁Meli	-12.199
▁Cười	-12.1996
cher	-12.1999
▁sủ	-12.2005
▁khuya	-12.2018
av	-12.2023
▁Gu	-12.2023
8	-12.203
din	-12.2034
▁Tob	-12.2043
▁it	-12.2047
ette	-12.2051
▁God	-12.2053
itra	-12.2059
ha	-12.2061
▁rẩy	-12.2099
ctor	-12.2102
▁6000	-12.2105
000	-12.2112
▁AV	-12.215
wen	-12.216
ini	-12.2174
be	-12.2191
oà	-12.2206
ula	-12.2208
ò	-12.2211
▁diễ	-12.2213
▁ngh	-12.2214
old	-12.2219
▁41	-12.2226
▁Am	-12.223
▁Wei	-12.2238
▁vỉ	-12.2243
flu	-12.2243
▁Bó	-12.2258
EG	-12.2259
lbert	-12.2261
ổi	-12.2271
iro	-12.2274
id	-12.2278
▁trơ	-12.2282
▁Johns	-12.2287
▁Fi	-12.2291
sa	-12.2295
▁mĩ	-12.2299
do	-12.2301
▁Cu	-12.2304
rah	-12.2305
ợc	-12.2308
hock	-12.2316
▁Rand	-12.2318
ue	-12.2325
▁Beau	-12.2327
oyo	-12.2342
▁Whit	-12.2357
rô	-12.2361
▁Stan	-12.237
▁Lã	-12.237
huyết	-12.2375
har	-12.2391
bu	-12.2394
▁Mah	-12.2407
▁Xé	-12.242
88	-12.2421
shop	-12.243
bốn	-12.2435
▁Mau	-12.2441
▁calo	-12.2452
▁cỗi	-12.2456
▁nặn	-12.2461
▁Fibonacci	-12.2463
▁Himalaya	-12.2463
▁Venezuela	-12.2463
▁Oakland	-12.2463
▁Stefan	-12.2463
▁Gehr	-12.2464
▁Brenda	-12.2464
ướt	-12.2464
▁Stone	-12.2465
▁1992	-12.2465
▁nhổ	-12.2468
▁Cape	-12.247
▁Allen	-12.2473
▁American	-12.2484
▁trọt	-12.2486
anon	-12.2496
▁gạc	-12.2497
om	-12.2498
▁mịn	-12.2499
matic	-12.2499
▁sỡ	-12.2499
moud	-12.2503
▁Cal	-12.251
▁Mê	-12.2518
ox	-12.252
ry	-12.2524
▁Abu	-12.2528
uck	-12.253
oon	-12.2532
▁Gord	-12.2548
▁Tiên	-12.255
▁Gua	-12.2553
àu	-12.2557
met	-12.2571
berry	-12.2577
▁East	-12.258
hủng	-12.2585
▁dộ	-12.2589
tein	-12.2594
▁Jud	-12.2607
▁gầ	-12.2608
▁Lợ	-12.2612
ling	-12.2613
lê	-12.2623
▁Clo	-12.2624
oah	-12.2634
▁Robin	-12.2635
▁thủng	-12.2639
ister	-12.2643
▁900	-12.2672
▁1,000	-12.2676
eil	-12.268
car	-12.2718
▁nôn	-12.2721
lip	-12.2751
.5	-12.2761
▁lự	-12.2764
OL	-12.2767
▁Ram	-12.2774
SG	-12.2775
▁Ror	-12.278
▁Rob	-12.2782
▁Aar	-12.2782
▁Hiể	-12.2802
57	-12.2802
▁Nan	-12.2808
▁Mont	-12.2817
▁Farm	-12.2817
▁chò	-12.2835
▁Tay	-12.2838
▁Kho	-12.284
▁Cent	-12.2848
nie	-12.2849
▁Christophe	-12.2861
▁Ac	-12.288
illa	-12.2882
▁CE	-12.2914
▁luồn	-12.2923
▁Bán	-12.2925
▁you	-12.2927
arter	-12.2932
scar	-12.2943
▁CL	-12.2965
▁Sợ	-12.2967
ina	-12.297
▁phồn	-12.2974
▁đu	-12.298
link	-12.2983
▁ax	-12.2991
▁nhún	-12.3015
▁gò	-12.3018
▁ghề	-12.3023
▁loà	-12.3026
AD	-12.3027
rưở	-12.3028
bur	-12.3029
▁ừ	-12.3038
▁Sir	-12.304
▁CC	-12.3041
▁Alf	-12.3044
#	-12.3051
▁Chernobyl	-12.3051
▁Pantheon	-12.3051
▁Pepsi	-12.3051
▁Stirling	-12.3051
▁Potter	-12.3051
▁Gaza	-12.3052
▁Norman	-12.3052
▁Bonnie	-12.3052
▁Yale	-12.3052
▁Sweeney	-12.3053
▁rán	-12.3053
▁SOPA	-12.3053
▁Ess	-12.3055
▁Sin	-12.3056
▁Ig	-12.3056
llon	-12.3057
▁blogger	-12.3057
▁Goer	-12.3057
Spee	-12.3058
▁progeri	-12.3058
▁quỳ	-12.306
▁Az	-12.3061
▁giũ	-12.3064
kins	-12.3065
▁Had	-12.3073
▁giòn	-12.3078
▁450	-12.308
▁gel	-12.3084
uyễn	-12.3084
▁hun	-12.3085
rick	-12.3088
hran	-12.3092
▁Vui	-12.3093
▁Sol	-12.3097
▁sút	-12.3107
tz	-12.3108
▁Moza	-12.3112
ibera	-12.3112
▁tem	-12.3115
▁360	-12.3129
ca	-12.3132
▁Phổ	-12.3138
▁Justi	-12.3142
▁bạt	-12.3145
▁Liber	-12.3153
▁Gayl	-12.3158
uẩn	-12.3158
▁hormone	-12.316
ral	-12.316
▁White	-12.3164
all	-12.3169
iêng	-12.317
▁Tai	-12.317
▁Mel	-12.3175
▁tru	-12.3183
sel	-12.3184
▁thê	-12.3188
▁gáy	-12.3189
▁Sc	-12.3191
▁giở	-12.3206
▁Fe	-12.3219
▁Jan	-12.3221
mond	-12.3231
obul	-12.3245
▁Phó	-12.3246
gh	-12.3251
lô	-12.3268
uke	-12.3293
▁gào	-12.3295
▁Juan	-12.3295
▁Gan	-12.3303
▁vê	-12.3308
une	-12.3312
ker	-12.333
hi	-12.3334
▁top	-12.3338
huma	-12.3344
▁Billy	-12.3349
reas	-12.3359
vin	-12.3362
era	-12.3369
▁57	-12.3369
las	-12.3371
▁Loa	-12.3373
-2	-12.3384
▁Gen	-12.3385
44	-12.3402
▁47	-12.3423
▁Án	-12.3451
ris	-12.3452
ari	-12.3457
▁ngà	-12.3464
▁Gand	-12.3465
vic	-12.3467
▁Brit	-12.347
her	-12.3472
ud	-12.3473
48	-12.3487
▁110	-12.3491
mas	-12.3493
ies	-12.3494
tar	-12.3494
rit	-12.3507
▁nghẹ	-12.3509
obo	-12.351
ạng	-12.3515
art	-12.3523
oga	-12.3525
▁hu	-12.3538
▁Au	-12.354
iley	-12.3543
▁Shir	-12.3544
25	-12.3573
▁Giê	-12.3602
▁lạy	-12.3603
▁Nico	-12.361
▁TH	-12.3612
▁Jami	-12.3615
bo	-12.3625
▁Xa	-12.3632
▁Fred	-12.3634
▁Trả	-12.3642
lean	-12.3653
watt	-12.3662
ườn	-12.3666
oát	-12.3666
▁Matthew	-12.367
▁nhì	-12.3672
▁Nguy	-12.3672
▁Dol	-12.3673
tơ	-12.3676
▁Anthon	-12.3676
▁Jamaica	-12.3676
▁Tahrir	-12.3676
▁Univers	-12.3676
▁Agn	-12.3677
▁MoMA	-12.3677
abad	-12.3677
▁1989	-12.3677
▁Meyer	-12.3677
▁Helen	-12.3677
▁Hanna	-12.3677
▁Intel	-12.3677
▁Caltech	-12.3678
▁AR	-12.3681
▁Mahat	-12.3688
▁Vide	-12.3691
▁Mad	-12.3696
▁foot	-12.3699
▁Sug	-12.3701
▁dốt	-12.3708
enter	-12.372
▁UCL	-12.3721
▁Hom	-12.3724
▁Nichol	-12.3735
ture	-12.3744
nberg	-12.3745
▁Bur	-12.375
love	-12.3776
hall	-12.3777
▁yo	-12.3785
▁Las	-12.379
▁Bil	-12.3798
đi	-12.3803
▁Luc	-12.381
▁proto	-12.3816
sau	-12.3831
hire	-12.3836
DP	-12.3839
lore	-12.3841
ira	-12.385
▁Stand	-12.3872
▁Harr	-12.3886
▁nọc	-12.3886
▁Kay	-12.39
▁00	-12.391
CO	-12.3939
▁rộ	-12.3941
▁Ste	-12.3948
rey	-12.3949
ica	-12.3981
▁lon	-12.3996
▁Kiể	-12.4004
▁gân	-12.4006
▁Val	-12.4033
óp	-12.4058
▁sò	-12.406
▁77	-12.4081
▁Air	-12.4081
ew	-12.4089
raja	-12.4094
olm	-12.4103
▁cata	-12.4107
line	-12.4115
DA	-12.4125
▁bợ	-12.4128
▁195	-12.4135
▁1.3	-12.4138
,	-12.4139
môn	-12.4144
oya	-12.4146
able	-12.4147
▁Pink	-12.4175
▁0.	-12.4203
▁Angel	-12.4205
▁Spi	-12.4207
13	-12.4232
▁nhứ	-12.4232
▁Dr	-12.4239
▁lả	-12.4241
▁Sang	-12.426
▁us	-12.4263
▁Pol	-12.4264
key	-12.4275
▁ngơ	-12.428
▁78	-12.4283
▁84	-12.4286
ania	-12.4297
▁Lock	-12.43
▁Maria	-12.4311
yne	-12.4322
▁hop	-12.4322
▁tuôn	-12.4324
gan	-12.4329
,5	-12.433
▁hằn	-12.4341
▁Palestin	-12.4341
▁Màn	-12.4342
▁Hiroshi	-12.4343
▁Arkansas	-12.4343
▁Charlotte	-12.4343
▁PIPA	-12.4343
▁Pennsylvania	-12.4343
▁TEDTalk	-12.4343
ç	-12.4343
▁Ireland	-12.4343
▁Euro	-12.4343
▁Ariel	-12.4343
▁Tennessee	-12.4343
▁Cooper	-12.4343
▁1986	-12.4343
▁gluco	-12.4343
▁Malco	-12.4344
▁TEDWomen	-12.4344
jev	-12.4344
▁Jake	-12.4344
▁nhoáng	-12.4344
▁Palextin	-12.4344
water	-12.4345
▁Dennis	-12.4345
▁hoóc	-12.4345
▁qú	-12.4345
▁Miller	-12.4346
port	-12.4346
▁Cor	-12.4347
▁copy	-12.4349
▁cello	-12.4349
▁ngò	-12.435
cratch	-12.4351
▁2013	-12.4352
▁Brook	-12.4352
▁10000	-12.4354
▁Serge	-12.4354
▁Brand	-12.4355
▁Alto	-12.4356
bin	-12.4357
j	-12.4357
▁Coch	-12.4358
▁Max	-12.4365
▁Tara	-12.4366
▁INC	-12.437
▁Nhu	-12.4375
vi	-12.4377
▁Grant	-12.4378
▁hót	-12.4382
ats	-12.4389
▁CH	-12.4394
▁Sebastia	-12.4395
▁noi	-12.4395
▁sú	-12.4397
▁Ro	-12.4404
anka	-12.4406
óng	-12.4419
▁Case	-12.442
omi	-12.4432
NA	-12.4453
▁tro	-12.4454
per	-12.4456
▁Pe	-12.4458
ộng	-12.4458
▁w	-12.4461
á	-12.4474
gi	-12.448
ion	-12.4499
sion	-12.4501
plan	-12.4503
ink	-12.4505
▁Job	-12.4507
ower	-12.4519
▁Ash	-12.4526
▁Arm	-12.4532
▁is	-12.454
▁gra	-12.4545
94	-12.4577
▁Sr	-12.4584
inux	-12.4601
▁sữ	-12.4605
osph	-12.4644
nee	-12.4645
▁Olive	-12.4648
▁Avi	-12.466
▁82	-12.4666
▁Acce	-12.4673
▁đễ	-12.4681
cola	-12.4682
54	-12.4691
▁Bern	-12.4694
lah	-12.4695
▁thiển	-12.4701
▁Quyế	-12.4704
▁euro	-12.4707
otto	-12.4717
▁Williams	-12.472
▁mí	-12.4723
▁sụn	-12.4725
ical	-12.4726
▁nga	-12.4728
ff	-12.4732
ul	-12.4736
▁Archi	-12.4737
rd	-12.474
▁BP	-12.4745
▁68	-12.4746
▁Bal	-12.475
ted	-12.4765
agan	-12.4765
▁Mathe	-12.4768
▁doo	-12.4787
▁en	-12.4807
op	-12.481
ji	-12.4817
▁Cú	-12.4819
háo	-12.4826
▁Trice	-12.4835
▁Rod	-12.4848
over	-12.4859
su	-12.4867
▁SA	-12.4902
▁Đề	-12.4907
ĩnh	-12.4907
▁đả	-12.4917
dt	-12.4918
▁Lim	-12.4926
▁She	-12.4948
quẳng	-12.4994
men	-12.5
▁Dam	-12.5013
▁tấu	-12.5014
fli	-12.5015
▁Anne	-12.5018
Point	-12.5024
Đ	-12.5025
▁1,2	-12.5041
ulu	-12.5042
▁Fellow	-12.5052
▁HS	-12.5054
oogle	-12.5056
▁CIA	-12.5057
▁Connecticut	-12.5057
▁Hopkins	-12.5057
▁Rezero	-12.5057
▁Aurora	-12.5057
▁Odysse	-12.5057
▁Sioux	-12.5057
▁Ahmed	-12.5057
▁Austral	-12.5057
▁Phillip	-12.5057
▁milimet	-12.5057
▁IKE	-12.5057
▁Color	-12.5057
▁Kiva	-12.5057
▁Scoo	-12.5058
▁Nauy	-12.5058
▁Rebe	-12.5058
ago	-12.5058
▁Bonnet	-12.5058
▁Bayes	-12.5058
▁Donald	-12.5059
▁Found	-12.5059
▁Tunisia	-12.5059
▁hù	-12.5059
ndura	-12.5059
▁Oz	-12.5061
▁Sẵn	-12.5061
▁đùi	-12.5061
▁Amsterdam	-12.5061
▁Browne	-12.5064
▁Hmm	-12.5066
▁1500	-12.5067
▁1800	-12.5069
toni	-12.507
horn	-12.507
▁Eco	-12.507
▁76	-12.507
▁RI	-12.5073
▁Malay	-12.5078
▁Tso	-12.5078
bao	-12.5079
▁Robbi	-12.5082
▁fis	-12.5082
▁rẫy	-12.5087
ARPA	-12.509
▁nò	-12.5091
▁Sỹ	-12.5093
▁nhoi	-12.5098
12	-12.5105
ness	-12.5105
16	-12.5107
▁Rocket	-12.5115
▁SS	-12.5126
▁Papu	-12.5129
lar	-12.5138
ado	-12.5139
stro	-12.5143
▁Alla	-12.5145
gal	-12.5147
▁Brad	-12.5148
▁Young	-12.5173
▁Home	-12.5175
▁Russel	-12.5182
▁Kle	-12.5182
▁Jacque	-12.5185
▁Burn	-12.5185
sburg	-12.5187
ze	-12.5187
▁1.6	-12.5196
▁Mari	-12.5211
68	-12.5211
▁mic	-12.5218
▁thuyên	-12.5224
▁Gh	-12.5227
▁vạ	-12.5229
▁Wang	-12.5235
aria	-12.5242
▁bíp	-12.5243
▁chậu	-12.5244
▁Chen	-12.5251
▁Tor	-12.5266
ene	-12.5267
▁Gene	-12.5271
▁Git	-12.5292
atops	-12.5294
▁Dick	-12.5304
reud	-12.5307
▁7000	-12.531
▁neo	-12.531
▁nạt	-12.5311
▁Tami	-12.5314
arty	-12.5316
▁ná	-12.5317
ame	-12.5319
ke	-12.5337
sen	-12.5345
az	-12.5351
▁gam	-12.5362
reo	-12.5365
▁Chim	-12.5372
▁Kos	-12.5374
ati	-12.5376
▁Naj	-12.5383
sha	-12.5389
ubar	-12.5401
OS	-12.5425
off	-12.5427
scal	-12.5442
uther	-12.5447
▁Tri	-12.5448
▁Boy	-12.5448
ú	-12.5456
lm	-12.5466
les	-12.5474
ho	-12.5479
▁dế	-12.5483
▁Bach	-12.5483
▁Lab	-12.5544
▁Im	-12.5551
ook	-12.5571
▁lư	-12.5585
úi	-12.5585
▁Stockh	-12.5613
its	-12.5616
▁Kha	-12.5616
ash	-12.5626
eibo	-12.5628
▁67	-12.5629
ple	-12.5634
29	-12.5643
ment	-12.5645
▁Tel	-12.5649
▁SB	-12.565
▁chè	-12.5658
▁lở	-12.5664
▁Michel	-12.567
wa	-12.5686
rich	-12.5695
▁194	-12.5696
▁Aust	-12.5696
va	-12.5701
▁54	-12.5701
iff	-12.5705
▁Mang	-12.5706
▁Per	-12.571
▁Gra	-12.5718
bia	-12.5719
▁se	-12.5721
▁Bloom	-12.5723
meer	-12.573
manda	-12.5732
34	-12.5739
▁Baha	-12.5756
▁vơ	-12.5758
▁Pun	-12.5761
nick	-12.5779
ala	-12.5779
47	-12.578
BI	-12.5782
uyện	-12.5787
90	-12.579
sky	-12.5796
▁dằn	-12.5798
▁Christ	-12.5809
ovo	-12.5816
▁Indiana	-12.5826
hoo	-12.5826
ynth	-12.5826
▁Eli	-12.5826
▁Phil	-12.5826
▁Child	-12.5827
▁Gapminder	-12.5827
▁Hirsh	-12.5827
▁Ixaren	-12.5827
▁Picasso	-12.5827
▁cocktail	-12.5827
▁Gabriel	-12.5827
▁Georgi	-12.5827
▁Shaw	-12.5827
▁Rives	-12.5827
▁Studio	-12.5827
▁Minne	-12.5827
▁Rot	-12.5827
▁Heather	-12.5827
▁1940	-12.5827
▁Wilson	-12.5827
▁Seth	-12.5827
▁Danny	-12.5828
▁Wales	-12.5828
▁demo	-12.5829
▁nhò	-12.583
▁1,3	-12.583
▁Water	-12.5831
▁suyễn	-12.5831
▁3,5	-12.5832
▁marat	-12.5832
▁Huck	-12.5832
▁Oxy	-12.5832
▁TEDster	-12.5832
usse	-12.5832
▁JK	-12.5833
▁Photo	-12.5836
▁Ổn	-12.5837
hop	-12.5837
▁56	-12.5838
nish	-12.5841
zman	-12.5845
▁Vai	-12.5846
eau	-12.5848
▁Heh	-12.5849
phu	-12.585
Qa	-12.5854
▁gara	-12.5862
▁40.000	-12.5863
▁Pran	-12.5864
▁Kins	-12.5868
▁Cap	-12.5868
▁MW	-12.5875
▁39	-12.5875
dne	-12.5876
▁Sim	-12.5877
▁91	-12.5878
▁Viki	-12.5883
acre	-12.5885
yon	-12.5887
burg	-12.5887
▁meme	-12.5889
▁est	-12.5894
MF	-12.5901
▁Rag	-12.5901
ee	-12.5907
hìa	-12.591
AG	-12.5911
▁Up	-12.5913
ok	-12.5925
ition	-12.5929
min	-12.5931
28	-12.594
▁Chả	-12.5953
bes	-12.5954
▁giông	-12.5955
owan	-12.5957
▁Ut	-12.5968
▁sen	-12.5971
▁53	-12.5974
▁von	-12.5975
AT	-12.5983
▁Lũ	-12.5984
SF	-12.599
erra	-12.6
ortis	-12.6008
amma	-12.6009
tler	-12.6014
▁Lad	-12.6031
▁Row	-12.6034
▁Du	-12.6051
▁Pier	-12.6074
▁xao	-12.608
here	-12.608
▁Chu	-12.6093
▁hạc	-12.6097
▁Mira	-12.6106
▁Aa	-12.6113
ệm	-12.6127
amen	-12.6134
▁US	-12.6148
onia	-12.6149
fon	-12.6166
▁Far	-12.6175
▁me	-12.6179
dom	-12.6184
are	-12.6185
▁hó	-12.6199
▁185	-12.62
▁It	-12.6206
▁Monter	-12.6208
▁Rivers	-12.6213
▁Mard	-12.6217
uga	-12.6233
roge	-12.6234
iffe	-12.625
▁Gian	-12.6252
tion	-12.6293
ồm	-12.6293
ố	-12.6299
▁Greg	-12.63
▁Song	-12.6308
▁phỉ	-12.6312
▁rầu	-12.6328
▁Ala	-12.6333
gu	-12.6336
ư	-12.6371
nders	-12.6387
SD	-12.6391
▁Cự	-12.6394
▁Ata	-12.6394
ska	-12.64
yle	-12.6403
▁Ngọ	-12.641
nos	-12.6415
▁chuồn	-12.6422
▁Ell	-12.6423
asa	-12.6431
▁ru	-12.6431
▁Dra	-12.6448
cha	-12.6465
▁Pri	-12.6482
fer	-12.6482
aki	-12.6488
▁nể	-12.6536
▁HP	-12.655
RS	-12.6563
▁ngoạ	-12.6583
▁giỏ	-12.6585
AC	-12.6596
▁Ter	-12.6602
via	-12.6612
▁hê	-12.6622
▁2-3	-12.6624
▁Alis	-12.6626
iki	-12.6627
fus	-12.663
mar	-12.6637
lick	-12.6648
▁Woo	-12.6648
▁Fer	-12.6651
▁Vinc	-12.6653
▁Achill	-12.666
▁Campuchia	-12.666
▁Galil	-12.666
▁Guardian	-12.666
▁Illinois	-12.666
▁Massachusetts	-12.666
▁Neuman	-12.666
▁Pittsburgh	-12.666
▁jihad	-12.666
▁token	-12.666
▁Barbar	-12.666
▁Brother	-12.666
ffit	-12.666
▁Geoff	-12.666
▁Ottoman	-12.666
▁Tweet	-12.666
▁Show	-12.666
▁Kendal	-12.666
▁1983	-12.666
▁Nicole	-12.666
▁Ohio	-12.666
▁1918	-12.6661
▁1965	-12.6661
▁Hunter	-12.6661
▁Java	-12.6661
▁tợn	-12.6661
▁Ital	-12.6661
▁Thoả	-12.6662
▁2015	-12.6662
▁1920	-12.6662
▁ARN	-12.6663
▁Pilot	-12.6664
▁Ơ	-12.6664
▁Prize	-12.6665
ickr	-12.6666
▁Owen	-12.6667
▁House	-12.6668
▁Jerem	-12.6672
▁Shah	-12.6673
▁Mellon	-12.6676
ddie	-12.6678
70	-12.6695
▁4.000	-12.6699
oxy	-12.6701
ridge	-12.6701
▁Clark	-12.6702
wow	-12.6708
▁Hỗ	-12.6709
wick	-12.6713
▁ep	-12.6715
▁401	-12.6716
sek	-12.6719
▁Ver	-12.6725
▁Lis	-12.6729
▁Walter	-12.6732
▁30.000	-12.6733
▁Lake	-12.6736
▁sá	-12.6737
▁Lạnh	-12.6737
▁Khơ	-12.6737
uddin	-12.6744
arin	-12.6746
▁Valle	-12.6762
▁Zeta	-12.6764
▁Mũ	-12.6775
▁Camp	-12.6776
eh	-12.6778
ru	-12.6792
ieu	-12.6792
ilton	-12.6797
89	-12.6798
▁FD	-12.6805
ole	-12.6807
▁nhan	-12.6809
urek	-12.6812
▁vồng	-12.6815
▁Hamp	-12.6818
▁Basi	-12.682
▁Harris	-12.6827
amie	-12.6839
▁woo	-12.684
▁IP	-12.6845
▁Wood	-12.6845
▁Mik	-12.6849
▁trũng	-12.6864
▁Anna	-12.6887
▁Tam	-12.689
xe	-12.6898
▁vớt	-12.6904
▁dí	-12.6905
enzi	-12.6929
lic	-12.693
▁Turin	-12.6942
▁Ele	-12.6947
▁gỉ	-12.6956
mbor	-12.6967
kat	-12.6978
sama	-12.6979
ov	-12.698
▁Ber	-12.6985
ather	-12.6987
▁Res	-12.6991
▁răn	-12.6995
▁Son	-12.7005
bor	-12.7011
ahl	-12.7016
▁Radio	-12.7018
wan	-12.7018
▁Lá	-12.7019
▁Cla	-12.7027
▁Lar	-12.7032
▁for	-12.7042
tal	-12.7065
▁As	-12.7067
▁thớ	-12.707
rid	-12.707
▁Pra	-12.7073
uồi	-12.7081
ão	-12.7082
▁eB	-12.7099
ller	-12.71
▁Patric	-12.7103
CA	-12.7108
▁Emman	-12.7133
▁ten	-12.7136
▁bở	-12.7139
▁Sh	-12.7145
27	-12.7165
▁750	-12.7168
oàn	-12.7172
ẹn	-12.7196
▁Rad	-12.7201
daf	-12.7209
hưng	-12.7222
dale	-12.7223
ur	-12.7228
ick	-12.7228
eed	-12.7242
▁Grou	-12.7254
▁Bou	-12.7255
▁Lí	-12.7258
▁ngo	-12.7265
▁Mur	-12.7268
▁mili	-12.7276
▁Perr	-12.7279
ẵ	-12.7294
▁Doll	-12.7296
▁Del	-12.731
ail	-12.7323
ding	-12.7324
▁laze	-12.733
ye	-12.7334
▁mụ	-12.7336
▁năn	-12.7343
con	-12.7347
▁Limb	-12.7348
oro	-12.7349
HO	-12.7351
42	-12.7363
14	-12.7368
-40	-12.7375
ku	-12.7375
▁vẹ	-12.7383
▁Kat	-12.7383
IM	-12.7387
75	-12.7405
elle	-12.7429
ston	-12.7432
▁Rama	-12.744
▁Bin	-12.7447
▁Gamb	-12.745
ớp	-12.7454
▁Dur	-12.7459
oái	-12.7464
▁re	-12.7466
und	-12.7474
ance	-12.7487
cus	-12.7496
yl	-12.7512
unes	-12.7514
titl	-12.7514
gme	-12.7521
ồn	-12.7527
foot	-12.7536
Prince	-12.7536
▁trờ	-12.7539
▁biê	-12.7548
tra	-12.7552
▁Mor	-12.7553
▁Medi	-12.7558
ale	-12.7559
▁Hunt	-12.7563
⁄4	-12.7564
▁Robi	-12.7566
▁LA	-12.7567
ookie	-12.7567
▁365	-12.7568
▁poly	-12.7569
(	-12.7569
▁Afganistan	-12.7569
▁Duoling	-12.7569
▁Enceladus	-12.7569
▁Exxon	-12.7569
▁Jarret	-12.7569
▁Malawi	-12.7569
▁Mozambique	-12.7569
▁Roosevelt	-12.7569
▁Window	-12.7569
▁penicillin	-12.7569
▁Glad	-12.7569
▁complex	-12.7569
▁Kentuck	-12.7569
▁Madagas	-12.7569
▁Senegal	-12.7569
Chryst	-12.7569
▁Clevela	-12.7569
▁England	-12.7569
▁Morgan	-12.7569
▁Reddit	-12.7569
▁kilô	-12.7569
▁Head	-12.7569
▁School	-12.757
insky	-12.757
▁1949	-12.757
Hz	-12.757
▁Fire	-12.757
▁Ukraine	-12.757
▁Aspe	-12.7571
▁Church	-12.7571
▁Lega	-12.7572
▁Wiki	-12.7572
▁Hyder	-12.7572
▁0,0	-12.7572
▁Rita	-12.7573
▁té	-12.7574
▁Mall	-12.7579
rập	-12.7579
▁74	-12.7583
▁Adria	-12.7583
▁oxide	-12.7584
▁Shre	-12.7586
▁8000	-12.7586
raft	-12.7588
▁Philippine	-12.7589
▁Tuyết	-12.7589
▁1.8	-12.759
▁Full	-12.759
▁Ola	-12.7592
▁1-2	-12.7596
▁12.000	-12.7597
dez	-12.7603
▁uý	-12.7604
▁mix	-12.7607
ihad	-12.7608
▁Point	-12.7613
roso	-12.7614
▁ngỏ	-12.7615
▁nã	-12.7616
▁Electro	-12.7621
▁ừm	-12.7627
ony	-12.7634
▁nháp	-12.764
sus	-12.7646
▁Hard	-12.765
ôla	-12.7658
uten	-12.7659
▁Hua	-12.7661
unk	-12.7663
-1	-12.7664
▁Mó	-12.7668
iles	-12.7669
▁TG	-12.767
▁Nicola	-12.767
▁Christian	-12.7673
▁NI	-12.7685
war	-12.7686
RG	-12.7694
▁Berg	-12.7703
▁ngượng	-12.7704
▁101	-12.772
val	-12.7726
NICE	-12.7729
ouse	-12.7737
▁vượn	-12.7755
▁McCa	-12.7768
llage	-12.7784
▁0.1	-12.7821
row	-12.7835
▁0.5	-12.7862
alad	-12.7871
▁Byr	-12.7881
rrow	-12.7883
▁Pac	-12.7892
▁Kath	-12.7893
▁BR	-12.79
▁AI	-12.7902
▁Barto	-12.7913
cz	-12.7924
ise	-12.7925
eline	-12.7932
ón	-12.7944
ound	-12.7946
▁Her	-12.7957
ớn	-12.796
ava	-12.7963
▁Wu	-12.7966
▁Gilli	-12.7985
▁Pla	-12.8
gli	-12.8009
36	-12.801
▁vể	-12.8012
▁Goldi	-12.8024
ả	-12.8031
umari	-12.8039
ite	-12.805
ano	-12.8053
15	-12.807
▁bổn	-12.8072
▁Vận	-12.8083
▁66	-12.8087
▁Gran	-12.8095
▁PC	-12.8104
ủi	-12.8119
tro	-12.8128
atan	-12.8136
haz	-12.8138
▁Hama	-12.8142
▁Gil	-12.8153
il	-12.8165
▁Luri	-12.8171
AM	-12.8172
▁j	-12.8173
úa	-12.8173
Man	-12.8175
▁trăn	-12.8188
oad	-12.8194
HC	-12.8198
▁Frankl	-12.8214
▁hợ	-12.8227
cam	-12.823
ould	-12.8255
avi	-12.8268
▁Post	-12.8279
oh	-12.8284
mara	-12.829
▁Rum	-12.829
▁Lind	-12.8294
▁Jacob	-12.8301
---	-12.8341
▁Ngự	-12.8341
nan	-12.8347
▁Laur	-12.8349
2,000	-12.8351
▁HC	-12.8368
elli	-12.8373
endo	-12.8383
aba	-12.8388
ẵn	-12.8408
tas	-12.841
▁đơ	-12.8422
▁lún	-12.8424
▁Wid	-12.8425
▁Hud	-12.8432
oma	-12.8434
inger	-12.8437
▁fu	-12.8438
antha	-12.8446
▁Us	-12.8462
liu	-12.8463
sta	-12.8467
cent	-12.8472
bach	-12.8477
aas	-12.8483
▁Hot	-12.8489
100	-12.8497
rr	-12.8498
uza	-12.8499
▁UC	-12.8502
▁dơ	-12.8505
ase	-12.8506
ippi	-12.8516
dad	-12.8519
▁Davi	-12.852
▁Perc	-12.8525
press	-12.8527
▁Rub	-12.8532
bê	-12.8533
urger	-12.8534
enix	-12.8536
60	-12.8545
▁Nor	-12.8555
▁59	-12.8556
suit	-12.8561
ushi	-12.8565
ennis	-12.8567
geria	-12.8569
▁Sisyph	-12.8569
@	-12.8569
engineering	-12.8569
▁Android	-12.8569
▁Balkan	-12.8569
▁Chechnya	-12.8569
▁Feynman	-12.8569
▁Nikola	-12.8569
▁Zipcar	-12.8569
▁bloop	-12.8569
awesome	-12.8569
▁Cassini	-12.8569
▁Knight	-12.8569
▁Missouri	-12.8569
▁Isabel	-12.8569
shmi	-12.8569
▁Online	-12.8569
▁Budrus	-12.8569
▁Darfur	-12.8569
▁Ferris	-12.8569
▁Food	-12.8569
▁Beth	-12.8569
▁Gifford	-12.857
▁CDC	-12.857
▁Splashy	-12.857
▁Buffet	-12.857
▁webcam	-12.857
▁05	-12.857
www	-12.857
Lee	-12.8571
▁Vila	-12.8572
▁luyến	-12.8572
▁Newcast	-12.8573
▁Zach	-12.8573
▁oan	-12.8573
▁Bagh	-12.8573
▁Sting	-12.8573
▁polymer	-12.8575
▁One	-12.8575
▁Lago	-12.8577
▁Love	-12.8577
▁2014	-12.8578
▁3.5	-12.8578
▁China	-12.8579
▁Aria	-12.8579
▁đờ	-12.8581
▁Good	-12.8581
lia	-12.8581
▁2.3	-12.8582
Murdo	-12.8583
▁63	-12.8583
▁Denisovan	-12.8584
AL	-12.8584
▁Rica	-12.8584
▁Wor	-12.8588
▁Casa	-12.8588
▁Missis	-12.8592
anor	-12.8593
ES	-12.8593
▁1200	-12.8594
▁1.7	-12.8595
▁mè	-12.8595
▁Cử	-12.8595
opin	-12.8596
▁DC	-12.8598
▁Bỉ	-12.8601
▁nit	-12.8602
ạc	-12.8602
▁Phúc	-12.8605
▁Chip	-12.8607
ijan	-12.8608
aw	-12.8609
▁are	-12.8612
▁12,000	-12.8614
▁Scien	-12.8614
▁Kant	-12.8615
▁Carib	-12.8615
chúng	-12.8617
▁Leh	-12.8618
▁We	-12.862
▁Trinida	-12.862
▁Ol	-12.8624
▁Play	-12.8628
▁Jose	-12.863
ins	-12.8632
▁Tan	-12.8636
▁Frederic	-12.8642
▁Pauli	-12.8645
▁Nino	-12.8656
▁centim	-12.8657
osta	-12.866
▁BK	-12.8662
ôm	-12.8667
▁NO	-12.8673
▁Lauren	-12.8676
oja	-12.8682
▁Shei	-12.8686
ese	-12.8688
▁Ghi	-12.8693
▁McKe	-12.8693
▁Cole	-12.8704
▁ke	-12.8709
▁gù	-12.871
▁Brun	-12.8722
▁Isa	-12.8725
.7	-12.8727
▁lỏ	-12.8732
▁Seli	-12.8734
▁Beatle	-12.8742
▁Bond	-12.8752
omon	-12.8753
▁Chung	-12.8754
▁Dia	-12.8767
hỉ	-12.8782
▁Wire	-12.8782
▁Tuc	-12.8784
▁seri	-12.8785
▁hoc	-12.8787
azo	-12.8806
▁Kong	-12.8808
▁1.4	-12.8811
oc	-12.8818
oney	-12.8827
▁83	-12.8828
TC	-12.8835
rat	-12.8841
bre	-12.8857
người	-12.8872
fe	-12.8874
▁At	-12.8875
prof	-12.8881
▁More	-12.889
▁Kob	-12.889
tern	-12.8899
▁BM	-12.8906
▁ft	-12.8908
Phi	-12.8916
▁rain	-12.893
hời	-12.8936
▁193	-12.8946
▁Kara	-12.8946
▁Trận	-12.8961
▁lì	-12.8964
TO	-12.8975
▁bla	-12.8979
▁On	-12.8993
nic	-12.9004
▁Thả	-12.9005
▁LH	-12.9006
ll	-12.9007
▁Saf	-12.9021
apa	-12.9022
oir	-12.9027
▁650	-12.903
wl	-12.9035
PL	-12.905
▁Fu	-12.9057
MA	-12.9069
qui	-12.9081
▁sun	-12.9082
DT	-12.9082
▁Bott	-12.9083
ius	-12.9093
roll	-12.9095
▁Mali	-12.9096
▁Arab	-12.9103
AO	-12.9108
mbia	-12.9108
ops	-12.9113
▁Arabi	-12.9115
mble	-12.9157
▁Sina	-12.9162
▁62	-12.9165
▁Hal	-12.9166
▁AC	-12.917
▁sé	-12.917
ome	-12.9173
▁Sur	-12.918
▁quệ	-12.9182
die	-12.9191
▁Fabi	-12.9214
▁Vệ	-12.9226
▁Bar	-12.923
ubu	-12.9242
▁Lou	-12.9247
uit	-12.9251
▁McK	-12.9262
▁Trac	-12.9268
iel	-12.9279
▁Gall	-12.9283
▁Mee	-12.9285
▁lim	-12.929
300	-12.9296
fu	-12.9305
92	-12.9313
cer	-12.9322
▁ngỗ	-12.9342
▁Vel	-12.9345
stone	-12.9347
blog	-12.935
ito	-12.9357
nica	-12.9358
tor	-12.9397
wait	-12.9409
ớ	-12.9418
for	-12.9426
nett	-12.944
rs	-12.944
oyd	-12.9451
▁Saul	-12.9456
▁Bro	-12.9464
zer	-12.9478
ừ	-12.9478
▁Vá	-12.9479
▁73	-12.9483
rego	-12.9487
▁Cloud	-12.9502
▁serie	-12.9529
64	-12.953
▁rạn	-12.954
lose	-12.9562
▁Pia	-12.9564
ial	-12.9568
gon	-12.9581
lab	-12.9581
▁Andre	-12.9584
08	-12.9604
▁thé	-12.9611
▁prot	-12.9613
unni	-12.9618
vada	-12.9627
▁America	-12.9639
ory	-12.964
kut	-12.9642
▁Sala	-12.9643
▁Than	-12.9648
SM	-12.965
pta	-12.9653
urk	-12.9653
▁Koh	-12.9654
ino	-12.9655
▁boo	-12.9669
▁Economi	-12.967
ừm	-12.9677
▁Myhrvold	-12.968
▁Randolph	-12.968
_	-12.968
▁Airstream	-12.968
▁Bitcoin	-12.968
▁Count	-12.968
▁Eames	-12.968
▁Elliot	-12.968
▁Eskimo	-12.968
▁Hoffman	-12.968
▁MOOC	-12.968
▁McGoni	-12.968
▁whisk	-12.968
▁Sleep	-12.968
▁Turbo	-12.968
▁Botswan	-12.968
▁Pants	-12.968
▁Simpson	-12.968
▁August	-12.968
▁Maslow	-12.968
▁Vivian	-12.968
▁gluten	-12.968
▁Ridge	-12.968
▁Skid	-12.968
▁Titanic	-12.968
▁Barbi	-12.968
▁MR	-12.968
▁Suzan	-12.968
▁Viagra	-12.968
▁XDR	-12.968
▁Rich	-12.968
▁1982	-12.968
▁muội	-12.968
▁WikiLeaks	-12.968
▁Bowl	-12.9681
▁Sophia	-12.9681
oint	-12.9681
▁Whe	-12.9681
▁1976	-12.9681
igr	-12.9681
▁1953	-12.9681
aux	-12.9681
▁quark	-12.9681
ieber	-12.9682
lux	-12.9682
▁747	-12.9682
▁mafia	-12.9682
▁Garden	-12.9682
▁Tulle	-12.9682
▁Sally	-12.9682
▁Shack	-12.9683
▁Cruze	-12.9683
Hub	-12.9683
▁Theodor	-12.9683
▁Gaga	-12.9684
▁Code	-12.9684
▁cù	-12.9685
▁Abd	-12.9685
▁Coke	-12.9685
▁jean	-12.9687
▁Khali	-12.9687
▁kilo	-12.9688
bama	-12.9688
▁Toro	-12.9688
▁1,6	-12.9689
▁Hazle	-12.9689
▁Insta	-12.969
▁Project	-12.969
▁Jen	-12.969
▁Ê	-12.969
▁Allo	-12.9691
▁LM	-12.9692
▁Nghiệp	-12.9692
erba	-12.9692
▁Jordans	-12.9693
▁sỉ	-12.9694
▁Kerry	-12.9694
▁4,5	-12.9694
▁Ngữ	-12.9697
ft	-12.9697
▁pounds	-12.9701
▁Stalin	-12.9701
▁Sandy	-12.9703
▁giỡ	-12.9703
▁oli	-12.9703
▁cents	-12.9704
33	-12.9705
loch	-12.9708
▁Matth	-12.9709
▁80.000	-12.9712
arro	-12.9713
ISA	-12.9714
▁Húp	-12.9714
600	-12.9715
▁7.5	-12.9715
▁Paol	-12.9721
ive	-12.9725
▁Brent	-12.9729
▁Gor	-12.9732
▁Hindu	-12.9736
gger	-12.9739
▁Wag	-12.9739
▁200.000	-12.9739
▁XI	-12.975
▁Dro	-12.9751
▁Gram	-12.9754
▁Ngư	-12.9757
ert	-12.9758
▁Sar	-12.9758
▁Jeann	-12.9764
bell	-12.9765
▁Burk	-12.9766
▁rup	-12.9767
▁AD	-12.9768
ps	-12.9769
18	-12.9772
sis	-12.9773
vald	-12.9773
▁xê	-12.9774
▁Krist	-12.9778
▁Rup	-12.9786
▁Pr	-12.9796
cụ	-12.9805
50	-12.9806
▁Mulli	-12.981
▁geo	-12.9813
▁dật	-12.9819
▁die	-12.9824
etti	-12.9828
▁Fo	-12.9836
200	-12.9843
rming	-12.9853
ess	-12.9855
ER	-12.9859
▁hắt	-12.9859
ubble	-12.986
ana	-12.9861
ibb	-12.9864
40	-12.9865
omo	-12.9867
▁nick	-12.9878
ander	-12.9898
▁thự	-12.9906
rew	-12.991
ọt	-12.9914
▁xù	-12.9925
▁lổ	-12.9927
raniu	-12.9935
▁Shirk	-12.9939
▁Penn	-12.9944
▁Die	-12.9955
oanh	-12.9955
ugu	-12.996
erald	-12.997
ryn	-12.9989
onald	-13.0011
▁Hur	-13.0013
▁Hell	-13.0021
▁Inter	-13.0026
onica	-13.003
wal	-13.0032
iv	-13.0057
▁Kit	-13.0057
Fi	-13.0064
▁ngấy	-13.0079
▁Para	-13.0084
▁Moo	-13.0108
▁uh	-13.0119
imo	-13.012
▁gọ	-13.0124
oảng	-13.0127
▁Brita	-13.0129
974	-13.013
oz	-13.0132
▁goi	-13.0134
▁Khad	-13.0161
ùn	-13.0169
▁Lệ	-13.0175
▁Hono	-13.0194
ija	-13.0229
uba	-13.0237
▁sin	-13.0241
▁Nơ	-13.0266
dema	-13.027
lian	-13.0273
idro	-13.0291
code	-13.0307
gô	-13.0313
▁71	-13.0319
▁Merc	-13.0331
▁Coh	-13.0334
▁Alai	-13.0344
▁PR	-13.0351
▁Kan	-13.0361
enny	-13.0378
▁gàn	-13.0382
▁Thom	-13.0396
▁Stein	-13.0397
▁es	-13.0398
ena	-13.0424
dol	-13.0426
▁Cru	-13.0432
▁í	-13.0446
ool	-13.0447
▁trĩ	-13.0467
▁Engel	-13.0474
▁Ger	-13.0488
nia	-13.0489
▁Hol	-13.0494
rong	-13.0495
▁chường	-13.0517
rtis	-13.052
▁Aba	-13.0527
▁Rhode	-13.0534
ierre	-13.0543
oul	-13.0546
▁tằm	-13.0554
▁Old	-13.056
▁Tầ	-13.0565
▁Walt	-13.0569
fell	-13.0577
▁Rocke	-13.058
chan	-13.0583
ồ	-13.0592
▁Ju	-13.0594
andel	-13.0602
▁Dai	-13.0611
▁Bren	-13.0617
▁Ap	-13.062
ett	-13.0621
arch	-13.0624
jo	-13.0635
▁le	-13.0644
▁Bart	-13.0677
▁SI	-13.0691
▁Sta	-13.0708
ickli	-13.0711
ama	-13.0713
▁Sie	-13.0724
▁Diet	-13.0726
orn	-13.0726
▁toan	-13.0732
PO	-13.0737
▁bạ	-13.0739
▁Swa	-13.074
ja	-13.0742
out	-13.0752
gic	-13.0753
isco	-13.0759
ữu	-13.0768
kar	-13.0778
ague	-13.0785
of	-13.0803
dro	-13.0814
RC	-13.0818
erol	-13.0821
afi	-13.0829
26	-13.083
▁hơ	-13.0833
gas	-13.0836
amal	-13.0838
▁170	-13.084
oan	-13.0843
▁Sue	-13.0851
▁Vik	-13.0853
▁India	-13.0856
koko	-13.0858
▁Lak	-13.0861
▁Meg	-13.0865
▁acr	-13.0866
▁Dew	-13.0868
▁Wes	-13.0868
▁Pen	-13.087
▁Kurdis	-13.0876
AA	-13.0879
heim	-13.0884
Sp	-13.0885
▁BB	-13.0887
hip	-13.0888
gall	-13.089
inja	-13.089
Chúng	-13.0898
TB	-13.0898
▁Gri	-13.0901
đó	-13.0901
lơ	-13.0902
FL	-13.0904
nna	-13.0904
▁Ấ	-13.0904
Pes	-13.0906
không	-13.0912
lub	-13.0914
▁Mala	-13.0917
▁Comp	-13.0918
▁Atlant	-13.092
ghèo	-13.0924
,8	-13.0927
▁Buy	-13.0928
▁Motor	-13.0928
▁25000	-13.0928
view	-13.0929
uriti	-13.0929
▁Virgin	-13.093
terdam	-13.093
Ì	-13.093
Ộ	-13.093
▁Bolivia	-13.093
▁Budape	-13.093
▁DIY	-13.093
▁IPCC	-13.093
▁KIPP	-13.093
▁Kuznet	-13.093
▁Thatcher	-13.093
▁Wisconsin	-13.093
▁Yellowstone	-13.093
▁adrenalin	-13.093
▁guitar	-13.093
▁terawatt	-13.093
▁Ahmad	-13.093
▁Gross	-13.093
▁Sachs	-13.093
▁hect	-13.093
▁Debora	-13.093
inawa	-13.093
rocco	-13.093
▁Igbo	-13.093
▁Mohamed	-13.093
▁Journal	-13.093
▁Hipp	-13.093
▁MAS	-13.093
▁Bernard	-13.093
▁Kirk	-13.093
▁Hatz	-13.093
▁Democra	-13.093
▁1981	-13.093
▁Peace	-13.0931
▁kilomet	-13.0931
▁Derart	-13.0931
▁Marx	-13.0931
▁1977	-13.0931
▁Durga	-13.0931
▁Greenville	-13.0931
▁Griffi	-13.0931
▁Orwell	-13.0931
▁Earle	-13.0931
▁Umar	-13.0931
▁Hỡi	-13.0931
▁Glenn	-13.0931
▁McL	-13.0931
▁Dhara	-13.0931
ượu	-13.0931
SS	-13.0932
▁Bionicle	-13.0932
▁neutron	-13.0932
▁Gell	-13.0932
▁Silver	-13.0932
▁Life	-13.0932
▁Fear	-13.0932
Card	-13.0932
▁Jaw	-13.0932
▁Tijuana	-13.0932
▁Pug	-13.0933
▁Nixon	-13.0933
▁Snowden	-13.0933
▁Natal	-13.0933
▁nghén	-13.0933
▁Pur	-13.0934
rbus	-13.0934
▁Schul	-13.0934
▁NSA	-13.0934
▁Citi	-13.0935
▁socola	-13.0936
▁Duke	-13.0936
▁bass	-13.0936
▁IV	-13.0936
▁Miến	-13.0936
▁Smithson	-13.0937
▁Midwest	-13.0937
▁Porter	-13.0937
▁Pope	-13.0937
▁TNC	-13.0938
▁1978	-13.0938
▁sexy	-13.0938
▁Ice	-13.0939
▁Titan	-13.0939
▁Nint	-13.094
cl	-13.0941
▁Music	-13.0942
▁Bank	-13.0944
▁Cous	-13.0945
▁Wilkins	-13.0945
▁Maz	-13.0946
wind	-13.0947
▁Bett	-13.0948
▁mega	-13.0948
▁Albani	-13.0948
▁Khổ	-13.0948
▁Dep	-13.0948
esha	-13.0949
▁Cash	-13.095
ffen	-13.0952
▁Tech	-13.0952
▁Mecha	-13.0953
▁Joa	-13.0955
▁Rem	-13.0956
orse	-13.0957
▁Barry	-13.0961
▁1100	-13.0962
uhan	-13.0962
Zurich	-13.0963
▁Edd	-13.0963
dee	-13.0965
beta	-13.0965
▁Turk	-13.0965
▁Joan	-13.0968
edia	-13.0968
▁Jac	-13.0968
▁guồng	-13.0968
▁quậy	-13.097
▁Mino	-13.0973
▁Night	-13.0973
olem	-13.0979
▁sán	-13.0979
▁kang	-13.0981
▁Rese	-13.0982
▁Veg	-13.0988
NES	-13.0989
▁z	-13.0989
3-4	-13.0993
▁Khoá	-13.0994
incent	-13.0995
▁Deb	-13.0995
thời	-13.0996
MP	-13.0997
▁nhỡ	-13.0998
▁tuốc	-13.0999
uốn	-13.1017
▁Beck	-13.1017
Atten	-13.1017
▁Dược	-13.1019
▁xỉn	-13.1021
▁Guy	-13.1024
lul	-13.1027
ehr	-13.1031
▁Ye	-13.1035
▁TE	-13.1036
▁Watt	-13.1042
lest	-13.1043
TT	-13.1045
▁Genev	-13.1046
98	-13.105
iệc	-13.105
▁Kid	-13.1056
▁Cod	-13.1062
▁Antoni	-13.1066
▁TB	-13.1066
rg	-13.1068
▁Ker	-13.1072
trin	-13.1073
▁Hanse	-13.1081
kov	-13.1086
▁Game	-13.1088
▁How	-13.1089
▁Harri	-13.109
ello	-13.1093
▁Nova	-13.1093
▁nắn	-13.1093
▁Khẩ	-13.1098
lder	-13.1101
Philips	-13.1109
annon	-13.1113
▁Den	-13.1113
▁Thor	-13.1118
▁gừng	-13.1133
▁lữ	-13.1137
▁búp	-13.1174
▁Bel	-13.1179
aspar	-13.1183
MCA	-13.1184
▁Mob	-13.1194
opren	-13.1196
ury	-13.1202
▁khuỷ	-13.1203
hiễm	-13.1209
▁Alb	-13.1221
hhh	-13.1222
▁Bre	-13.1231
edi	-13.1232
▁tìn	-13.1237
cut	-13.1238
etson	-13.1244
cho	-13.1248
▁Dy	-13.1249
▁organ	-13.1269
▁Nell	-13.1272
▁trổ	-13.1273
ờng	-13.1274
dan	-13.1275
chen	-13.1283
▁Gre	-13.1291
ethan	-13.1297
▁Yan	-13.1303
ell	-13.131
▁Yv	-13.1316
▁Harv	-13.132
med	-13.133
indle	-13.1342
,4	-13.1348
eck	-13.1351
▁186	-13.1354
▁Mobi	-13.136
▁Christoph	-13.1361
▁bio	-13.1372
ist	-13.1373
ipe	-13.1376
ạnh	-13.1397
▁cacbonat	-13.1398
ust	-13.1402
▁Hart	-13.1407
▁Rau	-13.1423
etz	-13.1434
▁Verme	-13.1451
ovan	-13.148
idan	-13.1481
▁Mani	-13.149
▁Ava	-13.1494
gạc	-13.1494
▁Marcel	-13.1495
▁Low	-13.1496
loud	-13.1498
oả	-13.1498
▁Ros	-13.1503
Gregor	-13.1511
-20	-13.1529
▁Linu	-13.1533
▁Des	-13.1538
▁Iv	-13.156
âng	-13.1563
njo	-13.1563
weil	-13.1565
▁Kamen	-13.1587
gar	-13.1592
ọn	-13.1592
ets	-13.1597
▁lùn	-13.1602
▁EL	-13.161
pic	-13.1616
iger	-13.1617
monia	-13.1639
▁vo	-13.1645
aro	-13.1658
▁River	-13.1659
Me	-13.1672
chu	-13.1676
▁88	-13.1682
▁Boe	-13.1693
▁rỏ	-13.1694
Scrip	-13.1699
uyết	-13.1699
▁EP	-13.1705
▁Marl	-13.1712
illi	-13.1714
▁Carro	-13.1719
▁Oliv	-13.1728
▁Por	-13.1732
arcelo	-13.175
amil	-13.1754
▁lươn	-13.1758
mor	-13.1759
ML	-13.1778
84	-13.179
zar	-13.1792
▁Cro	-13.1797
▁Liz	-13.1822
erro	-13.1826
▁vắn	-13.1827
pam	-13.1827
read	-13.1831
etc	-13.1842
▁Pas	-13.1846
▁Ay	-13.1847
▁2500	-13.1848
ibu	-13.186
▁Ses	-13.1871
.6	-13.1878
▁Nghi	-13.188
▁Chev	-13.1892
aste	-13.1899
▁dioxi	-13.1903
owa	-13.1906
▁bẽ	-13.1918
▁GI	-13.1926
▁Wil	-13.1928
▁TEDxR	-13.1929
nton	-13.1934
ote	-13.1941
▁Khuyế	-13.1945
▁Christin	-13.1945
▁Sha	-13.1948
▁pi	-13.1951
Chống	-13.1954
▁tweets	-13.1954
plin	-13.1957
ré	-13.1959
▁IN	-13.196
bot	-13.1974
▁Pha	-13.1978
▁Ran	-13.1983
thai	-13.1986
tê	-13.199
chai	-13.1991
TV	-13.2006
▁Ely	-13.2011
ital	-13.2011
▁Quê	-13.2018
form	-13.2033
▁nê	-13.2055
5000	-13.2066
IC	-13.207
ndy	-13.207
run	-13.2081
ơng	-13.2084
▁Lạc	-13.209
▁Bat	-13.2093
▁Bir	-13.2099
fford	-13.21
too	-13.2105
erin	-13.2111
ững	-13.2112
▁Main	-13.2113
phi	-13.2126
oza	-13.2129
rillo	-13.214
nky	-13.2147
▁vầ	-13.2148
10	-13.2151
hore	-13.2154
▁Ces	-13.2158
lithi	-13.2164
▁et	-13.2176
he	-13.221
lanh	-13.2214
cker	-13.2214
OM	-13.2215
xơ	-13.2219
▁Atala	-13.2234
▁190	-13.2235
▁AT	-13.2238
orio	-13.2242
67	-13.2249
▁son	-13.2254
eine	-13.2273
rad	-13.2276
39	-13.2277
▁Chand	-13.2282
▁gươ	-13.2283
EP	-13.2293
▁Dun	-13.2298
▁HI	-13.2298
▁Richards	-13.2299
him	-13.2301
ldes	-13.2303
▁DAR	-13.2306
49	-13.2308
apo	-13.2312
▁Lun	-13.2315
eij	-13.2317
oè	-13.2319
virus	-13.2327
NH	-13.2328
carbon	-13.2328
▁Pyth	-13.2332
oran	-13.2337
▁vaccin	-13.2337
là	-13.2338
ix	-13.2342
bab	-13.2345
▁Jur	-13.2346
▁Michoac	-13.2347
▁Scra	-13.2347
rque	-13.2348
▁Jun	-13.2348
-10	-13.2349
▁Ath	-13.2352
lis	-13.2352
▁Hadr	-13.2354
hirl	-13.2356
▁Ukrain	-13.2357
▁Heid	-13.2357
thic	-13.2358
ability	-13.2359
▁Rodrig	-13.2359
▁Adventist	-13.2359
▁Coast	-13.2359
▁Malthus	-13.2359
▁amyloid	-13.2359
▁favela	-13.2359
▁soundscape	-13.2359
ntosh	-13.2359
▁Ecuado	-13.2359
▁Maasai	-13.2359
▁Pimp	-13.2359
▁BRCK	-13.2359
▁Major	-13.2359
▁NRK	-13.2359
Jazz	-13.2359
▁Toxo	-13.2359
Miguel	-13.2359
▁fMRI	-13.2359
▁Anato	-13.2359
▁Meadow	-13.2359
▁Puer	-13.2359
▁radar	-13.2359
▁Manju	-13.2359
▁Monster	-13.2359
▁Vishn	-13.2359
▁Beatri	-13.2359
▁Morris	-13.2359
▁hep	-13.2359
▁Daily	-13.2359
▁PSA	-13.2359
Houston	-13.2359
uflo	-13.2359
abasc	-13.2359
▁Milan	-13.2359
▁ESP	-13.2359
enspa	-13.2359
▁Damas	-13.236
▁Loren	-13.236
▁1910	-13.236
▁1926	-13.236
▁Grove	-13.236
▁Agar	-13.236
▁1963	-13.236
▁spec	-13.236
▁Johannes	-13.236
▁transistor	-13.236
bour	-13.236
▁blue	-13.236
▁Out	-13.236
▁Parik	-13.236
▁cocaine	-13.236
▁Hyper	-13.236
▁Moham	-13.236
▁Fish	-13.2361
erial	-13.2361
▁1,1	-13.2361
▁Astro	-13.2361
▁Cornel	-13.2361
▁Health	-13.2361
▁pH	-13.2361
▁Kool	-13.2361
ishman	-13.2362
▁ROV	-13.2362
▁Ghr	-13.2362
▁Galen	-13.2362
PA	-13.2363
▁Market	-13.2363
▁Prospera	-13.2363
▁Lord	-13.2363
▁Babb	-13.2363
▁Socrate	-13.2363
▁Ethe	-13.2363
▁Springs	-13.2364
▁ôxy	-13.2364
▁Giacom	-13.2364
▁Motors	-13.2365
▁6.5	-13.2365
▁Improv	-13.2365
▁Volta	-13.2365
▁Rid	-13.2366
▁JE	-13.2366
▁Franken	-13.2367
▁Hacker	-13.2369
▁9000	-13.2369
▁Niels	-13.2369
▁Page	-13.237
▁thán	-13.237
eric	-13.237
▁FB	-13.2371
▁Lance	-13.2371
▁Benoi	-13.2372
sala	-13.2375
▁Holo	-13.2378
▁Sacr	-13.2382
▁Bris	-13.2382
▁Buck	-13.2383
▁Rosali	-13.2383
▁Shephela	-13.2384
▁20000	-13.2384
▁Laura	-13.2384
▁ghì	-13.2384
▁post	-13.2386
▁Berk	-13.2386
▁1300	-13.2388
▁kara	-13.2389
▁Master	-13.239
▁Nok	-13.2391
▁1600	-13.2392
▁Novo	-13.2392
93	-13.2392
▁chớ	-13.2393
▁sunf	-13.2394
có	-13.2394
▁Kerm	-13.2394
▁Sufi	-13.2395
mix	-13.2398
▁Mir	-13.2403
▁Stephan	-13.2404
▁Bess	-13.2404
the	-13.2405
▁out	-13.2405
▁Nina	-13.2405
oko	-13.2412
▁LB	-13.2413
▁Colleg	-13.2418
sworth	-13.2419
roth	-13.242
▁Bul	-13.2421
vali	-13.2429
▁Zi	-13.243
▁Bora	-13.243
▁Mèo	-13.243
▁Hamburg	-13.2432
▁Denis	-13.2432
▁Pet	-13.2434
ald	-13.2434
wak	-13.2437
upp	-13.2439
▁chọ	-13.2443
▁Bike	-13.2451
▁Dry	-13.2451
uff	-13.2453
▁Torre	-13.2454
▁Fey	-13.2457
nold	-13.2458
▁Jod	-13.2462
▁Min	-13.2463
▁Karm	-13.2463
ulli	-13.2468
▁Webb	-13.2472
▁Ida	-13.2481
▁Móc	-13.2486
▁Raja	-13.2487
ckel	-13.2488
▁Now	-13.2493
chim	-13.2495
rusha	-13.2503
▁61	-13.251
▁Marian	-13.251
▁hoo	-13.2516
▁Every	-13.2523
fel	-13.2534
▁Gulf	-13.2535
▁thớt	-13.2541
▁Apo	-13.2542
▁Sk	-13.2548
▁Flow	-13.2554
▁NH	-13.2556
▁liê	-13.2563
inas	-13.2564
▁Madi	-13.2569
▁Reg	-13.2569
▁Br	-13.2575
hol	-13.2576
▁ed	-13.2577
erners	-13.2577
urma	-13.2584
uz	-13.2589
▁Biệt	-13.2594
▁Răn	-13.2595
▁Bus	-13.2596
▁Lynn	-13.2597
▁Tal	-13.26
lan	-13.261
ked	-13.2611
▁gua	-13.2614
shoo	-13.2614
ans	-13.2616
▁calorie	-13.262
▁Môn	-13.2635
moth	-13.2638
▁Mann	-13.2642
▁chùn	-13.265
▁Vibr	-13.2653
▁Best	-13.2666
ttle	-13.2672
▁Khô	-13.2673
gai	-13.2675
MW	-13.2679
▁Band	-13.268
AP	-13.268
lus	-13.268
▁Missi	-13.2682
▁Marsh	-13.2683
list	-13.2687
awto	-13.2698
ace	-13.2698
lông	-13.27
▁Pin	-13.2701
abba	-13.2701
▁Abo	-13.2702
▁Lip	-13.2712
uôi	-13.2715
thì	-13.2716
▁Mass	-13.2719
▁kền	-13.272
nburg	-13.2724
▁Moi	-13.2735
▁we	-13.2744
66	-13.2744
▁thon	-13.2746
omer	-13.2759
▁Coi	-13.2773
gaga	-13.278
umen	-13.2788
▁Luca	-13.2789
▁All	-13.2793
37	-13.2798
80	-13.2803
▁mon	-13.2813
▁mode	-13.2814
utu	-13.2816
▁phen	-13.2824
19	-13.2841
▁Tata	-13.2845
asma	-13.2858
những	-13.2864
▁Stu	-13.2871
gs	-13.2876
TA	-13.2878
▁Pino	-13.2878
▁nít	-13.288
lim	-13.2881
▁aa	-13.2883
ens	-13.2885
llis	-13.2887
17	-13.2893
atra	-13.2902
▁Sô	-13.2912
▁Ango	-13.2913
▁lú	-13.2915
rman	-13.293
62	-13.2933
sche	-13.2935
ual	-13.2937
Bat	-13.2946
▁Er	-13.2946
▁Sadd	-13.2951
▁Donn	-13.2954
erony	-13.296
▁Mây	-13.2963
▁Oc	-13.297
▁Av	-13.298
rect	-13.2982
▁bẹ	-13.2983
▁1.1	-13.2984
uyệt	-13.2987
hal	-13.2996
rio	-13.3008
▁Wy	-13.3014
sin	-13.3031
rma	-13.305
▁1400	-13.3055
▁Godi	-13.3058
hế	-13.3061
▁Walk	-13.3063
▁Day	-13.3064
▁187	-13.3074
▁Bas	-13.3078
▁Phú	-13.3081
ofl	-13.3106
ord	-13.3111
not	-13.3113
▁Reut	-13.3114
eas	-13.3124
▁ju	-13.3125
mja	-13.3128
▁Bol	-13.3132
▁Gut	-13.3133
▁Levin	-13.3139
bl	-13.3141
opper	-13.3156
▁den	-13.3161
itor	-13.3165
▁Vul	-13.3175
sse	-13.3178
▁PT	-13.3184
any	-13.3185
▁sê	-13.3188
hane	-13.3202
feld	-13.3209
ks	-13.3211
anzi	-13.3216
▁Côn	-13.3229
cot	-13.3229
▁Mer	-13.3236
dah	-13.3241
▁Herb	-13.3248
nsky	-13.3257
zan	-13.326
ack	-13.3262
2000	-13.3274
nom	-13.329
bee	-13.3293
reen	-13.3295
tron	-13.33
ls	-13.3324
nus	-13.3344
tner	-13.3347
▁Blanc	-13.3361
olon	-13.3363
95	-13.3368
▁cuô	-13.3379
ylon	-13.3389
ớm	-13.3406
▁DB	-13.3415
▁trọ	-13.3418
enji	-13.3422
ware	-13.3424
CR	-13.3433
rill	-13.3437
▁Flor	-13.3441
▁Kell	-13.3454
iano	-13.3481
homa	-13.3502
▁Interv	-13.3517
▁Maris	-13.3521
▁Lesl	-13.3525
▁Dust	-13.3527
▁cac	-13.3548
lam	-13.3556
Your	-13.3559
thar	-13.3566
▁7.	-13.3568
don	-13.3583
▁Bee	-13.359
Bot	-13.3593
ssig	-13.3597
▁ngán	-13.3605
▁Fr	-13.3609
▁Dow	-13.3617
▁Mì	-13.3623
▁Ser	-13.363
use	-13.3635
ab	-13.3641
ilwa	-13.3648
▁Pana	-13.365
koff	-13.3653
▁Ral	-13.3662
uare	-13.3663
.8	-13.3666
▁Schwartz	-13.3672
bit	-13.3678
▁Top	-13.3701
ars	-13.3704
▁Chap	-13.3707
▁Dicke	-13.3719
▁WT	-13.3725
▁SM	-13.3726
ứ	-13.3735
▁Blai	-13.3741
bble	-13.3753
oẹ	-13.3753
▁calori	-13.3756
55	-13.3761
▁49	-13.3766
▁Fed	-13.3768
tain	-13.3775
dka	-13.3782
hớp	-13.3799
ủng	-13.3819
logy	-13.383
abo	-13.3841
▁Mul	-13.3843
cốt	-13.3853
▁FE	-13.3861
▁nhằn	-13.3862
caus	-13.3862
▁Cali	-13.3869
▁Kê	-13.387
uru	-13.389
▁Lau	-13.3892
del	-13.391
▁Taj	-13.3931
alah	-13.3932
▁DR	-13.3932
lu	-13.3934
mat	-13.3935
enz	-13.3938
ois	-13.3941
izz	-13.3946
andon	-13.3948
▁Sto	-13.3949
▁Mello	-13.3949
▁vồ	-13.3955
▁AB	-13.3957
▁Dall	-13.3961
▁hú	-13.3962
wling	-13.3964
path	-13.3972
▁Cis	-13.3976
Â	-13.3978
▁51	-13.3979
▁lằn	-13.3988
Ex	-13.399
HD	-13.3996
▁Juli	-13.3998
pop	-13.3999
rdo	-13.4001
Day	-13.4005
▁Wol	-13.4008
biết	-13.401
0-50	-13.4012
laug	-13.4015
▁DU	-13.4016
eatbox	-13.4018
viết	-13.402
bard	-13.4021
▁Glas	-13.4021
ocrate	-13.4021
ough	-13.4021
▁Cruz	-13.4022
▁TEDxP	-13.4022
aib	-13.4023
ivers	-13.4024
borough	-13.4025
▁Pear	-13.4025
▁99.9	-13.4025
▁Participa	-13.4025
▁PostSecret	-13.4025
Bertrand	-13.4025
`	-13.4025
▁Autodesk	-13.4025
▁Avelile	-13.4025
▁Caucas	-13.4025
▁Dakota	-13.4025
▁Dunlap	-13.4025
▁Enrique	-13.4025
▁IGF	-13.4025
▁International	-13.4025
▁Lazarus	-13.4025
▁Polaroid	-13.4025
▁SOLE	-13.4025
▁Sardinia	-13.4025
▁Sarkozy	-13.4025
▁bucardo	-13.4025
▁container	-13.4025
▁nucle	-13.4025
▁ozone	-13.4025
Pachycephalosaur	-13.4025
▁Ashdown	-13.4025
▁Creative	-13.4025
▁Record	-13.4025
▁caffein	-13.4025
▁impact	-13.4025
head	-13.4025
▁Lamanite	-13.4025
▁Manchester	-13.4025
▁Wonder	-13.4025
istry	-13.4025
▁CSI	-13.4025
▁Pasht	-13.4025
▁Sheena	-13.4025
arayan	-13.4026
▁Atlas	-13.4026
▁Fras	-13.4026
▁Behar	-13.4026
▁Bogot	-13.4026
▁McCart	-13.4026
▁Swaptree	-13.4026
▁Shiv	-13.4026
▁Anima	-13.4026
▁Frances	-13.4026
▁Faso	-13.4026
▁Elias	-13.4026
▁Kaza	-13.4026
▁Kiran	-13.4026
ldred	-13.4026
▁Monro	-13.4026
▁Quixote	-13.4026
▁WorldWi	-13.4026
Spock	-13.4026
riend	-13.4026
▁TiV	-13.4026
▁1938	-13.4026
▁Telescope	-13.4026
▁Saint	-13.4027
▁Fitz	-13.4027
▁Tommy	-13.4027
▁1850	-13.4027
▁Bjor	-13.4027
MU	-13.4027
▁Fuller	-13.4027
▁Small	-13.4028
▁Prick	-13.4028
▁Flemi	-13.4028
▁1929	-13.4028
▁Square	-13.4028
nisi	-13.4028
▁Wool	-13.4028
5-6	-13.4028
▁Pomp	-13.4028
▁Birds	-13.4028
▁Rabin	-13.4028
▁TEDxS	-13.4029
▁466	-13.4029
▁carame	-13.4029
ommons	-13.4029
▁NGO	-13.403
▁Champ	-13.403
▁Fernand	-13.403
▁Lux	-13.403
outh	-13.4031
▁Volvo	-13.4031
▁Sheikh	-13.4031
▁poke	-13.4031
Pallot	-13.4031
gate	-13.4032
▁def	-13.4032
▁Somali	-13.4033
annes	-13.4033
▁FM	-13.4033
▁Word	-13.4034
▁Nhện	-13.4034
▁giớ	-13.4035
▁Glass	-13.4035
osni	-13.4036
face	-13.4036
▁thali	-13.4036
▁Chek	-13.4037
▁Axi	-13.4037
▁Mug	-13.4038
lie	-13.4039
vante	-13.4039
▁Reich	-13.404
Women	-13.404
▁Mason	-13.404
▁Mick	-13.4041
▁hemo	-13.4041
nik	-13.4044
izza	-13.4044
▁Feder	-13.4046
anti	-13.4046
▁Mahab	-13.4047
▁Ricard	-13.4048
▁Fren	-13.4048
olic	-13.405
▁Hers	-13.405
▁Born	-13.405
▁BAS	-13.4051
ddam	-13.4051
▁Budd	-13.4053
Mann	-13.4054
▁Scal	-13.4055
▁Shaf	-13.4057
▁MC	-13.4058
upl	-13.4059
Be	-13.406
▁50000	-13.4061
▁Flip	-13.4062
▁Neanderthals	-13.4062
▁Hep	-13.4063
▁Match	-13.4064
▁Jr	-13.4064
▁Nash	-13.4065
Sh	-13.4069
▁Eman	-13.407
▁Barne	-13.4071
▁boom	-13.4071
▁bridge	-13.4075
▁Mas	-13.4076
apar	-13.408
▁Town	-13.4082
iving	-13.4083
▁Dụ	-13.4085
unker	-13.4086
▁Hè	-13.4089
▁Hemi	-13.409
▁Assa	-13.4091
▁Robins	-13.4091
ooth	-13.4094
▁Kis	-13.4095
▁Borg	-13.4095
recht	-13.4095
▁Cran	-13.4096
▁cùn	-13.4099
sto	-13.41
▁Sz	-13.4102
▁Adi	-13.4105
psy	-13.4105
▁Prin	-13.4108
if	-13.4108
▁LG	-13.4109
▁Type	-13.411
▁TQ	-13.4111
name	-13.4112
▁Shin	-13.4114
▁Toda	-13.4115
▁Monk	-13.4122
▁Fran	-13.4128
▁Nou	-13.4128
vik	-13.4132
.4	-13.4134
▁Shu	-13.4135
▁hẵn	-13.4137
▁like	-13.4144
ycop	-13.4145
▁as	-13.4148
▁Dut	-13.4152
esta	-13.4154
▁Jenning	-13.4154
fee	-13.4162
▁Kemp	-13.4168
abe	-13.4172
▁Già	-13.4173
▁Spit	-13.4173
▁Hyp	-13.4174
▁192	-13.4177
▁Tw	-13.4178
▁Camill	-13.4185
stafa	-13.4186
oss	-13.4188
▁CT	-13.4196
xa	-13.4208
▁Eva	-13.4209
ổng	-13.4216
.2	-13.4222
▁Global	-13.4224
nesia	-13.4225
TM	-13.423
▁Sty	-13.4234
▁sâm	-13.4234
▁Coll	-13.4238
uid	-13.4248
OR	-13.4248
▁chỏ	-13.4249
▁Matty	-13.425
tium	-13.4251
chel	-13.4251
▁Ventur	-13.4254
▁Sing	-13.4261
▁bện	-13.4264
▁Giêng	-13.4265
▁Quạ	-13.427
heid	-13.4272
▁Basqu	-13.4278
72	-13.4279
▁Rap	-13.4282
cav	-13.4283
iser	-13.4283
▁Bass	-13.4284
tum	-13.429
ilson	-13.4291
tec	-13.4293
▁Rush	-13.4299
▁dẻ	-13.4303
▁Lem	-13.4303
▁Cron	-13.4311
▁Aru	-13.4327
▁Kai	-13.4328
▁Roth	-13.433
▁càn	-13.4339
▁Bluet	-13.4342
eros	-13.4352
▁Gun	-13.436
▁rốn	-13.4369
▁Olso	-13.437
ood	-13.4373
▁q	-13.4373
▁Oxi	-13.4377
▁Carrie	-13.4389
▁les	-13.4392
▁ami	-13.4394
▁Chla	-13.4396
▁Hari	-13.4404
▁Have	-13.4412
▁Barricel	-13.4412
▁sắn	-13.4438
▁phăng	-13.4448
▁hoocm	-13.4448
▁Angelin	-13.4455
▁Lev	-13.4461
▁Zapp	-13.4472
assa	-13.4477
▁Arch	-13.4481
bea	-13.4487
65	-13.4489
▁Samb	-13.4492
mô	-13.4496
▁gor	-13.4506
▁Pan	-13.4509
▁Capit	-13.4512
▁xước	-13.4528
▁Bea	-13.4537
RD	-13.4539
▁nuô	-13.4539
▁Madel	-13.4542
▁Jacobs	-13.4546
▁ED	-13.4553
ark	-13.4556
▁Roche	-13.4561
NC	-13.4563
ET	-13.457
▁Sear	-13.458
▁Maci	-13.4582
38	-13.4583
itchi	-13.4594
US	-13.4613
880	-13.462
▁Mach	-13.4621
ahn	-13.4633
▁Acti	-13.4635
▁liệ	-13.4646
light	-13.465
ssa	-13.466
▁Wad	-13.466
hov	-13.4661
▁Vir	-13.4664
▁Lars	-13.4669
▁ren	-13.4675
rug	-13.4676
▁Mus	-13.4677
ines	-13.4719
▁Jung	-13.4721
iz	-13.4737
▁bư	-13.4743
▁Huh	-13.4753
▁el	-13.4756
ss	-13.4769
▁Clar	-13.4775
loa	-13.4798
▁Ande	-13.4806
▁Mat	-13.4808
bian	-13.4812
▁Cave	-13.4813
▁Nap	-13.4823
▁Tia	-13.4823
ule	-13.483
augh	-13.4837
ora	-13.4842
▁Boyd	-13.4845
▁220	-13.4848
▁tà	-13.4866
urz	-13.4868
▁Shel	-13.4885
alan	-13.4887
▁Act	-13.4911
31	-13.4918
▁com	-13.4921
▁Bac	-13.4924
andra	-13.4935
▁Parag	-13.4958
▁Calv	-13.4963
entin	-13.498
▁dum	-13.5013
PJ	-13.5037
ock	-13.505
yum	-13.5052
▁Kam	-13.506
egel	-13.5065
▁Shell	-13.5074
▁Sak	-13.5088
▁be	-13.51
bine	-13.5102
ador	-13.5115
▁Eps	-13.5117
▁DD	-13.5128
ovic	-13.5151
▁ngoằn	-13.5159
▁Ll	-13.5175
ides	-13.5176
▁Janet	-13.5186
▁Mun	-13.52
▁Lê	-13.5205
▁Cher	-13.5212
ju	-13.5218
laugh	-13.522
onim	-13.5247
▁Hab	-13.5249
odd	-13.5256
ef	-13.5261
eader	-13.5263
ocen	-13.5263
▁cún	-13.5264
▁Camer	-13.5273
ustin	-13.5285
▁Gang	-13.5294
oard	-13.5296
nut	-13.5305
▁Tora	-13.5312
▁xố	-13.5314
▁Moh	-13.5319
▁Hut	-13.532
sper	-13.5326
log	-13.5327
urf	-13.5327
▁Tứ	-13.5334
uret	-13.5366
▁vè	-13.5366
reme	-13.5371
▁Genera	-13.538
osa	-13.5385
ogo	-13.5397
▁NA	-13.54
2.000	-13.5403
▁Benn	-13.5403
ril	-13.5414
pot	-13.5415
ndberg	-13.5427
ittle	-13.5429
agra	-13.5436
ings	-13.5438
nó	-13.5442
Hurt	-13.5443
indl	-13.5452
hích	-13.5459
▁Alli	-13.5466
▁dề	-13.5466
eter	-13.5475
▁Phô	-13.5482
▁Cath	-13.5486
▁Save	-13.5488
▁Sand	-13.5496
PP	-13.5502
glia	-13.5505
eal	-13.5511
▁Laf	-13.5518
ầ	-13.5522
▁per	-13.5527
▁Are	-13.5533
▁Forer	-13.5533
han	-13.5546
ons	-13.5555
▁Ad	-13.5565
▁Ul	-13.558
▁Trụ	-13.5587
star	-13.56
ulk	-13.5601
ctic	-13.5614
ates	-13.5617
▁Burt	-13.562
nơ	-13.5634
▁nhụ	-13.564
table	-13.5642
▁Emp	-13.5666
pper	-13.5674
cas	-13.5674
▁Ras	-13.568
dal	-13.5703
Edwards	-13.5716
inson	-13.5724
ethyl	-13.5732
▁Par	-13.5734
EC	-13.5737
itz	-13.5749
ella	-13.575
▁Aur	-13.5757
▁Seng	-13.576
box	-13.5769
▁Gw	-13.5774
50000	-13.5774
▁Fin	-13.5777
▁Edit	-13.5779
abin	-13.578
▁cạc	-13.5783
▁Jani	-13.5783
other	-13.5795
gle	-13.5799
▁Goo	-13.5802
ussel	-13.5808
▁Not	-13.5817
▁Hydr	-13.5818
íc	-13.582
▁Tomb	-13.5821
▁Kimb	-13.5831
▁Tod	-13.5834
▁chấu	-13.5834
▁IT	-13.5844
ozi	-13.5847
▁Rô	-13.5849
dic	-13.585
▁ac	-13.5853
▁xú	-13.5857
▁Gee	-13.586
▁SP	-13.5867
▁Russ	-13.5875
▁175	-13.5879
rain	-13.5889
qua	-13.5895
anan	-13.59
3.7	-13.591
▁Cre	-13.5919
aroo	-13.5922
▁Bear	-13.5925
▁240	-13.5928
▁Ố	-13.5933
▁Ric	-13.5942
▁CB	-13.5951
▁Ball	-13.5959
▁Mw	-13.596
▁Boo	-13.5964
pur	-13.5971
rove	-13.5972
▁Scot	-13.5983
▁Krishna	-13.5986
jai	-13.5987
Space	-13.5989
aster	-13.599
BO	-13.5992
2011	-13.5993
đun	-13.5993
2010	-13.5993
oyce	-13.5995
das	-13.5996
amela	-13.6
abi	-13.6006
▁App	-13.6012
▁2,3	-13.6015
bows	-13.6015
luegrass	-13.6016
graph	-13.6017
▁Leonard	-13.6018
▁Ú	-13.602
esign	-13.6022
▁Roll	-13.6022
▁cocain	-13.6023
glob	-13.6023
▁silic	-13.6025
▁FOX	-13.6025
hthalate	-13.6025
▁sulfur	-13.6025
▁Vasco	-13.6025
xytocin	-13.6025
ü	-13.6025
▁Pretor	-13.6025
\	-13.6025
channelrhodopsin	-13.6025
embran	-13.6025
orldchanging	-13.6025
▁Benedict	-13.6025
▁Discover	-13.6025
▁Garret	-13.6025
▁Goliath	-13.6025
▁Ibra	-13.6025
▁Kymaerica	-13.6025
▁LGBT	-13.6025
▁Lindbergh	-13.6025
▁Lovegrove	-13.6025
▁Lặn	-13.6025
▁Negroponte	-13.6025
▁Pandora	-13.6025
▁Paralympic	-13.6025
▁Partners	-13.6025
▁Scrubs	-13.6025
▁Snoop	-13.6025
▁UNAIDS	-13.6025
▁Uzbek	-13.6025
▁Yosemite	-13.6025
▁Zuckerbe	-13.6025
▁analog	-13.6025
▁free	-13.6025
▁headphone	-13.6025
▁hotdog	-13.6025
▁măt	-13.6025
▁Armenia	-13.6025
▁Financ	-13.6025
▁Mormon	-13.6025
▁Ommm	-13.6025
▁Taniyama	-13.6025
▁jump	-13.6025
▁nicotin	-13.6025
▁vacxin	-13.6025
▁Cedars	-13.6025
▁play	-13.6025
IUC	-13.6025
parna	-13.6025
▁Belshaz	-13.6025
▁Rift	-13.6025
▁parabol	-13.6025
▁McDo	-13.6025
▁lbs	-13.6025
cester	-13.6025
▁Mountain	-13.6025
▁kilowatt	-13.6025
▁xenlulo	-13.6025
▁zip	-13.6025
bucha	-13.6025
asteur	-13.6026
▁reCAPTCH	-13.6026
▁Mercedes	-13.6026
▁oxal	-13.6026
▁1904	-13.6026
▁Magell	-13.6026
▁PBS	-13.6026
▁Yugoslavia	-13.6026
▁Worth	-13.6026
▁Control	-13.6026
▁Hebrew	-13.6026
▁PRI	-13.6026
▁Petra	-13.6026
▁biophon	-13.6026
▁Milk	-13.6026
lawa	-13.6026
▁1956	-13.6026
▁Bismar	-13.6026
▁Next	-13.6026
▁USC	-13.6026
▁Pisa	-13.6026
▁Petri	-13.6026
akka	-13.6026
▁Joyce	-13.6026
▁plas	-13.6026
▁Image	-13.6026
Rập	-13.6027
▁with	-13.6027
▁Aqua	-13.6027
▁KPI	-13.6027
ienna	-13.6027
▁1919	-13.6027
▁Castle	-13.6027
awat	-13.6027
hrive	-13.6027
fast	-13.6027
▁Babble	-13.6027
acebook	-13.6027
▁Satur	-13.6027
▁1,2,3	-13.6027
▁1,0	-13.6027
▁Summer	-13.6027
sprin	-13.6027
▁Lear	-13.6028
ycin	-13.6028
▁Banjo	-13.6028
▁Off	-13.6029
▁Zimba	-13.6029
▁Benefiel	-13.6029
MPA	-13.6029
▁megawatt	-13.6029
plex	-13.6029
anca	-13.6029
▁homeo	-13.6029
▁Kamkwam	-13.6029
▁Eisen	-13.6029
▁Karolin	-13.603
▁Ines	-13.603
▁Aldo	-13.603
▁Christie	-13.603
▁Natural	-13.603
▁Dal	-13.603
▁Audio	-13.6031
▁Keyn	-13.6031
▁Rolls	-13.6031
▁Dennet	-13.6031
▁Agu	-13.6031
▁Herman	-13.6031
▁Rookie	-13.6031
jec	-13.6031
▁high	-13.6031
▁Ghe	-13.6032
điều	-13.6032
▁Frans	-13.6032
pont	-13.6032
▁Frid	-13.6032
▁gelat	-13.6033
▁Real	-13.6033
▁Oba	-13.6033
▁Mead	-13.6033
▁Mahal	-13.6033
▁3.3	-13.6034
fur	-13.6034
oxide	-13.6034
illus	-13.6034
▁Mons	-13.6034
▁Imp	-13.6035
▁Shap	-13.6035
▁Mujahi	-13.6035
▁Tuts	-13.6036
▁3⁄4	-13.6036
▁Dooli	-13.6036
oãn	-13.6037
▁Law	-13.6037
▁Pepper	-13.6037
▁Halle	-13.6037
▁Girl	-13.6038
▁GBM	-13.6038
▁Take	-13.6038
▁rip	-13.6039
rigami	-13.6039
▁Sư	-13.604
▁Tree	-13.604
▁Ramon	-13.6042
akis	-13.6042
▁156	-13.6043
▁Mmmm	-13.6043
▁Tiger	-13.6044
▁Lé	-13.6045
rump	-13.6045
▁Pack	-13.6045
đa	-13.6046
▁Tahit	-13.6046
▁Wolpe	-13.6047
▁Queens	-13.6048
▁Lion	-13.6048
▁Two	-13.6049
▁yard	-13.6049
▁Sán	-13.6049
▁byte	-13.6049
▁2.7	-13.605
hor	-13.6051
▁Blake	-13.6051
▁Pad	-13.6052
▁Johann	-13.6053
▁Voi	-13.6053
▁Smart	-13.6053
▁Ganesh	-13.6054
▁Rahm	-13.6055
▁check	-13.6055
▁Mash	-13.6055
▁Whites	-13.6056
▁who	-13.6056
▁Quác	-13.6057
aled	-13.6057
.3	-13.6058
▁Karti	-13.6059
▁Maa	-13.606
▁zo	-13.6062
▁Mys	-13.6062
▁Prat	-13.6063
▁Finn	-13.6063
▁Leib	-13.6063
▁105	-13.6064
▁Rain	-13.6069
Mart	-13.607
Buil	-13.607
▁330	-13.607
ilda	-13.6071
lvani	-13.6072
dou	-13.6073
▁Wis	-13.6074
▁Gallo	-13.6074
▁Aber	-13.6074
▁solo	-13.6075
ening	-13.6075
▁Shad	-13.6075
▁Lead	-13.6075
trich	-13.6077
ANC	-13.6077
oming	-13.6082
zie	-13.6083
▁cuồn	-13.6085
▁Ern	-13.6085
▁liề	-13.6085
▁Treat	-13.6086
mens	-13.6087
▁Stac	-13.6087
▁all	-13.6089
▁Carta	-13.609
▁ID	-13.609
24	-13.609
bô	-13.6091
voir	-13.6092
cro	-13.6093
▁Booth	-13.6094
▁Pres	-13.6094
erver	-13.6095
▁See	-13.6096
irke	-13.6096
ada	-13.6098
▁Golden	-13.6098
▁Heal	-13.6104
▁data	-13.6105
had	-13.611
▁Sứ	-13.6111
▁Maurit	-13.6113
▁RT	-13.6114
dja	-13.6114
▁Marv	-13.6118
▁mửa	-13.6119
Change	-13.6119
burn	-13.612
▁Cac	-13.612
▁Silv	-13.6121
▁Abb	-13.6123
▁Nadi	-13.6123
▁Jonh	-13.6124
▁héc	-13.6125
tta	-13.6125
▁Ferra	-13.6127
Raymond	-13.6128
evar	-13.613
span	-13.6131
OPA	-13.6132
▁TM	-13.6134
▁Mega	-13.6143
▁Jak	-13.6143
▁Carme	-13.6148
kara	-13.6149
uyn	-13.6153
▁oát	-13.6153
apal	-13.6157
▁Alam	-13.6157
kin	-13.6158
sing	-13.6159
irut	-13.6167
▁NY	-13.6168
pus	-13.617
▁đư	-13.6173
▁Bod	-13.6174
20.000	-13.6176
▁List	-13.618
▁hổn	-13.618
kal	-13.6182
▁TW	-13.6191
▁Sharo	-13.6192
▁read	-13.6201
▁des	-13.6206
▁Kno	-13.6212
họ	-13.6218
enes	-13.6222
▁Bù	-13.6224
▁Ferre	-13.6226
▁Sid	-13.6226
▁trớn	-13.623
esty	-13.6232
▁Jehan	-13.6236
▁chư	-13.6237
▁Bề	-13.6241
▁Serbi	-13.6242
▁PCC	-13.6247
awi	-13.6253
▁Willi	-13.6253
▁Canale	-13.6253
ees	-13.6255
endor	-13.6255
aka	-13.6257
uts	-13.6258
CH	-13.6259
▁09	-13.6265
cken	-13.6275
oft	-13.6276
▁Germa	-13.6277
▁Bran	-13.6281
auf	-13.6282
▁kung	-13.6283
▁Atti	-13.6283
yad	-13.6284
▁Stud	-13.6288
▁Iwa	-13.6291
▁Gam	-13.6292
▁Ind	-13.6295
aler	-13.6295
iness	-13.6307
▁Pach	-13.6309
ult	-13.631
▁Robb	-13.632
▁Ayl	-13.632
arta	-13.6325
▁Je	-13.6328
▁xạc	-13.6338
▁Bert	-13.6338
▁Rus	-13.6339
▁Baz	-13.6344
824	-13.6349
opia	-13.6351
iall	-13.6359
dela	-13.6362
In	-13.6363
uve	-13.6382
trong	-13.6384
▁min	-13.6389
▁Grave	-13.6392
outer	-13.6392
uez	-13.6396
83	-13.6397
▁tĩ	-13.6426
▁Sơ	-13.643
Ward	-13.6433
▁Cab	-13.6435
▁MA	-13.6442
eaver	-13.6446
▁mé	-13.6452
DI	-13.6458
▁cla	-13.6459
olta	-13.6462
▁gòn	-13.647
76	-13.6481
▁Herz	-13.6483
onen	-13.6494
▁Kw	-13.6505
▁Sit	-13.6512
▁Ác	-13.6536
▁Thum	-13.6541
tinh	-13.6544
non	-13.6563
▁Ab	-13.6567
▁Tere	-13.6571
▁Sum	-13.6575
06	-13.6587
650	-13.6588
▁103	-13.6598
TD	-13.6599
itis	-13.66
ball	-13.6602
abha	-13.6604
opi	-13.6604
▁Googler	-13.6608
ator	-13.6609
rsk	-13.6613
hwaite	-13.6615
▁Ana	-13.6616
▁USA	-13.6622
▁Turn	-13.6626
fl	-13.6637
ombo	-13.6642
urie	-13.6648
46	-13.6648
▁Haz	-13.6649
▁Reme	-13.665
roy	-13.6655
▁Camero	-13.666
yss	-13.6681
tir	-13.6693
acha	-13.6694
▁Larg	-13.6703
▁Les	-13.6705
▁Hale	-13.6707
▁Stewar	-13.6708
▁Mae	-13.6717
▁Rhodes	-13.6721
elin	-13.6722
oca	-13.6726
uis	-13.673
oke	-13.6731
ank	-13.6733
▁Fat	-13.6736
▁Wing	-13.6737
▁Lam	-13.6746
ferr	-13.6747
▁Mid	-13.6747
▁lữa	-13.677
0.6	-13.6779
vie	-13.6783
▁Dung	-13.6785
▁Bia	-13.6786
ocken	-13.6815
▁Read	-13.6816
▁McCu	-13.6818
▁Mise	-13.682
anto	-13.6829
53	-13.6831
hr	-13.6833
mel	-13.6843
▁Down	-13.6848
icks	-13.6854
▁Lyn	-13.6856
ofi	-13.6856
▁Carolin	-13.686
▁Rang	-13.6875
iya	-13.6879
wing	-13.6883
▁Ferr	-13.6886
EF	-13.6895
zu	-13.6907
▁Mile	-13.6917
▁Joy	-13.6932
▁Haa	-13.6943
▁Famil	-13.6953
▁trôn	-13.6955
▁Naz	-13.6962
▁Zul	-13.6965
▁Hạn	-13.6967
▁Kings	-13.6972
els	-13.6976
▁đụn	-13.6996
▁Seni	-13.6998
800	-13.7005
SE	-13.7011
ahua	-13.7016
▁Arg	-13.7066
▁PET	-13.7077
▁Merri	-13.7083
etro	-13.7085
ean	-13.7086
▁miến	-13.7086
atha	-13.7087
▁Say	-13.7091
▁Mata	-13.7096
zoi	-13.7098
aji	-13.7107
▁5.	-13.7115
PC	-13.7123
▁Truy	-13.7132
ema	-13.7134
35	-13.7134
▁gigab	-13.7135
▁was	-13.7136
tica	-13.7142
aja	-13.7145
▁Met	-13.7156
ology	-13.7177
▁mar	-13.7181
gue	-13.7193
Bund	-13.7201
eja	-13.7209
pson	-13.7215
,6	-13.7215
▁Um	-13.7218
erz	-13.7219
▁lác	-13.7229
▁Cư	-13.723
▁Gero	-13.7242
,9	-13.725
▁Dela	-13.7251
▁Carr	-13.7254
OC	-13.727
▁TEDxT	-13.7288
sch	-13.7291
▁Rosi	-13.7291
ude	-13.7302
uw	-13.7306
doc	-13.7314
▁Start	-13.7314
rani	-13.7316
uca	-13.7338
ove	-13.7338
gón	-13.7338
22	-13.7346
ndro	-13.7351
DG	-13.7354
▁Twi	-13.7359
VC	-13.7359
▁Muni	-13.7363
▁Scha	-13.7366
abyte	-13.7375
AW	-13.7382
-5	-13.7387
dish	-13.7397
ladi	-13.74
tus	-13.7421
▁Joll	-13.7423
▁Yuc	-13.7432
▁Tele	-13.7443
▁Prag	-13.7443
itos	-13.7476
tophan	-13.7476
inker	-13.7486
icon	-13.7489
▁Nie	-13.7497
▁Kaa	-13.7509
iệng	-13.7512
▁chạ	-13.7513
▁Swe	-13.7514
97	-13.7516
▁Tz	-13.7542
iology	-13.7543
ö	-13.7544
kon	-13.7556
▁Lama	-13.7564
arrow	-13.7568
▁khiê	-13.7591
▁Maed	-13.7592
ọ	-13.7617
▁Franc	-13.7641
▁Sieg	-13.7659
rger	-13.7664
Napol	-13.7665
▁Magi	-13.7669
llo	-13.7673
illett	-13.7676
cini	-13.7682
▁Gal	-13.7688
▁Mil	-13.7694
▁Marle	-13.7717
▁Sen	-13.772
ters	-13.7729
▁Rubi	-13.7737
back	-13.7737
▁Tần	-13.7753
oso	-13.7753
▁iO	-13.7757
live	-13.7764
▁Nation	-13.7781
▁Kick	-13.7781
▁Edu	-13.7789
▁Shr	-13.7798
var	-13.7813
hero	-13.7813
avat	-13.7815
21	-13.782
ncel	-13.7834
uska	-13.7847
LM	-13.785
▁Madr	-13.7851
core	-13.7861
▁Templ	-13.7869
IS	-13.7873
▁Burg	-13.7874
▁Huy	-13.788
ernet	-13.7881
shir	-13.789
▁Ami	-13.7896
▁Hand	-13.7908
▁hooc	-13.7919
▁Miche	-13.7931
ids	-13.7932
▁Madd	-13.7936
kle	-13.7937
vaz	-13.7938
▁tè	-13.7945
▁Arr	-13.7945
twe	-13.795
Tạ	-13.7954
▁Aid	-13.7956
▁Jans	-13.7966
alf	-13.7973
▁Ak	-13.7977
ario	-13.7989
▁Kac	-13.7993
rina	-13.7998
▁Spa	-13.7998
400	-13.8007
whe	-13.8011
▁loan	-13.8035
wart	-13.804
▁Geo	-13.8054
▁gạ	-13.8073
AID	-13.8097
anic	-13.8105
▁Miss	-13.8108
▁pal	-13.8124
rut	-13.8134
cal	-13.8158
▁Saga	-13.8159
▁Nye	-13.816
▁Tana	-13.8172
▁Dav	-13.8174
end	-13.8181
▁230	-13.819
▁hipp	-13.8193
▁Dig	-13.8195
TH	-13.8195
▁Stra	-13.8201
▁Bara	-13.8207
iga	-13.8228
▁Vân	-13.8234
ior	-13.8238
gles	-13.8239
anja	-13.8243
▁440	-13.825
▁Anton	-13.8257
▁cass	-13.8265
ophon	-13.8266
▁Lưỡ	-13.8271
ient	-13.8272
▁Sig	-13.8279
brid	-13.8284
▁Cant	-13.8285
tive	-13.8286
itch	-13.8286
ions	-13.8289
adda	-13.829
▁Aw	-13.8291
▁Bạc	-13.8301
băng	-13.8301
▁Eb	-13.8305
▁Soph	-13.8311
▁550	-13.8314
▁Lil	-13.8322
erly	-13.8329
nata	-13.8332
▁Brah	-13.8336
illing	-13.8338
ova	-13.8348
ites	-13.8352
▁Pav	-13.8353
ellu	-13.8362
nzo	-13.8371
▁Shand	-13.8378
undi	-13.8379
▁Ngụ	-13.8387
▁trư	-13.8387
KO	-13.8389
▁Daw	-13.8391
▁Hind	-13.8395
rell	-13.8397
ullin	-13.8404
ẳ	-13.8413
▁Mauri	-13.8425
▁Blog	-13.8431
▁Ư	-13.8432
dine	-13.8447
▁Sharm	-13.8455
▁Hum	-13.846
ngar	-13.8463
quin	-13.8466
ượ	-13.8469
ilon	-13.8471
vak	-13.8472
▁VI	-13.8474
▁Bibl	-13.8475
▁Shephe	-13.8479
▁trồ	-13.8482
▁Jorge	-13.8487
À	-13.8488
Andrea	-13.8488
Colomb	-13.8489
project	-13.8489
Tech	-13.8491
PT	-13.8492
▁Dah	-13.8492
▁Blak	-13.8493
Arthu	-13.8493
Israel	-13.8493
Trung	-13.8493
2008	-13.8493
động	-13.8494
udd	-13.8494
life	-13.8494
▁muỗ	-13.8494
▁ứ	-13.8494
Mari	-13.8494
bạn	-13.8496
Bird	-13.8498
phê	-13.8498
CK	-13.8503
▁Stock	-13.8506
etwork	-13.8507
entl	-13.8508
▁Clare	-13.851
tress	-13.8511
▁Woods	-13.8512
luja	-13.8513
roe	-13.8514
Sáu	-13.8514
Rev	-13.8516
phần	-13.8516
▁Charle	-13.8517
▁Money	-13.8517
▁Tunis	-13.8518
▁Rosa	-13.8522
ween	-13.8523
▁Mandel	-13.8523
▁wiki	-13.8523
liss	-13.8524
▁sỏ	-13.8524
ollywo	-13.8524
▁Valenti	-13.8525
▁carb	-13.8525
▁Pleist	-13.8525
▁Reykjav	-13.8525
▁break	-13.8525
ASDF	-13.8525
alencia	-13.8525
aswam	-13.8525
enschatz	-13.8525
ewild	-13.8525
lfs	-13.8525
Ù	-13.8525
▁Adolf	-13.8525
▁Alessandr	-13.8525
▁Arduino	-13.8525
▁Bamiyan	-13.8525
▁Caledonia	-13.8525
▁Citizen	-13.8525
▁Flintstone	-13.8525
▁Gerhard	-13.8525
▁Hitchcock	-13.8525
▁Humphrey	-13.8525
▁Islam	-13.8525
▁Jetman	-13.8525
▁Kwabena	-13.8525
▁Mairead	-13.8525
▁McFadd	-13.8525
▁Medicine	-13.8525
▁Metropoli	-13.8525
▁Narcis	-13.8525
▁PDF	-13.8525
▁Pablo	-13.8525
▁Resource	-13.8525
▁Schwarz	-13.8525
▁Siyathemba	-13.8525
▁Skinner	-13.8525
▁Stratford	-13.8525
▁WOW	-13.8525
▁carbohydrat	-13.8525
▁cricket	-13.8525
▁formaldehyde	-13.8525
▁nhặn	-13.8525
▁ounce	-13.8525
▁pajama	-13.8525
▁sulfate	-13.8525
▁thuât	-13.8525
▁trumpet	-13.8525
	-13.8525
▁Botox	-13.8525
▁CyAr	-13.8525
▁Dhabi	-13.8525
▁GCSE	-13.8525
▁Ishi	-13.8525
▁Metric	-13.8525
▁Shankar	-13.8525
▁TCN	-13.8525
▁TEDtalk	-13.8525
▁Under	-13.8525
▁wug	-13.8525
▁1-2-3	-13.8525
▁99.999	-13.8525
▁Hawke	-13.8525
▁Heffer	-13.8525
▁Krypton	-13.8525
▁Lithuan	-13.8525
▁NGH	-13.8525
▁Providenc	-13.8525
▁Tuscany	-13.8525
▁snack	-13.8525
▁Hexan	-13.8525
▁Pentium	-13.8525
exicograph	-13.8525
▁Africa	-13.8525
▁Auschwitz	-13.8525
▁Fransisco	-13.8525
▁Pringle	-13.8525
▁Schrod	-13.8525
▁Tuft	-13.8525
▁starsha	-13.8525
▁Easy	-13.8525
▁Ultra	-13.8525
▁Braille	-13.8525
▁Clint	-13.8525
▁Hancock	-13.8525
▁Humbo	-13.8525
▁shot	-13.8525
▁Forrest	-13.8525
▁Northwest	-13.8525
▁Pedro	-13.8525
▁Hux	-13.8525
▁Dream	-13.8525
▁Turkmen	-13.8525
▁Frost	-13.8525
▁Nathali	-13.8525
▁tuyêt	-13.8525
▁Hutchi	-13.8526
▁Schaef	-13.8526
▁IDEO	-13.8526
▁Okoll	-13.8526
▁Shake	-13.8526
▁Malone	-13.8526
▁Rustic	-13.8526
▁TEDxUSC	-13.8526
▁Bihar	-13.8526
▁nacho	-13.8526
▁Stux	-13.8526
▁Promet	-13.8526
▁scrot	-13.8526
strep	-13.8526
▁Kitty	-13.8526
▁Urban	-13.8526
bio	-13.8526
▁Telecom	-13.8526
wartz	-13.8526
▁sapien	-13.8526
▁Verna	-13.8526
▁alpha	-13.8526
▁Ghos	-13.8526
▁Gibra	-13.8526
▁Spider	-13.8526
▁Baobab	-13.8526
▁Otta	-13.8526
▁Fair	-13.8526
Houdin	-13.8526
▁Pavlov	-13.8526
zzar	-13.8526
▁Barcia	-13.8526
▁Haha	-13.8526
▁Hercul	-13.8526
▁Angr	-13.8526
▁Anant	-13.8526
▁Rudy	-13.8526
▁Agra	-13.8526
▁Chaplin	-13.8526
▁Enter	-13.8526
esoth	-13.8526
▁Mono	-13.8526
▁Pearl	-13.8526
▁Penta	-13.8527
mous	-13.8527
▁fusi	-13.8527
▁phospha	-13.8527
warf	-13.8527
▁xentim	-13.8527
▁Boyle	-13.8527
▁IMU	-13.8527
▁Nature	-13.8527
ermont	-13.8527
▁Ballbot	-13.8527
▁Emory	-13.8527
▁996	-13.8527
▁Levit	-13.8527
▁Rider	-13.8527
▁Liver	-13.8527
agadd	-13.8527
▁TEDYou	-13.8528
▁10-15	-13.8528
▁Nair	-13.8528
▁Schwa	-13.8528
▁7.6	-13.8528
Get	-13.8528
▁Andra	-13.8528
▁Waal	-13.8528
▁Production	-13.8528
▁Fiore	-13.8528
▁Hobb	-13.8528
hili	-13.8528
▁Giudi	-13.8528
EB	-13.8528
▁nanomet	-13.8529
▁Fark	-13.8529
▁Ritz	-13.8529
▁1812	-13.8529
▁Shuk	-13.8529
▁Ludwi	-13.8529
▁Sadow	-13.8529
elve	-13.8529
▁Oak	-13.8529
▁Chihu	-13.8529
sterda	-13.853
▁Skol	-13.853
▁Elah	-13.853
XD	-13.853
▁Chaos	-13.853
rash	-13.853
eleg	-13.8531
Ông	-13.8531
▁Ắ	-13.8531
▁Ế	-13.8531
▁Pete	-13.8532
▁multi	-13.8532
mega	-13.8532
▁Oxf	-13.8532
▁Zak	-13.8532
▁6,5	-13.8532
▁Borde	-13.8532
▁Maker	-13.8533
▁àoo	-13.8533
▁FI	-13.8533
ewer	-13.8533
▁Fres	-13.8533
,10	-13.8533
hites	-13.8534
▁Knop	-13.8534
▁Force	-13.8534
▁Amen	-13.8534
▁3500	-13.8534
▁Swaz	-13.8535
▁WI	-13.8535
▁Slu	-13.8535
▁2.4	-13.8535
gia	-13.8535
fj	-13.8536
▁Court	-13.8536
▁Entrop	-13.8536
▁Jeh	-13.8537
▁Mitch	-13.8537
▁Slav	-13.8537
▁Bluegrass	-13.8537
▁Passa	-13.8537
▁Issa	-13.8538
alal	-13.8538
▁Micro	-13.8538
▁260	-13.8539
▁Sack	-13.8539
stine	-13.8539
▁Bros	-13.8539
eace	-13.854
ahir	-13.854
enya	-13.854
▁Hilton	-13.854
eatle	-13.854
▁Kras	-13.8541
▁Jaipu	-13.8541
▁07	-13.8542
▁1.9	-13.8542
▁Hunts	-13.8542
bane	-13.8542
▁With	-13.8542
▁Jain	-13.8543
▁Mess	-13.8543
strict	-13.8543
▁Ăng	-13.8543
▁Suss	-13.8544
▁Stro	-13.8544
▁Network	-13.8544
▁Schell	-13.8544
▁Dass	-13.8544
▁Heer	-13.8544
▁Beer	-13.8545
▁Sheep	-13.8546
▁glu	-13.8546
▁Charm	-13.8546
▁PG	-13.8546
▁Wit	-13.8547
▁four	-13.8547
andina	-13.8547
▁sonicat	-13.8547
▁Harbi	-13.8548
▁Michoacan	-13.8548
plat	-13.8548
woa	-13.8549
8,7	-13.855
▁Reinh	-13.855
▁WM	-13.855
vita	-13.855
gado	-13.855
3,7	-13.855
▁Shige	-13.8551
▁Taka	-13.8551
▁Economic	-13.8551
▁135	-13.8552
▁Lomb	-13.8554
▁bươ	-13.8554
huynh	-13.8554
elit	-13.8554
ucks	-13.8554
làm	-13.8555
▁Nige	-13.8555
CLU	-13.8555
▁Bront	-13.8556
▁titan	-13.8557
▁Boh	-13.8557
ezza	-13.8557
▁Goro	-13.8557
▁Sabia	-13.8557
▁132	-13.8558
▁MI	-13.8559
▁rupee	-13.856
▁para	-13.856
nect	-13.856
-12	-13.856
▁Mies	-13.856
▁Padd	-13.8561
▁Colomb	-13.8561
▁Lenno	-13.8562
▁project	-13.8562
▁Vig	-13.8562
▁Niger	-13.8563
▁Holly	-13.8563
▁117	-13.8564
▁Jorgen	-13.8565
▁Theme	-13.8565
▁Brett	-13.8567
▁1,8	-13.8568
IP	-13.8568
▁Túi	-13.8569
▁Bela	-13.857
clav	-13.8571
▁Alle	-13.8571
▁Space	-13.8573
▁burn	-13.8573
▁Ete	-13.8573
nison	-13.8574
▁Pythago	-13.8575
▁Weh	-13.8575
▁đẵ	-13.8575
▁01	-13.8576
sor	-13.8576
▁Nep	-13.8576
▁Ahh	-13.8577
▁Lemm	-13.8577
▁104	-13.8578
▁Schum	-13.858
▁Athen	-13.858
-8	-13.858
▁ghềnh	-13.8581
hệ	-13.8581
TS	-13.8583
▁Bom	-13.8585
▁Appalachian	-13.8585
▁hế	-13.8587
▁Lyd	-13.8587
opath	-13.8589
▁Tate	-13.8593
san	-13.8593
ups	-13.8593
▁3.2	-13.8594
▁Diffe	-13.8596
▁Grim	-13.8596
▁Kip	-13.8596
▁Copa	-13.8598
eyla	-13.8601
▁trans	-13.8602
▁Crock	-13.8603
▁2,4	-13.8603
▁Side	-13.8605
▁beta	-13.8605
▁Acheul	-13.8607
▁CN	-13.861
ease	-13.8616
▁methan	-13.8616
▁0.3	-13.8617
▁Egg	-13.8619
▁pao	-13.8622
exe	-13.8624
▁Adin	-13.8627
▁Jou	-13.8628
junk	-13.8629
PLA	-13.8631
▁Greenp	-13.8633
apoli	-13.8633
ashimi	-13.8634
▁Inc	-13.8635
lack	-13.8637
▁Neuron	-13.8638
▁Ske	-13.8639
yaw	-13.864
▁Maha	-13.864
đây	-13.8642
▁Nay	-13.8643
▁Yam	-13.8644
hant	-13.8645
▁Voda	-13.8646
▁Kurd	-13.8648
▁Annan	-13.8649
▁Bald	-13.865
▁Sharp	-13.865
▁Eddi	-13.8651
vào	-13.8654
▁Pari	-13.8655
fra	-13.8659
▁Sharma	-13.8661
ocal	-13.8663
▁Cas	-13.8664
iềng	-13.8665
▁Smol	-13.8667
crat	-13.8669
▁SH	-13.8669
▁Baba	-13.8672
▁Bry	-13.8672
rush	-13.8672
▁Oct	-13.8674
▁ze	-13.8675
Toole	-13.8677
▁Corp	-13.8677
ebo	-13.8678
▁CU	-13.8678
▁Scient	-13.8679
▁Nav	-13.8679
▁Abi	-13.868
IDA	-13.8681
utan	-13.8687
▁Swan	-13.8688
▁Rét	-13.8689
ounde	-13.869
hari	-13.8692
▁AA	-13.8693
▁Phel	-13.8693
▁Hero	-13.8696
▁Ign	-13.8702
▁Asa	-13.8704
ổn	-13.871
▁Tar	-13.8712
▁Indian	-13.8716
▁Dev	-13.8719
▁Tol	-13.872
▁Arav	-13.872
▁Yến	-13.8721
▁shop	-13.8724
▁đì	-13.8728
▁Dion	-13.8728
,25	-13.873
nnell	-13.8732
inso	-13.8733
▁thưở	-13.8734
FC	-13.8735
▁Roo	-13.8735
759	-13.8746
eus	-13.8746
eek	-13.8748
▁Amo	-13.875
ida	-13.8755
vind	-13.8767
trea	-13.8778
▁AN	-13.8778
▁Advi	-13.8779
▁đản	-13.8781
▁Roh	-13.8781
skin	-13.8783
agua	-13.8787
olida	-13.8794
▁Samar	-13.8796
etri	-13.8796
▁xịn	-13.88
ffic	-13.88
▁Hem	-13.8812
▁vun	-13.8816
mud	-13.882
andor	-13.8822
dot	-13.8825
▁Tomas	-13.8826
eloit	-13.883
umar	-13.8836
race	-13.8837
ID	-13.8839
La	-13.8841
obson	-13.8849
wish	-13.885
▁Duma	-13.8851
▁key	-13.8853
beca	-13.8855
enge	-13.8856
▁Mund	-13.8857
▁Naga	-13.886
ious	-13.8866
▁Sanj	-13.8869
ienne	-13.887
▁Arcad	-13.8874
▁Chate	-13.8879
ull	-13.8881
FAR	-13.8882
irma	-13.8892
▁Ado	-13.8893
▁Wino	-13.8896
▁Pot	-13.8898
epper	-13.8901
Blooming	-13.8903
▁comp	-13.8907
▁Budw	-13.8908
WF	-13.8918
▁Carlo	-13.8918
▁ster	-13.8922
scot	-13.8928
02	-13.8932
▁Phar	-13.8933
mage	-13.8933
jit	-13.8938
uss	-13.894
▁Võ	-13.8941
▁Twin	-13.8951
gato	-13.8955
dmund	-13.8955
olia	-13.8958
▁han	-13.8962
Uy	-13.897
▁Musa	-13.897
arbor	-13.8973
apt	-13.898
aven	-13.8984
logger	-13.8991
▁Terra	-13.8999
▁Mam	-13.8999
▁Krug	-13.9001
▁Marin	-13.9002
kra	-13.9002
olbe	-13.9009
▁Ic	-13.9014
▁Nak	-13.9025
▁Pers	-13.9027
▁Michaela	-13.903
▁one	-13.904
▁casset	-13.9041
dit	-13.9043
ake	-13.9057
metri	-13.906
hiện	-13.906
▁met	-13.9068
▁189	-13.9074
▁Barn	-13.9079
hoe	-13.9089
▁Rees	-13.9089
yder	-13.91
▁Gala	-13.9102
▁Kent	-13.911
▁Gul	-13.9115
▁Bave	-13.9121
▁mile	-13.9134
▁Bab	-13.9139
▁Sey	-13.9139
▁Superma	-13.9141
ds	-13.9153
rèm	-13.9168
mát	-13.9171
ubli	-13.9177
RT	-13.9185
Nó	-13.9187
ON	-13.92
▁Lest	-13.9248
side	-13.9255
kow	-13.9257
cKin	-13.926
▁Kee	-13.9278
oid	-13.928
LS	-13.9281
▁Zaha	-13.9297
▁Belle	-13.9301
▁Vod	-13.9328
▁Blan	-13.9329
▁Lea	-13.9336
▁162	-13.9345
ourt	-13.9347
▁Archiv	-13.9354
ations	-13.9363
▁Andrea	-13.9368
▁Tap	-13.9388
▁Ps	-13.9392
ugg	-13.9393
▁Palme	-13.9395
PU	-13.9397
▁Cay	-13.9398
▁Dami	-13.9404
▁gal	-13.9422
▁Reggi	-13.9424
ECT	-13.9426
wo	-13.9434
atchi	-13.9436
▁Ké	-13.9462
▁Spect	-13.9477
▁xôn	-13.9482
vil	-13.9488
▁nhiê	-13.9497
rex	-13.9503
down	-13.9514
▁Kaland	-13.9524
▁Fly	-13.9525
▁Toa	-13.9532
▁Mart	-13.9548
▁Ede	-13.9551
▁rú	-13.9551
▁End	-13.9565
eir	-13.9565
lif	-13.9575
▁Gro	-13.958
▁Tippe	-13.9589
hem	-13.9598
chet	-13.96
hekel	-13.9606
▁Thác	-13.9608
ghiệm	-13.961
▁Oma	-13.9613
yện	-13.9617
▁Bud	-13.9632
zuk	-13.9635
▁-1	-13.9651
alwar	-13.9674
elde	-13.9702
stati	-13.9703
orner	-13.974
UMB	-13.9772
▁Plu	-13.9781
kim	-13.9786
▁Cướ	-13.9793
▁Eno	-13.9795
▁Kang	-13.9803
ush	-13.9811
▁Tốn	-13.9814
gra	-13.9821
aya	-13.9829
▁Smil	-13.9856
▁Exc	-13.987
▁micr	-13.9872
▁Matter	-13.9879
▁McC	-13.989
▁AID	-13.9917
▁Eige	-13.9931
ivi	-13.9938
▁Southam	-13.9974
▁Monte	-13.9981
▁From	-13.9985
77	-14.0006
▁Conne	-14.0051
olin	-14.0058
ami	-14.0067
can	-14.0069
pack	-14.0087
▁04	-14.0103
▁Fre	-14.0117
▁Mille	-14.0124
erner	-14.0124
eise	-14.0131
llum	-14.0137
▁Macke	-14.014
▁Fit	-14.0142
▁Ima	-14.016
Rex	-14.0162
▁pro	-14.0172
▁Mack	-14.0173
▁Malin	-14.0188
onne	-14.0192
▁Chino	-14.0196
tarter	-14.0226
enda	-14.0229
▁Ope	-14.0231
ose	-14.0233
▁Wha	-14.0247
▁Hughe	-14.0293
eez	-14.0293
▁Ex	-14.0296
▁rượ	-14.03
▁limb	-14.0311
▁Barna	-14.0335
ben	-14.0337
PI	-14.0351
erfa	-14.0355
onic	-14.0361
rườ	-14.0389
▁Won	-14.0395
▁Vé	-14.0395
▁Carli	-14.0403
mir	-14.0405
agh	-14.0411
lier	-14.0413
less	-14.0414
▁Esta	-14.0424
kav	-14.0433
▁Pale	-14.0445
lhou	-14.0448
▁Wolfe	-14.0469
ife	-14.0495
▁Chin	-14.0512
kyd	-14.0524
▁Cer	-14.0524
asel	-14.0525
▁864	-14.0553
81	-14.057
lla	-14.0575
56	-14.0581
uhahaha	-14.0589
▁Cad	-14.0595
99	-14.0605
74	-14.0637
ardo	-14.0668
ST	-14.067
▁Gev	-14.0698
▁Buch	-14.07
▁Spe	-14.0701
▁Hog	-14.0706
atter	-14.0717
laza	-14.0747
otor	-14.0752
niz	-14.0783
caro	-14.0784
▁Bọ	-14.0803
▁174	-14.0813
▁khoắn	-14.0815
ally	-14.084
▁Poll	-14.0851
▁Arb	-14.0854
▁Shai	-14.0891
▁Mode	-14.0893
▁Jes	-14.0897
▁Chan	-14.0902
asub	-14.0911
▁Lộ	-14.0939
ncer	-14.0941
▁Burr	-14.0944
main	-14.0958
book	-14.0972
eigh	-14.0985
obs	-14.0995
▁Cob	-14.1001
▁Kohl	-14.1002
rado	-14.1004
▁Dor	-14.1009
hine	-14.1014
arts	-14.1019
rvey	-14.1027
▁Ow	-14.1035
3000	-14.1051
▁Til	-14.106
▁Ada	-14.1062
▁UA	-14.1063
▁Bơ	-14.1065
▁Donne	-14.1088
▁Fel	-14.1089
tyl	-14.1131
▁Fol	-14.1138
▁Fall	-14.1153
▁165	-14.1157
anza	-14.1161
done	-14.1173
oup	-14.1177
▁hormon	-14.1179
▁Bụ	-14.1192
▁Magn	-14.1192
▁Klin	-14.1201
alin	-14.1216
▁UNI	-14.1222
nj	-14.1228
▁Inge	-14.123
▁Kib	-14.1233
uds	-14.1245
▁Der	-14.1252
▁Tố	-14.1255
cif	-14.1258
▁4,	-14.126
▁Route	-14.1262
rian	-14.1265
▁think	-14.1269
▁Lian	-14.127
▁Mirr	-14.1271
▁TEDxB	-14.1271
zo	-14.1273
enne	-14.1281
▁Bá	-14.1284
▁Hayd	-14.1292
▁Viv	-14.1295
ndis	-14.1295
arte	-14.1299
app	-14.1301
▁Solei	-14.1302
hía	-14.132
▁Kra	-14.1325
iller	-14.1334
saw	-14.1336
▁Blogg	-14.136
handra	-14.1364
hita	-14.1379
ques	-14.1383
áz	-14.1392
cả	-14.1398
▁SO	-14.1403
oku	-14.1422
uýt	-14.1428
-3	-14.1432
dorf	-14.1437
acs	-14.1437
je	-14.1441
Pe	-14.1448
▁112	-14.1451
sian	-14.146
▁Mein	-14.1472
▁Fro	-14.1489
paca	-14.1492
ạ	-14.1499
ube	-14.1501
▁LE	-14.1521
nside	-14.1556
▁Sebasti	-14.1567
oler	-14.158
under	-14.1589
▁Rom	-14.1591
aroun	-14.1594
▁Raj	-14.1602
raw	-14.1604
-7	-14.1626
▁Pap	-14.1629
wed	-14.163
▁Thạc	-14.1631
dia	-14.1638
▁Mr	-14.1642
harata	-14.1656
Dodi	-14.1664
beat	-14.1667
▁2,	-14.1683
▁trứ	-14.1691
▁Jov	-14.1699
▁Cow	-14.17
umbl	-14.1717
▁Ches	-14.172
▁Bhar	-14.1722
▁myc	-14.1724
rene	-14.1728
▁Bio	-14.1729
rli	-14.1732
Elys	-14.1736
show	-14.1746
cketma	-14.1746
▁Pel	-14.175
▁Speed	-14.1751
eras	-14.1752
alum	-14.1756
▁CS	-14.1757
82	-14.1762
▁Hawa	-14.1763
rava	-14.1765
bec	-14.1767
▁Bute	-14.177
▁Tea	-14.1771
aiku	-14.1772
▁nướ	-14.1774
▁quẹ	-14.1774
▁Toni	-14.1779
lays	-14.1779
byte	-14.1782
▁thừ	-14.1789
found	-14.179
▁Tab	-14.179
▁Cle	-14.181
aign	-14.181
▁Serg	-14.1813
ớc	-14.1815
pil	-14.1816
Ậ	-14.1817
NY	-14.182
▁136	-14.182
Pix	-14.1821
▁vư	-14.1822
trans	-14.1823
Walk	-14.1823
bisa	-14.1824
78	-14.1824
India	-14.1825
Ê	-14.1825
Jacob	-14.1825
gov	-14.1825
bíp	-14.1825
Jordan	-14.1826
Tri	-14.1826
2013	-14.1826
MRI	-14.1826
Rock	-14.1826
cacbon	-14.1826
Carl	-14.1826
Canada	-14.1827
kèm	-14.1827
York	-14.1827
Ý	-14.1827
copy	-14.1827
2012	-14.1827
Wire	-14.1827
2006	-14.1827
triệu	-14.1827
đổi	-14.1827
titan	-14.1828
Sina	-14.1828
wich	-14.1828
Iran	-14.1828
City	-14.1829
▁quằn	-14.1829
▁129	-14.1829
NT	-14.1832
2007	-14.1832
Ạ	-14.1833
đặc	-14.1833
latt	-14.1834
vì	-14.1834
được	-14.1834
lợi	-14.1835
▁Tibet	-14.1835
ldt	-14.1835
▁Gara	-14.1836
hemo	-14.1836
đã	-14.1837
far	-14.1838
Paris	-14.1838
Mỹ	-14.184
▁205	-14.184
▁Runn	-14.1842
CU	-14.1842
▁Kas	-14.1843
▁Pors	-14.1844
▁Madh	-14.1844
lưới	-14.1845
,19	-14.1845
▁14000	-14.1846
mark	-14.1847
witter	-14.1849
xel	-14.185
llik	-14.185
Ấn	-14.185
hurch	-14.1851
arco	-14.1851
▁fear	-14.1852
▁Scan	-14.1853
▁Friend	-14.1853
itamin	-14.1853
đồng	-14.1853
quare	-14.1854
▁neutr	-14.1854
ickle	-14.1855
▁Othe	-14.1855
ealth	-14.1856
▁nhữn	-14.1856
olita	-14.1858
▁Heath	-14.1858
▁Benjam	-14.1858
shburn	-14.1858
▁Hodg	-14.1858
▁Otto	-14.1858
angelo	-14.1858
▁polyme	-14.1858
▁Wald	-14.1858
nsulin	-14.1859
▁Mount	-14.1859
▁Olymp	-14.1859
▁Kunst	-14.1859
pocalyp	-14.1859
ä	-14.1859
▁Ixraen	-14.1859
abushka	-14.1859
child	-14.1859
~	-14.1859
Ã	-14.1859
̀	-14.1859
́	-14.1859
Ể	-14.1859
Ự	-14.1859
▁Boswana	-14.1859
▁Botero	-14.1859
▁Bowden	-14.1859
▁Constitución	-14.1859
▁Curiosit	-14.1859
▁Declan	-14.1859
▁Eccles	-14.1859
▁Ezra	-14.1859
▁Garniez	-14.1859
▁Gonzale	-14.1859
▁HTML	-14.1859
▁Hebron	-14.1859
▁Heuser	-14.1859
▁Hobsbaw	-14.1859
▁Inception	-14.1859
▁Kadinsky	-14.1859
▁Laetitia	-14.1859
▁Letters	-14.1859
▁Libeskind	-14.1859
▁Madonna	-14.1859
▁Magazine	-14.1859
▁Matreyek	-14.1859
▁Mehico	-14.1859
▁Montessori	-14.1859
▁Moussaou	-14.1859
▁Oppenheim	-14.1859
▁PUMA	-14.1859
▁RoboC	-14.1859
▁Robotics	-14.1859
▁Sadik	-14.1859
▁Scarlet	-14.1859
▁Tirana	-14.1859
▁Tupperware	-14.1859
▁Tyrannosaur	-14.1859
▁UFO	-14.1859
▁Udaipur	-14.1859
▁Vietnam	-14.1859
▁Volk	-14.1859
▁Wernick	-14.1859
▁Woznia	-14.1859
▁argh	-14.1859
▁gradien	-14.1859
Rast	-14.1859
▁Alhur	-14.1859
▁Baumgar	-14.1859
▁Berkenstock	-14.1859
▁Field	-14.1859
▁Gibbon	-14.1859
▁MSN	-14.1859
▁Nerve	-14.1859
▁Schacht	-14.1859
▁Vitruvian	-14.1859
appiness	-14.1859
▁Alaveteli	-14.1859
▁Chamber	-14.1859
▁KHÔ	-14.1859
▁Technolog	-14.1859
▁accordion	-14.1859
jebr	-14.1859
▁Admira	-14.1859
▁Astaire	-14.1859
▁Micronesia	-14.1859
Edmonto	-14.1859
▁10,20,30	-14.1859
▁Bambi	-14.1859
▁Fischer	-14.1859
▁Jayant	-14.1859
▁Shuffle	-14.1859
▁Terkel	-14.1859
flying	-14.1859
▁Getty	-14.1859
▁Pursat	-14.1859
▁Gooseberry	-14.1859
▁Kumb	-14.1859
america	-14.1859
▁Concert	-14.1859
▁NDD	-14.1859
▁buffet	-14.1859
thiol	-14.1859
▁BRIC	-14.1859
▁Phillipines	-14.1859
▁Puli	-14.1859
▁Parsi	-14.1859
▁RoMe	-14.1859
▁chuôt	-14.1859
▁Clause	-14.1859
▁McEw	-14.1859
▁Maison	-14.1859
Housman	-14.1859
▁Planet	-14.1859
Bake	-14.1859
▁SEAL	-14.1859
twoma	-14.1859
▁26.2	-14.1859
efens	-14.1859
▁benzen	-14.1859
,15	-14.1859
▁Dunham	-14.1859
▁Washinton	-14.1859
ashin	-14.1859
▁Butler	-14.1859
▁Gle	-14.1859
▁heads	-14.1859
▁Amunds	-14.1859
▁TEDxHouston	-14.1859
▁Tinkering	-14.1859
okite	-14.1859
▁peso	-14.1859
▁Holla	-14.1859
▁Shinola	-14.1859
▁Peterborough	-14.1859
Channel	-14.1859
cycli	-14.1859
rigade	-14.1859
scape	-14.1859
quist	-14.1859
▁plu	-14.1859
▁poli	-14.1859
▁Logan	-14.1859
▁talk	-14.1859
▁Sokolo	-14.1859
▁glyc	-14.186
▁Dawes	-14.186
▁Raq	-14.186
Âu	-14.186
Concord	-14.186
ikwa	-14.186
▁Obl	-14.186
▁Indus	-14.186
▁Cardin	-14.186
▁Ashburn	-14.186
▁ETH	-14.186
▁Savannah	-14.186
▁Sevi	-14.186
▁Prada	-14.186
Clau	-14.186
▁McGre	-14.186
▁Ladak	-14.186
▁Marble	-14.186
▁Meso	-14.186
▁ALS	-14.186
▁Dayton	-14.186
PER	-14.186
▁Equa	-14.186
▁Afra	-14.186
hakti	-14.186
▁Gucci	-14.186
hell	-14.186
▁Dimit	-14.1861
▁Inver	-14.1861
▁Coleman	-14.1861
▁Nirenber	-14.1861
▁nịt	-14.1861
▁elip	-14.1861
aisal	-14.1861
SEA	-14.1861
▁double	-14.1861
▁Engl	-14.1861
shak	-14.1861
ictionar	-14.1861
▁ISS	-14.1862
▁1955	-14.1862
øre	-14.1862
▁Lynch	-14.1862
▁Fight	-14.1862
▁Seb	-14.1862
▁Steel	-14.1862
▁Place	-14.1863
Pinn	-14.1863
akash	-14.1863
Aquil	-14.1863
rget	-14.1863
▁stick	-14.1863
▁Mariner	-14.1864
Harmon	-14.1864
dẫn	-14.1864
▁Piarc	-14.1864
▁6,8	-14.1864
izon	-14.1864
▁Popula	-14.1865
lobal	-14.1865
▁axon	-14.1865
▁Dench	-14.1865
▁Mute	-14.1865
▁Kirsten	-14.1865
▁Baker	-14.1865
gras	-14.1865
▁Legen	-14.1865
▁LÀ	-14.1865
adian	-14.1865
anthrop	-14.1865
▁Guin	-14.1865
▁Seko	-14.1866
▁Gafi	-14.1866
▁SUN	-14.1866
▁Charit	-14.1866
▁Ike	-14.1866
▁GHz	-14.1866
▁Four	-14.1866
▁3-5	-14.1866
▁Ginger	-14.1867
▁Heide	-14.1867
ruct	-14.1867
▁Gru	-14.1867
▁Wikileak	-14.1867
▁2.9	-14.1867
ergo	-14.1868
Xon	-14.1868
▁Boing	-14.1868
▁Holme	-14.1868
GB	-14.1868
▁Pud	-14.1869
▁NPR	-14.1869
▁Round	-14.187
▁Metro	-14.187
▁Brod	-14.187
obacter	-14.1871
▁Vac	-14.1871
▁Portal	-14.1871
▁Kafka	-14.1871
ulph	-14.1871
▁8.5	-14.1871
yrann	-14.1871
0-60	-14.1872
ynthe	-14.1872
oughs	-14.1872
ucci	-14.1873
ograph	-14.1873
enb	-14.1873
▁Hawai	-14.1873
▁Give	-14.1873
▁3,4	-14.1873
▁nư	-14.1874
▁Eis	-14.1874
▁Work	-14.1874
itzh	-14.1875
▁Spel	-14.1875
▁XY	-14.1875
▁Dji	-14.1875
▁Live	-14.1875
▁Pets	-14.1876
▁Maka	-14.1876
▁hash	-14.1876
▁Aden	-14.1876
utter	-14.1876
▁Tivi	-14.1876
▁forma	-14.1876
▁Rainbow	-14.1877
chrom	-14.1877
▁Micha	-14.1878
▁Cove	-14.1878
▁581	-14.1878
▁Ear	-14.1878
▁Barrow	-14.1878
jack	-14.1879
▁Wester	-14.1879
send	-14.1879
▁UK	-14.1879
▁Zaca	-14.188
▁Autom	-14.188
▁Shia	-14.188
oots	-14.188
owie	-14.188
▁Buff	-14.188
▁Blend	-14.1881
▁Shim	-14.1881
lone	-14.1882
yatt	-14.1882
theo	-14.1882
▁Foot	-14.1882
rise	-14.1883
▁Curz	-14.1883
▁giêng	-14.1883
▁Amr	-14.1883
gara	-14.1884
HẠ	-14.1884
odia	-14.1885
▁Vick	-14.1885
▁Gate	-14.1886
andwich	-14.1886
▁TEDX	-14.1887
ankof	-14.1887
tkin	-14.1887
cock	-14.1887
zhen	-14.1888
▁2300	-14.1888
▁Mind	-14.1888
▁Stri	-14.1889
▁Kuh	-14.189
shaw	-14.189
▁Fellows	-14.189
▁Barc	-14.1891
▁Asha	-14.1891
▁Hook	-14.1893
dni	-14.1893
▁Hid	-14.1893
▁Smoot	-14.1893
▁inter	-14.1893
▁app	-14.1893
Drive	-14.1893
▁Zulu	-14.1894
DAR	-14.1894
▁beat	-14.1894
▁acet	-14.1894
▁Dum	-14.1895
▁111	-14.1895
▁Sass	-14.1897
▁mass	-14.1897
▁8.2	-14.1898
▁RF	-14.1898
▁Tik	-14.19
▁Spring	-14.19
đan	-14.1901
▁Downs	-14.1901
▁Sister	-14.1901
▁13.7	-14.1901
heikh	-14.1901
boro	-14.1901
▁Soko	-14.1902
▁Male	-14.1902
bout	-14.1902
Keys	-14.1902
▁Bridge	-14.1903
▁milli	-14.1903
▁Sequ	-14.1903
▁Hod	-14.1903
▁Arts	-14.1904
▁Herc	-14.1905
▁Ragh	-14.1905
▁Quest	-14.1906
▁KI	-14.1907
▁Mmm	-14.1908
▁Eben	-14.1908
olina	-14.1911
bbe	-14.1912
▁Jura	-14.1913
▁Trib	-14.1913
▁Yes	-14.1913
yrex	-14.1914
▁3,7	-14.1914
tics	-14.1914
▁Hug	-14.1915
dson	-14.1919
▁fra	-14.1919
▁Kard	-14.1921
▁DV	-14.1921
burger	-14.1921
▁Lizzi	-14.1923
▁je	-14.1924
▁Troll	-14.1924
▁Kraus	-14.1924
roxi	-14.1924
▁69	-14.1925
▁amar	-14.1925
▁Reve	-14.1925
▁life	-14.1926
ngea	-14.1927
▁Bip	-14.1928
tko	-14.1928
dus	-14.1929
▁Krishnan	-14.1929
founder	-14.1931
,700	-14.1932
▁Muk	-14.1933
▁Urh	-14.1933
▁Hanni	-14.1934
▁Hue	-14.1935
▁Moto	-14.1936
▁Bog	-14.1937
▁Masa	-14.1937
▁Pix	-14.1938
▁Sog	-14.1938
▁Zw	-14.1938
▁Bolin	-14.1939
▁Brigh	-14.1939
scott	-14.1939
eider	-14.1939
▁prom	-14.194
▁MAN	-14.194
▁Britta	-14.194
amer	-14.1942
Up	-14.1943
▁Wak	-14.1944
▁Xê	-14.1947
taple	-14.1947
▁Tradi	-14.1947
▁Bres	-14.1948
▁Zim	-14.1949
pez	-14.1949
gawa	-14.1951
▁Mulla	-14.1952
▁Lep	-14.1955
▁Mond	-14.1955
lide	-14.1956
▁Patti	-14.1959
▁Emer	-14.1959
wesi	-14.1961
yanu	-14.1963
▁Box	-14.1963
▁Alti	-14.1964
▁Pean	-14.1967
ional	-14.1967
▁Speedo	-14.1968
▁med	-14.1972
▁del	-14.1974
rens	-14.1975
▁neon	-14.1975
stori	-14.1977
▁rapper	-14.1982
zett	-14.1982
▁Fuku	-14.1983
eave	-14.1983
acki	-14.199
SP	-14.199
▁aw	-14.1991
▁Jum	-14.1992
▁balo	-14.1993
▁3.1	-14.1994
insul	-14.1994
cj	-14.1994
eyes	-14.1995
▁Stru	-14.1995
▁Moran	-14.2
▁inv	-14.2001
việc	-14.2001
▁Herm	-14.2004
▁Arri	-14.2005
ative	-14.2006
istra	-14.2007
EL	-14.201
▁Nic	-14.2012
▁Mili	-14.2013
mite	-14.2013
▁Bird	-14.2014
▁pati	-14.2014
▁jo	-14.2017
▁Taz	-14.2019
▁Rep	-14.2023
czy	-14.2023
giây	-14.2024
▁SL	-14.2024
điêu	-14.2025
▁Sona	-14.2026
Astor	-14.2026
▁Meda	-14.2026
▁Cata	-14.2028
ermin	-14.2029
algo	-14.203
▁Smit	-14.203
atya	-14.2034
▁Ối	-14.2034
llam	-14.2037
▁styr	-14.2037
▁LI	-14.2039
▁Ek	-14.2039
▁Gret	-14.2041
▁RO	-14.2041
evelop	-14.2042
ummi	-14.2043
▁Eba	-14.2044
vere	-14.2045
tech	-14.2048
alsa	-14.2049
▁rỗ	-14.205
▁CR	-14.205
▁Typ	-14.2053
▁Il	-14.2058
▁Sham	-14.2063
▁Lali	-14.2063
▁but	-14.2063
▁Shy	-14.2066
▁Lucia	-14.2069
của	-14.207
▁Pani	-14.2071
▁Navi	-14.2073
▁Asia	-14.2075
caba	-14.2078
▁Beard	-14.208
▁Sap	-14.2081
itsy	-14.2081
▁Sherr	-14.2087
▁Phe	-14.2087
Sal	-14.2087
▁Dud	-14.2092
▁Div	-14.2094
kinh	-14.2102
▁Taji	-14.2102
▁Wilk	-14.2105
▁Rab	-14.2113
▁Tre	-14.2115
▁Rene	-14.2117
tree	-14.2117
▁Rando	-14.2118
▁Kidro	-14.2119
▁just	-14.2122
▁Kanda	-14.2122
▁1,7	-14.2124
▁Dir	-14.2124
▁Audu	-14.2124
▁Morin	-14.2125
▁Uran	-14.2131
eters	-14.2137
ỉn	-14.2139
▁peni	-14.2141
amire	-14.2142
700	-14.2142
pho	-14.2155
nistan	-14.2159
▁Berl	-14.2161
mạng	-14.2166
ival	-14.2166
rika	-14.2167
▁Sopho	-14.2174
▁Stat	-14.2175
▁BI	-14.218
▁Bit	-14.2182
▁Dw	-14.2184
▁Institut	-14.2184
▁2,6	-14.2189
▁Moss	-14.2192
lanta	-14.2193
ietz	-14.2193
▁Croa	-14.2193
▁Sạch	-14.2194
jen	-14.2195
▁Brei	-14.2201
▁Koy	-14.2203
▁Zem	-14.2207
kes	-14.2208
8,9	-14.2216
atte	-14.2227
▁2.6	-14.2239
tene	-14.2242
Mo	-14.2244
etw	-14.2246
▁Yorke	-14.2248
ggy	-14.2249
▁Hiểm	-14.2249
▁Ik	-14.2258
ulos	-14.2261
▁Modi	-14.2262
▁Flo	-14.2264
abri	-14.2268
▁Zen	-14.227
ylan	-14.2272
tif	-14.2281
▁Bharat	-14.2288
▁Linds	-14.2295
TN	-14.2301
▁HD	-14.2302
onzo	-14.2306
Zho	-14.2307
RO	-14.2309
Share	-14.2326
▁Bioph	-14.233
▁Part	-14.2336
ravit	-14.2338
▁Kelle	-14.234
▁Amst	-14.2342
▁Chem	-14.2343
obal	-14.2343
sét	-14.2344
▁Mahl	-14.2346
orm	-14.235
tesh	-14.2352
occu	-14.2355
ece	-14.2359
ichte	-14.2359
nhưng	-14.2361
mines	-14.2383
range	-14.2384
▁Amis	-14.2385
▁Kurt	-14.239
lya	-14.2396
methyl	-14.2405
nyl	-14.242
▁Sus	-14.243
hese	-14.2442
rena	-14.2453
oocm	-14.2457
himi	-14.2465
▁Dơi	-14.2465
▁Loy	-14.2474
▁Fede	-14.2477
nzia	-14.2481
▁173	-14.2497
▁Hack	-14.2501
▁Core	-14.252
pirin	-14.2523
sland	-14.2531
▁Mende	-14.254
86	-14.2546
noff	-14.2548
afal	-14.2564
▁Cava	-14.2567
late	-14.2567
▁Hick	-14.2567
▁Og	-14.2569
▁Kem	-14.2587
TAR	-14.2588
band	-14.2588
hun	-14.2588
▁Medica	-14.2592
4.8	-14.2599
later	-14.2599
▁Lek	-14.26
▁Seve	-14.2604
▁Kite	-14.2611
▁Ush	-14.2618
▁Polo	-14.263
rugge	-14.2652
▁Tier	-14.266
999	-14.266
gang	-14.2662
ste	-14.267
▁Harar	-14.2671
▁Schwartzber	-14.2675
ssi	-14.2676
▁mít	-14.2678
wis	-14.268
aps	-14.2692
eeve	-14.2692
▁Hara	-14.2694
▁Elk	-14.2717
anji	-14.2733
otti	-14.2735
▁Hank	-14.274
ando	-14.2744
876	-14.2747
▁Kur	-14.2755
▁Audi	-14.2765
▁Fallo	-14.278
cỡ	-14.2782
lke	-14.2827
▁Hour	-14.2828
▁Sash	-14.2829
▁Gadd	-14.2841
uster	-14.285
iske	-14.2853
shhh	-14.2855
41	-14.2859
▁ngọ	-14.2879
Baptist	-14.2882
dle	-14.2892
▁Vers	-14.2898
▁dọ	-14.2907
rien	-14.2931
assel	-14.2944
Moral	-14.2951
▁Acho	-14.2954
rend	-14.2955
▁Kere	-14.2962
▁Loui	-14.2967
▁TEDxD	-14.2971
▁SBI	-14.2971
pes	-14.2973
arrel	-14.2981
Kohn	-14.2981
Berr	-14.2982
trung	-14.2999
rnia	-14.3
RAS	-14.3001
▁Roa	-14.3011
ilia	-14.3015
▁Limo	-14.3036
endu	-14.3041
▁Kosh	-14.3044
unner	-14.3049
soft	-14.3052
uyến	-14.3059
▁Kasu	-14.3081
inse	-14.3082
▁Diam	-14.309
kha	-14.3093
WE	-14.3107
éc	-14.3143
8000	-14.3154
utain	-14.3181
▁Hij	-14.3181
▁milim	-14.3188
vor	-14.3193
kee	-14.3204
▁Raf	-14.3205
▁Ast	-14.322
osada	-14.3249
▁Laenn	-14.326
▁Laut	-14.3264
rete	-14.3269
care	-14.3271
amine	-14.3279
1.5	-14.3304
hahaha	-14.3311
rop	-14.3331
Engels	-14.3348
ashe	-14.335
▁Ord	-14.3368
giá	-14.3369
▁Limburg	-14.3381
▁Brea	-14.3389
▁chẵn	-14.3392
▁Parr	-14.34
▁Liza	-14.3404
mö	-14.3405
orphin	-14.3407
ific	-14.3411
bb	-14.3434
dell	-14.3442
sur	-14.3446
utz	-14.3454
ecl	-14.3506
oj	-14.351
jal	-14.3513
ugge	-14.353
icken	-14.3565
ilim	-14.3574
▁Whi	-14.3575
▁Aj	-14.3584
LA	-14.3604
▁Tur	-14.3605
-15	-14.3629
eve	-14.3643
▁Michell	-14.3651
ortland	-14.3655
▁Gol	-14.3674
▁Margo	-14.3713
▁Hugh	-14.3723
PS	-14.3728
▁Slo	-14.377
▁Mand	-14.3771
anda	-14.3779
stas	-14.378
▁Att	-14.3791
▁Kir	-14.3876
eyer	-14.3877
ried	-14.3894
9,9	-14.3912
itte	-14.3916
▁Prot	-14.3919
▁Made	-14.3923
tyle	-14.394
▁Milo	-14.3944
sound	-14.3952
ijo	-14.3956
MAO	-14.397
▁Steine	-14.3983
▁Iss	-14.3983
fis	-14.3992
bal	-14.4021
0	-14.4026
ướn	-14.4027
Box	-14.4032
▁mor	-14.4034
▁Witte	-14.404
ppl	-14.4042
▁Meh	-14.4044
▁Ville	-14.4047
▁Coro	-14.4051
▁Dell	-14.4065
▁PTT	-14.4087
asia	-14.409
restero	-14.4106
erlin	-14.4119
▁Goe	-14.4137
ynsk	-14.4155
▁Sho	-14.4173
▁Tale	-14.4185
SU	-14.4192
elen	-14.4226
▁spa	-14.4246
▁Guer	-14.4265
▁Move	-14.4269
▁rec	-14.4278
▁Kill	-14.4295
▁Fant	-14.4307
TER	-14.432
hhhh	-14.4377
lulo	-14.4404
▁Sander	-14.4406
▁232	-14.4421
euros	-14.4427
▁Sil	-14.4442
,48	-14.4458
mund	-14.4466
yahu	-14.4471
▁Shil	-14.4472
▁Honor	-14.4473
uka	-14.4487
▁Lav	-14.4499
Hae	-14.4508
▁Kenn	-14.4558
▁Menin	-14.4559
ETS	-14.4562
wash	-14.4568
620	-14.457
sevi	-14.459
dev	-14.4611
adem	-14.4659
SA	-14.4659
pid	-14.4659
▁Idea	-14.4664
gina	-14.4666
rade	-14.467
▁Aud	-14.4673
azari	-14.4695
rov	-14.4707
▁Wee	-14.4759
▁Baf	-14.4766
▁Aman	-14.4772
Soon	-14.4812
UP	-14.482
atri	-14.4825
rter	-14.4837
▁Wild	-14.4866
▁Rog	-14.4867
owen	-14.4873
▁380	-14.4876
ứu	-14.4876
▁Tali	-14.4882
▁Caj	-14.4883
▁Lye	-14.4894
spera	-14.4923
lex	-14.4928
▁Baro	-14.4942
▁Horn	-14.4948
fre	-14.4959
▁Khe	-14.497
▁trươ	-14.497
rotein	-14.4976
cid	-14.5004
kel	-14.5019
híp	-14.5036
amia	-14.505
jaz	-14.5055
four	-14.5096
hab	-14.5121
▁Philipp	-14.5123
chester	-14.5154
estra	-14.5162
▁Asto	-14.5168
▁Wilde	-14.5172
egen	-14.5182
anger	-14.5188
▁Anta	-14.5203
▁Acc	-14.5211
ppers	-14.5217
agna	-14.5246
▁Chớ	-14.5254
jar	-14.5257
gebo	-14.528
cio	-14.5342
rganiz	-14.536
▁Guid	-14.538
argi	-14.538
atric	-14.5384
▁Dill	-14.5413
▁Warin	-14.5417
nalis	-14.5441
mpton	-14.5442
itter	-14.5451
▁Less	-14.5458
VA	-14.5499
kine	-14.5528
▁asp	-14.5533
▁tanag	-14.5548
▁Barric	-14.559
▁RA	-14.5601
dhek	-14.5604
nife	-14.5641
ribe	-14.5644
ebr	-14.5652
▁Villa	-14.5669
▁Ox	-14.5685
▁JP	-14.569
▁Dre	-14.5694
racy	-14.571
▁Gris	-14.5711
sling	-14.5717
▁Ashe	-14.5722
iji	-14.5723
ante	-14.5729
▁Maf	-14.5762
raf	-14.5763
alact	-14.5763
▁0.4	-14.5792
▁Sad	-14.5802
▁cầ	-14.5812
arney	-14.5849
▁103,0	-14.5873
▁Shar	-14.5886
▁toé	-14.5887
ddle	-14.5892
trix	-14.5895
▁Bor	-14.5897
▁Cell	-14.5944
▁321	-14.598
OE	-14.5984
▁Kab	-14.599
arko	-14.6008
zil	-14.6026
▁Alc	-14.6034
▁Amb	-14.6041
xeti	-14.6097
▁Leic	-14.6126
ctoria	-14.6127
▁EU	-14.6127
Roberts	-14.6131
▁Downto	-14.6155
von	-14.6165
▁GP	-14.6174
▁Dob	-14.6179
▁Lew	-14.618
▁Yor	-14.6225
▁Canal	-14.623
▁RP	-14.6235
▁GC	-14.6249
▁Aka	-14.6255
dsor	-14.6265
▁Egla	-14.6287
▁Nichols	-14.6287
plane	-14.629
▁Copp	-14.6293
itle	-14.631
▁Serb	-14.6319
▁Chav	-14.6327
▁Dil	-14.6336
▁Kris	-14.6356
▁370	-14.6359
ambu	-14.6359
clus	-14.6361
▁Gur	-14.6364
▁Kub	-14.6372
ondo	-14.6377
AND	-14.6383
ouma	-14.6387
▁Yah	-14.6389
▁Dán	-14.6398
erick	-14.641
2,2	-14.6411
walk	-14.6413
▁Yea	-14.6444
▁TEDxMid	-14.6452
west	-14.646
rmal	-14.6461
sava	-14.6462
elman	-14.6479
sting	-14.648
lebr	-14.6494
ovac	-14.6498
▁Electr	-14.651
▁Berns	-14.6513
▁Alv	-14.6529
cept	-14.6529
radle	-14.6531
▁AAA	-14.6531
▁320	-14.6533
▁tiê	-14.654
esters	-14.6541
▁850	-14.6543
▁Adv	-14.6552
▁Kru	-14.6554
▁280	-14.6559
▁Just	-14.6572
phia	-14.6576
▁7,	-14.6578
▁Arca	-14.6581
arke	-14.6587
wif	-14.6591
▁183	-14.6595
▁Ruth	-14.6599
▁5500	-14.6606
worth	-14.6609
AX	-14.6613
unge	-14.6622
▁Tille	-14.6622
arks	-14.6626
omba	-14.6626
▁Mura	-14.6633
▁Glo	-14.6633
rif	-14.6639
lites	-14.6641
▁Wel	-14.6643
erts	-14.6645
▁Suns	-14.6658
rous	-14.6663
▁RE	-14.6665
▁MIN	-14.6668
▁Bull	-14.6673
▁Ache	-14.6675
elop	-14.668
sphe	-14.6687
ille	-14.6697
▁Tàn	-14.6698
itlin	-14.6703
unity	-14.6706
auri	-14.671
sell	-14.6718
▁Appalachia	-14.6723
AB	-14.6724
▁Comm	-14.6731
gsta	-14.6732
icodi	-14.6737
Ô	-14.6742
ntana	-14.6742
▁8,	-14.6748
Dunn	-14.6749
▁Diff	-14.6751
idya	-14.6754
▁Ass	-14.6758
helma	-14.676
▁Denisova	-14.677
▁Spri	-14.677
▁Somal	-14.6771
▁Adri	-14.6771
ulian	-14.6773
ainab	-14.6773
▁Johan	-14.6774
arap	-14.6776
Ổ	-14.6777
tche	-14.678
pines	-14.678
embl	-14.6783
count	-14.6783
lomo	-14.6785
scher	-14.6786
Ấ	-14.6786
▁plexi	-14.6788
▁Ful	-14.679
misin	-14.6794
▁ngườ	-14.6794
igma	-14.6796
acy	-14.6801
chỉ	-14.6804
▁Abe	-14.6804
▁Dogg	-14.6814
380	-14.6814
▁proge	-14.6816
Queen	-14.6817
07	-14.6817
III	-14.6819
Ville	-14.6819
Land	-14.6821
Morin	-14.6821
Foot	-14.6821
Quest	-14.6821
Stri	-14.6821
▁Abra	-14.6822
Charm	-14.6823
Ư	-14.6823
Corp	-14.6823
▁3.0	-14.6823
hana	-14.6823
Car	-14.6823
Girl	-14.6823
You	-14.6824
Pack	-14.6824
Atlant	-14.6825
1978	-14.6825
Project	-14.6825
anders	-14.6825
Khali	-14.6825
Lind	-14.6825
just	-14.6826
Pilot	-14.6826
Ơ	-14.6826
epo	-14.6826
Master	-14.6826
Prize	-14.6826
Amsterdam	-14.6826
2014	-14.6826
1,2	-14.6826
LU	-14.6826
Jones	-14.6826
Cent	-14.6826
Luc	-14.6827
Angel	-14.6827
Iraq	-14.6827
Thiên	-14.6827
thuế	-14.6827
John	-14.6827
Một	-14.6827
Không	-14.6827
hacker	-14.6827
Well	-14.6827
Khan	-14.6828
House	-14.6828
trở	-14.6828
Gil	-14.6828
Dust	-14.6828
GP	-14.6829
Love	-14.6829
Times	-14.6829
ngoại	-14.6829
đại	-14.6829
Tư	-14.6829
giờ	-14.683
▁Domini	-14.683
khác	-14.683
Dick	-14.683
FB	-14.683
phon	-14.6831
phạt	-14.6831
elov	-14.6831
II	-14.6833
ván	-14.6833
Kerry	-14.6834
glu	-14.6834
giới	-14.6834
phenol	-14.6834
Atti	-14.6834
đê	-14.6835
polymer	-14.6835
Now	-14.6835
lé	-14.6836
laj	-14.6837
Thậ	-14.6837
▁1.0	-14.6837
▁trố	-14.6838
khause	-14.6838
lass	-14.6838
▁Kafk	-14.6839
giống	-14.6839
rừ	-14.6839
Arche	-14.6839
Aid	-14.6839
Carme	-14.6839
▁giò	-14.6839
▁Sahar	-14.6842
emia	-14.6842
▁Dora	-14.6842
rine	-14.6844
urste	-14.6844
nbiot	-14.6844
Gri	-14.6845
Tric	-14.6846
Who	-14.6847
▁Chắn	-14.6847
Qua	-14.6848
enic	-14.6849
lại	-14.6849
Cô	-14.6849
ambridge	-14.6849
Ann	-14.685
Niel	-14.6851
đừng	-14.6851
▁Arno	-14.6852
ssou	-14.6853
▁Auto	-14.6854
plashy	-14.6854
ilver	-14.6854
▁electr	-14.6855
xám	-14.6855
ulle	-14.6856
dhis	-14.6856
game	-14.6856
▁Quixot	-14.6856
LIS	-14.6857
mbie	-14.6857
rchitectur	-14.6857
▁Yugoslav	-14.6858
▁Earl	-14.6858
▁Afgh	-14.6858
Ă	-14.6858
▁4.0	-14.6858
▁Méli	-14.6859
0,1	-14.6859
onven	-14.6859
eble	-14.6859
drenalin	-14.6859
▁sandw	-14.6859
▁Schott	-14.6859
zzz	-14.6859
orrupt	-14.6859
▁Feministing	-14.6859
▁Hewlett	-14.6859
▁Seventh	-14.6859
▁techno	-14.6859
sachusetts	-14.6859
▁Abbott	-14.6859
▁Apatzi	-14.6859
▁Environment	-14.6859
Dopa	-14.6859
GEN	-14.6859
Thousand	-14.6859
atchidananda	-14.6859
dorp	-14.6859
hydrat	-14.6859
iggledy	-14.6859
nvestigati	-14.6859
rhodopsin	-14.6859
ulldoze	-14.6859
{	-14.6859
Ó	-14.6859
ë	-14.6859
ć	-14.6859
ƯƠ	-14.6859
ย	-14.6859
ร	-14.6859
่	-14.6859
Ẻ	-14.6859
Ị	-14.6859
Ọ	-14.6859
Ử	-14.6859
▁1-800-	-14.6859
▁123456	-14.6859
▁1982-83	-14.6859
▁3,2	-14.6859
▁74.125.226.212	-14.6859
▁Althusser	-14.6859
▁Amedabad	-14.6859
▁Avalokit	-14.6859
▁Avidian	-14.6859
▁Awesome	-14.6859
▁Baghead	-14.6859
▁BeatJazz	-14.6859
▁Brancusi	-14.6859
▁Cincin	-14.6859
▁Csikszent	-14.6859
▁DaVinc	-14.6859
▁Fahrenheit	-14.6859
▁Fortingall	-14.6859
▁Hendrix	-14.6859
▁Horizon	-14.6859
▁Hotchkiss	-14.6859
▁Humanity	-14.6859
▁Hymalaya	-14.6859
▁Iliad	-14.6859
▁Kashmir	-14.6859
▁Kyrgyz	-14.6859
▁Macedonia	-14.6859
▁Mahishasur	-14.6859
▁Medved	-14.6859
▁Nescaf	-14.6859
▁Oyesola	-14.6859
▁PAWA	-14.6859
▁Patagonia	-14.6859
▁Piazzolla	-14.6859
▁Piccard	-14.6859
▁Pinnacle	-14.6859
▁Polynesia	-14.6859
▁Quebec	-14.6859
▁Rachmanino	-14.6859
▁Raphael	-14.6859
▁Rousseff	-14.6859
▁Scholars	-14.6859
▁Shahara	-14.6859
▁VocaliD	-14.6859
▁aegypti	-14.6859
▁build	-14.6859
▁djinn	-14.6859
▁ghostbuster	-14.6859
▁glucôzơ	-14.6859
▁lucifer	-14.6859
▁pants	-14.6859
▁puchu	-14.6859
▁white	-14.6859
▁yaodong	-14.6859
	-14.6859
.............	-14.6859
ooooooo	-14.6859
▁Bourne	-14.6859
▁Gbla	-14.6859
▁heart	-14.6859
▁probiotic	-14.6859
▁Constantin	-14.6859
▁Course	-14.6859
▁Geogre	-14.6859
▁Gulfstream	-14.6859
▁Olmste	-14.6859
▁Omenet	-14.6859
▁Raffael	-14.6859
▁Sicil	-14.6859
▁Sparta	-14.6859
▁Zheimer	-14.6859
▁ballad	-14.6859
▁gauge	-14.6859
▁open	-14.6859
▁synap	-14.6859
rrrrrr	-14.6859
▁Sequoia	-14.6859
▁Taberna	-14.6859
▁freeflying	-14.6859
▁geophon	-14.6859
▁Again	-14.6859
▁Hutchinson	-14.6859
▁Tsuki	-14.6859
▁zzzz	-14.6859
▁Chemistry	-14.6859
▁Felix	-14.6859
▁empower	-14.6859
Tbilisi	-14.6859
É	-14.6859
▁Aeron	-14.6859
▁Alessi	-14.6859
▁Colescott	-14.6859
▁artist	-14.6859
▁silde	-14.6859
▁2,70	-14.6859
▁McGuire	-14.6859
0,2	-14.6859
hildhood	-14.6859
Á	-15.6532
Ầ	-15.682
Ắ	-15.6825
Ế	-15.6825
Ú	-15.6826
Ố	-15.6826
ø	-15.6845
Ệ	-15.6858
®	-15.6859
ï	-15.6859
ñ	-15.6859
ā	-15.6859
Č	-15.6859
Ĩ	-15.6859
Ť	-15.6859
Ỗ	-15.6859
Ớ	-15.6859
Ụ	-15.6859
Ữ	-15.6859
Ỵ	-15.6859
€	-15.6859
Ỉ	-15.6859
£	-16.6091
}	-16.6092
อ	-16.6093
©	-16.6094
Ủ	-16.6095
*	-16.6096
̣	-16.6097
Ẩ	-16.6098
⁄	-16.6099
)	-16.61
=	-16.6101
+	-16.6102
Í	-16.6103
Ừ	-16.6104
$	-16.6105
Ả	-16.6106
Ồ	-16.6107
/	-16.6108
!	-16.6109
%	-16.611
ẩ	-16.6111
ẫ	-16.6112
:	-16.6113
?	-16.6114
ặ	-16.6115
ằ	-16.6116
ắ	-16.6117
ă	-16.6118
ậ	-16.6119
â	-16.612
ấ	-16.6121
ộ	-16.6122
